#version: 0.2 - Trained by `huggingface/tokenizers`
á »
á º
n g
Ġ t
Ġ c
Ġ Ä
n h
ĠÄ ĳ
Ã ł
Æ °
Ġt h
Ġ v
Ã ¡
Ġ l
Ġ h
Ġc h
i á»
Ġ m
Ġ k
Ġ b
Ġ nh
Ġt r
Æ° á»
Ġ s
áº ¡
Ã ´
áº ¿
Ġ n
Ġk h
Ã ª
Ġ g
Ġ d
áº £
Ã ³
á» Ļ
Ġ ng
áº ¥
Ġ p
Ġp h
iá» ĩ
á» ĳ
Ã ¢
Ã¡ c
Ã´ ng
Ãª n
Ġ T
Ã ¬
ĠÄĳ á»
Ġv Ãł
Ġv á»
Æ ¡
á» §
áº Ń
Ġl Ãł
Ġg i
áº §
q u
Ġ qu
Ġth á»
Ã Ń
Ġ r
i áº¿
Æ°á» Ŀ
Ľ i
Æ°á» £
áº¥ t
Ġt á»
Ġ x
Ġc Ã³
Ġc á»§
Ġcá»§ a
áº¡ i
u y
Ġ N
Ä ĥ
Ġh á»
Ġ C
Ġc Ã¡c
Ã º
o ng
Ã £
a n
Ã¬ nh
á» ¯
á» ĭ
áº ¯
Æ°á»£ c
â Ģ
iá» ģ
á» ±
Ã¢ n
á»Ļ t
Ġ H
ĠÄĳ Æ°á»£c
c h
á» ¥
á» ©
Ġch o
Ġkh Ã´ng
Ã ²
Ãł y
iá»ĩ n
a y
á» Ł
Ġm á»Ļt
Ġtr ong
i nh
áº ·
Ã ¹
Ġvá» Ľi
i Ãªn
áº¡ n
Æ°á»Ŀ i
Ġ B
áº§ n
Æ°á» Ľ
Ġ V
ĠÄ Ĳ
iá»ģ u
a o
a nh
Æ° Æ¡
Ġng h
á»¯ ng
a ng
iá» ĥ
Æ°á»Ŀ ng
Ãł nh
áº£ i
Ġng Æ°á»Ŀi
á» į
Ġnh á»¯ng
ĠT h
Ġ 1
Ãł ng
Ġnh Æ°
áº£ n
Ġ M
á» ĩ
Æ°Æ¡ ng
a i
a m
Ãł n
áº§ u
Ã¢ y
Æ°á»Ľ c
Ã´ i
Ãł i
ĠÄĳ á»Ļ
i n
Ġh o
áº¿ n
ĠÄĳá» ĥ
u ng
Ġ 2
ĠÄĳ Ã£
Ġ L
Å ©
Ġthá» ĥ
Ġ S
o n
á» ĵ
áºŃ n
iáº¿ t
Ā Ā
á» Ń
á» ķ
u á»ĳ
ÃŃ nh
Ġ P
áºŃ t
Ġb áº¡n
Ŀ i
Ã ½
áº ½
Äĥ ng
áº¿ t
a u
Ã¹ ng
áº ©
Ġc Ã´ng
Æ¡ n
Ġ âĢ
Ġn Ãły
Ġhá» į
Ã¡ n
Ġ K
ĠÄĳ áº¿n
Ġtá» «
. .
á» ī
ĠC h
Ġs á»ĳ
ĠT r
iá»ĩ t
Ġkh i
Ã ©
Ġ (
Ġl á»
á»Ļ i
Ġm á»
Ã¡ t
Å© ng
á»© c
á»ĳ i
Ġs áº½
ĠÄĳ Ã³
Äĥ m
Ġr a
Ġg iá»
ĠlÃł m
i Ãª
Ġvá» ģ
Ã¡c h
iáº¿ n
áº ±
Ġc áº£
Ã¡ i
Ġd á»¥
Ġnh iá»ģu
áº¥ y
Ġm Ãł
Ġth u
Ġ á»Ł
Ġc Å©ng
e o
áºŃ p
Ã¡ ng
Ġ D
iá»ĩ u
Ã¡ o
Ġt áº¡i
Ġ G
ĠvÃł o
ĠN g
ĠÄĳá» ĭ
iá»ĩ c
Ġh Ãłng
0 0
Ġl áº¡i
Ġtr Ãªn
Äĥ n
Ãº ng
á» ģ
Ã² ng
ĠP h
e m
Ġs á»±
áº «
Ġnh Ãł
ÃŃ ch
áº¥ p
Ġh iá»ĩn
Ġ A
Ġch á»ī
Ġdá»¥ ng
Ã¢ m
Ġv iá»ĩc
Ãł o
áº· c
Ä ©
áº£ o
ĠN h
ĠÄĳ áº§u
Ġb á»ĭ
Æ°á»£ ng
Ġth Ã¬
Ġph áº£i
Ġnh áº¥t
Ġth Ãłnh
Ġn Ã³
Ġ Q
Ã² n
Ġn Äĥm
áº ¹
ĠÄĳá»Ļ ng
áº »
± c
áº± ng
áº¯ c
ĠÄĳá» ĵ
Ã¡ p
áº· t
Ġhá»į c
e r
áº¡ o
Ġd o
uy Ãªn
e n
Ġ -
âĢ Ŀ
Ġn Æ°á»Ľc
Ã¢ u
0 1
Ã¡ nh
Ġt Ã´i
á» ı
á»± c
Ã´ n
Ġqu y
£ p
Ġng Ãły
ĥ n
Ġl o
Ġgi Ã¡
á»Ļ c
Ġhá» £p
Ì ģ
Ġt o
Ãº c
áº¡ t
ĀĀ ĀĀ
Ġh Æ¡n
Ġ y
áº© m
iá»ĥ m
Ġch ÃŃnh
Ġt iáº¿
Ġs áº£n
á»ģ n
Ġ 3
ĠâĢ ľ
Ġqu an
Æ¡ i
ĠÄĳ i
áº¥ n
ĠÄĳá»ĭ nh
Ġn Ãªn
Ġm Ã¬nh
áº« n
Ġnh Ã¢n
Ġc ao
uy á»ĩ
Ġngh iá»ĩ
Ġgi a
áº¯ t
Ġr áº¥t
Æ° a
á»ĭ ch
ĠÄĳá» ģ
Ġc Ã²n
áº¿ u
Ġs á»Ń
Ġt á»ĳ
áº£ ng
Ġthá» Ŀi
Ġkh o
Ġs inh
Ġth eo
Ä Ĳ
Ġc Æ¡
á»¥ c
ĠÄĳá»ĵ ng
Ġtr Æ°á»Ŀng
Ã¡ y
á»ĳ ng
iá»ģ n
Ġd á»±
Ġth áº¿
Æ°á» Ł
ĠcÃ¡c h
Ġthá» ±c
iá»ĥ n
ĠÄĳ iá»ģu
Ġc on
a r
Ġthá» ©
Ġth Ã´ng
á»© ng
Æ°á»Ł ng
ĠN am
Ġk á»
Ġch Ãºng
áº¡ nh
Ì Ģ
Ġmá» Ľi
Ġs au
u áº¥t
iá»ĥ u
Ġkh Ã¡ch
Ì £
uy á»
Ġh Ã¬nh
ħ n
u a
i m
i a
ĠV iá»ĩt
Ġc Ã¹ng
á»ķ i
ĠnhÆ° ng
ĠK h
Ġl u
Ġt a
Ġkh Ã¡c
Ġtr Ã¬nh
Ġv iÃªn
Ġc áº¥p
iÃª u
Ġph áº©m
Ġl Ã½
ĠÄĳ ang
Ġh Ãłnh
Ġn Äĥng
á»į n
Ġl Æ°á»£ng
Ġt in
á»ĳ c
Ġvá» ¥
Ġqu a
Ġb iáº¿t
Ġch áº¥t
áº¡ ng
Ġl Ãªn
Ġlá» Ľ
Ġc áº§n
Ġph Ã¡t
ĠÄĳ Ã¢y
uyá»ĩ n
á»ĩ nh
á» £
Ġt Æ°
Ġnh áºŃn
áº¥ u
Ġh ay
uá»ĳ c
Ġnghiá»ĩ p
áº£ m
Ġtá» ±
Ãº p
á» «
á»į i
Ġgi an
Ġn Ãło
Ġth iáº¿t
Ġv Ã¬
á»ĵ i
ĠnÃ³ i
Ġt Ã¢m
Ġm Ã¡y
Ġt u
Ã³ a
Ġb á»Ļ
áºŃ y
Ġd Ã¢n
Ġk áº¿t
Ġx uáº¥t
a l
Ġt áº¡o
Ġb áº£o
Ġto Ãłn
Ãª u
Ġlo áº¡i
Ġvá» ĭ
o r
Ġtá» ķ
Ġm áº·t
á»¯ a
Ġk inh
Ġgi Ãºp
Ġx e
áº¯ n
Ġb áº±ng
i t
Ġtá»ĳ t
áº¡ ch
ĠÄĳ á»ĳi
Ġtr Æ°á»Ľc
.. .
âĢ ¦
Ġc áº§u
Ġth áº¥y
Ġthá» ĭ
Ãº t
á»ĵ ng
Ġt Ã¡c
Ã ¨
ĠÄĳ iá»ĥm
Ġh á»Ļi
Ġ 4
Ġt áº¿
Ġng o
Ġtiáº¿ p
Æ°á»Ľ ng
Ġho áº·c
Ġh iá»ĩu
á» Ĺ
Ġ Ã´ng
ĠâĢ ĵ
Ġ 5
Ġ2 01
e s
Ġ anh
ĠÄĳ Æ°á»Ŀng
Ġt ÃŃnh
Ġth Æ°á»Ŀng
Ġt Ã¬nh
áº¹ p
Ãª m
Ġc u
Ġph Ã²ng
Ġ X
T h
ĠQ u
uá»ĳ n
Ġhá» ĩ
Ġch á»©c
Ġn ay
Ġph áº§n
áº¯ ng
Ġqu áº£
Ġch á»§
Ġ em
ĠÄĳ o
Ġ Ã½
Ġ R
áº£ nh
Ġnh iÃªn
Ġb áº£n
Ġd Ã¹ng
ĠG i
Ġph ÃŃ
e t
ĠÄ ĥn
á»Ļ ng
á»Ń a
Æ° u
Ġlá»Ľ n
Ġkh u
Ġtá» Ľi
á»į ng
áº¡ c
Ġb á»ĩnh
Ġk áº¿
Ġgiá» Ľi
Ã³ ng
ĀĀĀĀ ĀĀĀĀ
uyá» ĥn
ĠÄĳ áº¡i
Ġgi áº£i
Ġthá»© c
áº ³
Ġph Ã¡p
Ġtr á»ĭ
Ġsá»ĳ ng
ĠÄĳ áº¹p
iá» ħn
ĠÄĳ iá»ĩn
Æ° ng
Ġch á»įn
áº© n
Ġcáº£ m
Ġhá» ĵ
Ġg Ã¬
a t
Ġ Ã
Ġd á»ĭch
Ġqu Ã¡
Ġh ai
Ã¬ m
Ġdo anh
iá»ĩ m
Ġc á»©
á»Ł i
Ġy Ãªu
Ġtr iá»ĥn
Ġgiá» ¯
Ġtr á»įng
Ġt iá»ģn
Ġt Äĥng
Ã¡ m
Ġth o
Ġv áº«n
Ġt áºŃp
Ì ī
Ġm ang
Ġb Ã¡n
Ġv áºŃy
Ġtr ang
Ġt y
Ġth Ã¡ng
Ġ an
á» Ľ
« a
Ġm uá»ĳn
T r
ĠH o
Ġd Æ°á»
e l
Ġm ua
Ġ Ã¡n
Ã µ
áº§ m
Ġb iá»ĩt
Ġl iÃªn
Ġth á»ĳng
Ġ I
Ġch iáº¿
uy á»ģn
Ġ áº£nh
o m
áº³ ng
Ġch u
Ġth á»§
Ã³ c
á» Ŀ
Ġt iÃªu
Ġngh Ä©
Ġth Æ°Æ¡ng
Ġ "
Ġtr á»Ł
Ġh Ã³a
ĠÄĳá»ģ u
Ġt ay
Ġho áº¡t
á» ¹
Ġnh au
áº§ y
Ġt Ãłi
ĠÄĳá» ķ
Ġcu á»Ļc
Ġc Ã´
ĠQ uá»ĳc
áº¡ m
Ġr áº±ng
i c
Ġch á»ĭ
Ġt Ã¬m
Ġ 6
Ġv áº¥n
Ġtr ung
Ġc Ã¡i
á»į c
Ġl á»±c
ĠÄĳ Æ¡n
Ġl áº§n
C h
Ġ U
Ġb ao
Ġho Ãłn
Ġph Æ°Æ¡ng
uá»ĳ ng
2 01
Ġd a
Ġtr ÃŃ
Ġgi ao
Ġth i
á» ħ
Ġb Ãªn
Ġv i
áºŃ u
Ġv Äĥn
ĠÄĳá»ĭ a
Ġ F
ĠÄĳ áº¥t
Ġqu á»ĳc
ĠC Ã´ng
Ĺ i
h i
Ġb Ã¡o
á»ĵ n
ĠTr ung
Ġtá» ¥
Ġb áº¥t
a s
Ġch i
Ġch uyÃªn
Ġtiáº¿ ng
Ġtá» ī
Ġb Ãłi
Ġngo Ãłi
Ġth am
Ġth Ãªm
áº¯ m
Ġs Ã¡ng
Ġl iá»ĩu
Ġh Ã£
Ġs o
Ġs á»Ł
Ġt ÃŃch
Ġch Æ°a
Ġn áº¿u
á» Ŀi
Ġth Ã¢n
ĠH Ãł
Ġr á»ĵi
Ġ E
Ã© p
Ġch áº¿
Ġ á»©ng
áº¥ m
Ġd áº«n
áº± m
Ġ 0
Ġgiá» Ŀ
Ã© t
Ġtr áº»
ĠÄĳ áº·c
Ġvá» «a
Ġlu Ã´n
ĠÄĳá»ķ i
Ġth ÃŃch
Ã² a
Ġm á»įi
£ i
Ġch uyá»ĥn
Ġb u
Ġs á»©c
a c
á»± a
Ã¬ n
ı i
Ġn Æ¡i
Ġx Ã£
Ġdá»± ng
Ġc ung
Ġquy áº¿t
Ġs ao
r o
Ġh á»Ļ
áº¯ p
Ġkh Ã³
á» Ľi
l e
) .
ĠÄĳ áº·t
ĠmÃł u
Ġgi áº£m
Ġ 7
Ġng ay
Ġx em
Ġngh á»ĩ
t h
Ġnh á»ı
Ġh Æ°á»Ľng
Ġkh á»ı
Ġm áº¡nh
Ġn á»Ļi
Ġv áºŃt
Ġx Ã¢y
Ġ ,
Ġ1 0
N h
i s
N g
00 0
Ġtu á»ķi
Ġtá»ī nh
ĠÄĳ áº¡o
Ġt iáº¿t
Ġph á»¥c
Ġd á»ħ
Ġd u
Ġká» ³
Ġm áº¯t
Ġthu áºŃt
iáº¿ u
uy áº¿n
ĠÄĳ Ã¬nh
Ġth ay
Ġ 8
Ġs Ä©
Ġph á»ĳ
iÃª m
áº· p
Ġl á»ĭch
Ġquy á»ģn
Ġb iáº¿n
Ġvá» ±c
Ġnh anh
Ġtá»¥ c
Ġg Ã¢y
Ġh áº¿t
Ġph Ã¢n
Ġph á»¥
Ġl Ãºc
áº« u
Ġgi Ã¡o
áº¡ y
Ġthu á»Ļc
Ġb áº¯t
Ġb Ã¬nh
uyá» ħn
Ġl áºŃp
ÃŃ t
Ġch á»©ng
ÃŃ n
ĠÄĳ Æ°a
Ġd iá»ĩn
Ġc a
Ã´ m
ĠÄĳ Ã¡nh
) ,
o l
Ġg áº§n
Ġlá» Ŀi
Ġk iáº¿n
uá»ĳ i
Ġlá» £i
Ġv Ã´
Ġng uyÃªn
á»« ng
ĠÄĳá» §
Ġmá» Ĺi
áº· ng
Ġt iÃªn
Ġl Ã£
Ġtr á»£
ĠN á»Ļi
ĠM á»¹
u i
á» ĥ
Ġt Æ°á»£ng
Ġ W
Ġtá»« ng
Ġchiáº¿ c
Ġs Ã¡ch
Ġth anh
Ġn á»¯a
Ġt inh
Ġb Ãłn
a d
Ġc Ã¡
Ġl Ã²ng
Ġtr uyá»ģn
ĠÄĳá» ©
Ġkh iáº¿n
Ġth áºŃt
i ng
Ġm áº¹
Ġch Æ¡i
á»ĳ n
Ġnghiá»ĩ m
Ġ Y
Ġtá» Ń
Ġb á»Łi
Ġc Äĥn
Ġk iá»ĩn
ĠÄĳ a
ĠA nh
Ġc á»ķ
¡ ng
Ġn á»¯
Ġ w
Ġvá» ĩ
iÃª ng
Ġnh Ã¬n
Ġkho áº£ng
e b
ĠNg uyá»ħn
u n
Ġb á»ı
Ä© nh
Ġnh áºŃp
Ġm á»©c
áº£ y
Ġh iá»ĥu
Ġb Ã©
Ġch ung
a p
Ġ 9
Ġc á»Ńa
Ġd Ãłi
uy áº¿t
Ġd iá»ħn
ĠB á»Ļ
ĠÄĳá» Ŀi
Ġch iáº¿n
Ġt Ãªn
Ġqu áº£n
u s
Ġcá»© u
Ġgiá»¯ a
ĀĀĀĀĀĀĀĀ ĀĀĀĀĀĀĀĀ
Ġph ong
Ġ1 9
¯ u
Ġt áº¥t
Ä ĳ
Ġtr a
Ġtr iá»ĩu
Ġb an
Ġqu Ã½
Ġ in
Ġt iáº¿n
Ġnh u
ĠÄĳá»Ļ i
ĠdÆ°á» Ľi
Ġg á»įi
Ġho a
t r
Ã¡ u
Ã¹ a
Ġs áº¯c
Ġ O
uyá»ĩ t
Ġcáº£ nh
Ġch ÃŃ
Ġch Ã¢n
Ġchu áº©n
Ġb a
Ġm á»¥c
o t
Ġhá» ¯u
i d
Ġl á»±a
Ġnh iá»ĩm
Ġ áº¥y
Ġ ai
áº¿ p
Ġkh áº£
i l
Ġkh ai
Ġtr á»±c
Ġkh ÃŃ
Ġx Ã¡c
ĠÄĳ áº£m
Ã£ i
Ġn á»ķi
Ġs Ã¡t
Ġhá» ıi
Ġch uyá»ĩn
Ġc Ã¢y
Ġng u
Ġ Ã¡p
Ġk iá»ĥm
Ġká» ¹
ĠÄĳ áº§y
Ġc Ãłng
u r
a g
Ã³ n
Ġth Æ°
âĢĿ .
Ġg áº·p
Ġch á»ĳng
Ġc Ã¢u
ĠTr ong
ĠnghÄ© a
Ġt iá»ĩn
Ġh áº¡n
ĠV Äĥn
Ġc o
ĠÄĳ Ãºng
á»ĵ m
Ġt Æ°Æ¡ng
Ġv iáº¿t
Ġth uá»ĳc
Ġy áº¿u
Ġm áº¥t
Ġtr anh
Ã¢ ng
Ġhá» Ĺ
ĠA n
Ġh Æ°á»Łng
Ġ .
ĠC Ã¡c
Ġs ang
Ġph Ã¹
ĠÄĳ áº¡t
Ġc á»ĳ
Ġl áº¥y
Ġm á»Ł
t er
ĠB Ã¬nh
Ġch ia
Ġb Ãł
Ġk Ã½
á»ķ ng
Ġl Æ°u
e d
Ġr Ãµ
Ãł u
Ġ J
Ġc Ã¡o
Ġg Ã³
Ġm áº¡ng
ĠÄĳo Ãłn
Ġ ÃŃt
Ġt á»ĳi
Æ°á»£ t
Ġtá» ·
Ì ĥ
Ġtr Æ°á»Łng
Ġc Æ°
P h
Ġ1 2
o o
Ġ f
ĠN áº¿u
Ġt Æ°á»Łng
iáº¿ m
Ġc áº¡nh
Ġv ui
ĠÄĲ áº¡i
Ġg á»ĵm
Ġc á»¥
Ġngh e
ĠhÃ£ y
Ġb á»ĳ
Ġ Ã¢m
Ġm áº«u
Ġm inh
Ġr á»Ļng
ĠM inh
Ġdá»¥ c
áºŃ m
Ġc á»±c
Ãº a
Ġk Ã©
Ġng Ãłnh
Ġv Ã¹ng
ĠÄĳ Äĥng
Ġch Æ°Æ¡ng
Ġkho a
p h
Ġkh Ã¡
Ġd anh
áº© u
Ġd i
Ġgi áº£
Ġch á»©
Ġd ung
ĠÄĳ áº¥u
Ġngu á»ĵn
Ġ |
Ġlu áºŃt
ĠNg h
Ġb iá»ĥu
Ġ2 0
Ġd Ã¹
Ġtá»ķ ng
ĠdÆ°á» ¡ng
Ġr iÃªng
ĠÄĳá»Ļ c
Ġth áº§n
Ġv áºŃn
Ã³ m
ĠÄĲ á»©c
Ġ å
h o
Ġtr áº£
Ġb Ã³ng
Ġb ay
Ġt ÃŃn
į ng
Ġchá»ĭ u
Ġtho áº¡i
ĠT P
Ãº i
in e
o Ãłi
ĠphÃŃ a
Ġtr áº¡ng
Ġlá»Ľ p
Ãł m
Ġ :
Ġx uá»ĳng
1 0
ĠNh Ãł
Ġd Ã²ng
u m
Ġn am
Ġqu Ã¢n
o s
ĠT uy
Ġm Ã´i
Ġm Ã´
á»Ĺ i
on e
Ġch áº¯c
Ġx á»Ń
Ġto Ã¡n
ĠH á»Ļi
ĠÄĳ Ã´
Ġl Ã¢u
Ġkhá»ı e
Ġd Ãłnh
Ġb iá»ĥn
ĠÄĳ Ã¡ng
.. ..
ĠÄĳ Ã¢u
Ġká» ĥ
Æ°Æ¡ i
iá»ĩ p
Ġph á»§
Ġc uá»ĳi
Ġn Ã¢ng
Ġho áº¡ch
Tr ong
áº µ
ĠÄĳ au
Ġx in
Ġx a
Ġph im
Ġd áº¡ng
Ġph áº¡m
á» ³
Ġ1 5
Ã¨ n
Ġg h
ĠCh ÃŃnh
Ġv iá»ĩn
ĠTh anh
Ġ Ã¡o
Ġth áº¥t
Ġl á»ĩ
ĠÄĳ Ã¡
Ġ uá»ĳng
Ġkh áº©u
Ġn áº±m
ĳ ng
Ġ Æ°u
ĠÄĳo áº¡n
áº¡ p
Ġngh á»ĭ
Ġr áº»
Ġth iá»ĩn
ĠNh áºŃt
l o
Ġ ÃŃch
Ġs Æ°
á»Ń i
áº© y
ĠvÃł ng
ĠNh Æ°ng
Ġtá» ©
Ġm Ã³n
Ġ o
á»§ y
ĠÄĲ Ã´ng
Ġph Ã©p
Æ°á» Ľi
Ġv á»ĳn
1 1
Ġs Æ¡
Ġh uyá»ĩn
Ġg Ã¡i
Ġw eb
ĠC Ã³
á»ĭ p
Ã¹ i
Ġh Ã²a
Ġch á»¯a
N D
Ã£ n
áº§ ng
Ġb Æ°á»Ľc
Ġtr Ã²
ĠÄĳ Ã´i
Ġnh Ã©
Ġtr áºŃn
ĠB áº¡n
Ġch Ãº
Ġ201 8
Ġnh iá»ĩt
Ġk ÃŃch
Ġgiá» ĳng
Ġtr áº¯ng
ĠM á»Ļt
Ġm Ã´n
Ġs áº»
K h
u Ã´i
ĠB áº¯c
Ġx anh
ĠS au
Ġt áº£i
ĠKh i
Ġth Æ¡
Ġt uyá»ĩt
Ġgi Ã¡c
Ġb Ã¡c
Ġv Ã²ng
Ġc á»Ļng
ĠÄĳ Ãłn
Ġtá» ĭ
Ġng á»§
Ã£ y
N G
ĠTh Ãłnh
2 0
Ġth iáº¿u
Ġl ao
ĠÄĳ Ã´ng
Ġs Ã¢n
Ġh Ãºt
Ġ3 0
Ġhá»ĵ i
ĠÄĳÃ³ ng
Ġnh á»Ľ
ĠvÃł i
ĠÄĳ Ã¡p
Ġ2 00
Ķ ng
c om
i on
u Ã¢n
Ġh Ã´m
Ġngh iÃªn
Ġngo áº¡i
Ġgi áº£n
âĢĿ ,
i v
Ġthu Ãª
ĠH á»ĵ
iá»ģ m
Ġtr Ã¡i
Ġ æ
Ġph á»ĳi
Ġkhá»ı i
r e
Th eo
ĠÄĳá» į
Ġn á»ģn
Ġlu áºŃn
Ġd Ãłng
Ġv áº»
Ġch áº³ng
« ng
ģ m
á»ĳ t
Ġtr á»Ŀi
ĠV á»Ľi
Ġph Ã¡
Ġch áº¡y
C M
Ġt áº§ng
Ġtá»© c
it e
ĠT Ã¢y
Ġ á»
Ġnh áº¡c
Ġg á»Ńi
Ġ /
ĠKh Ã´ng
Ġl a
Ġkh Äĥn
Ġch áº¿t
Ġm Ã¹a
ĠNh á»¯ng
Ġnh áº±m
an d
i g
Ġk iáº¿m
Ġb á»ķ
ĠÄĳá»į c
Ġs Ã¢u
u t
ĠT o
Ġl áº¡nh
ĠI n
Ġkho áº£n
Ġ1 1
ĠÄĳá»© ng
âĢ ľ
ĠgÃ³ p
en t
Ġmá» ģm
ĠT Ã´i
ĠhÃ£ ng
Ġnh áº¹
ĠlÃ£ nh
Ġnh Ã³m
ĠD o
ĠB an
Ġs uáº¥t
ĠNg Æ°á»Ŀi
Ġm ong
ĠÃ ģ
Ġd áº§u
Ġ Ã´
Ġvá» įng
Ġthu áºŃn
Ġch iá»ģu
Ġsá»Ń a
Ġg hi
Ġx Ã©t
Ġph Ãºt
iá» ħ
ĠHo a
ĠÄĲ Ã¢y
Ġtu áº§n
Ġc Ã¢n
ĠL ong
Ġc áºŃp
Ġgi áº¥y
am e
Ġk ÃŃnh
Ġh áºŃu
ĠV Ã¬
ĠD Æ°Æ¡ng
Ġch á»ĵng
ĠÄĲ iá»ģu
ĠTh u
ĠH áº£i
Ġtr Ã¡ch
ĠHo Ãłng
Ġs áº¡ch
ĠâĢ ¢
Ġm iá»ħn
ĠS Æ¡n
ĠT á»ķng
âĢ ĵ
Ġtr Ã¡nh
Ġlá» ħ
ĀĀĀĀĀĀĀĀĀĀĀĀĀĀĀĀ ĀĀĀĀĀĀĀĀĀĀĀĀĀĀĀĀ
u p
ĠTh á»ĭ
Ġc áº£i
Ġvá» £
Ġqu áºŃn
ĠÄĳ Ãło
Ġm áº¡i
Ġt uyáº¿n
ĠTh Ã¡i
ĠCh Ãºa
ĠÄĳ em
Ġtá»ĭ ch
Ġmá» ¹
Ġch Ã³ng
ĠCh á»§
Ġh Ã¡t
e c
1 9
Ġl Ä©nh
Ġkh Ã¡m
Ã³ i
Ġ i
Ġt uyá»ĥn
Ġng uy
Ġt áºŃn
Ġth iÃªn
ĠÄĲ á»ĵng
Ġch á»Ĺ
Ġc am
Ġngh á»ģ
ĠV i
Ġh áº¥p
ĠkÃ© o
Ġth áº¥p
Ġ1 00
ĠTr Æ°á»Ŀng
Ġph áº£n
1 2
Ġh iá»ĥm
á»Ļ n
Ġm Ãłn
Ġm Ã¡i
a k
Ġm Ã¡u
Ġth áº©m
201 8
Ġ Ã¡nh
ĠnÃ³ ng
uá»ĳ t
Ġd uy
Ġn Ãłng
Ġs á»£
Ġngh á»ī
Ġchá»ī nh
V á»Ľi
5 0
á» ¡
Ġx áº£y
Ġ á»ķ
Ġkh Ã³a
Ġng Ã¢n
u l
ĠÄĳ áº£o
Ġqu anh
Ġkh áº£o
Ġx uyÃªn
Ġh áº¡i
Ġch Äĥm
Ġth Ã´i
ĠPh áºŃt
Ġthá»§ y
Ġn á»ĳi
Ġh Æ¡i
Ġl inh
Ġ1 8
Ã¨ o
Ġbu á»ķi
Ġch áº¯n
Ġ a
Ġd Ã¢y
Ġch Ãºt
ĠU S
ĠB áº£n
Ġk Ãª
Ġth Ã¡i
l ine
Ã¨ m
Ġth áº¯ng
Ġm áº¯c
C Ã¡c
Ġt ai
i p
Ġn Ã´ng
i r
á»Ľ m
Ġk iá»ĥu
Ġt Ã¹
ĠV Ãł
e x
Ġng Ã´i
Ġh uy
ĠÄĳ Ãªm
Ġtr áº£i
Ġt Ã´
Ġnh á»Ŀ
Ġh áº¡
Ġt Æ°á»Ľng
Ġ ä
ĠÄĳá» ı
Ġx Ãºc
Ġm ay
Ġv ai
ĠT H
ĠPh Ã¡p
ĠH Ãłn
Ġg á»Ĺ
Ġd áº¡y
Ġ uy
- -
Ġn iá»ĩm
Ġthá» Ń
Ġr Äĥng
Ġ ...
Ġth Ãº
Ġnh áºŃt
ĠL u
Ġm Ã£
t o
áº· n
Ġch áº¥p
e w
Ġd áº¥u
ĠTr áº§n
á»« a
Ġng á»ĵi
Ġtr ai
ĠTh iÃªn
Ġ0 9
ĠPh Ãº
M á»Ļt
Ġc Æ°á»Ŀng
Ġv Æ°á»£t
Ġ201 7
N áº¿u
Ġs á»Ľm
Ġká» ·
Ġtr Ã¬
Ġt iá»ĥu
Ġb Ã¡nh
Ġm áº·c
Ġl áº¡c
Ġth Æ°á»Łng
3 0
Ġch á»¯
Ġs uy
Ġm áºŃt
Ġkh á»Łi
Ġl Ã¡
Ġth áº£o
Ġs iÃªu
N H
Ġchá»© a
Ġm iá»ģn
ı a
o b
Ġkh áº¯c
Ġqu áº§n
Ġh áº¯n
Å© i
a v
ĠCh Ãºng
Ġs ai
Ġ áº¥n
áºµ n
ĠL Ãª
Ġm a
Ġn áº·ng
Ġn uÃ´i
Ã£ o
o a
Ġv a
á» ·
Ġb áº¿p
ĠÄĳ áº©y
Ġph á»ķ
iá»ħ m
Ġ1 6
Ġngh i
ĠÃ Ĥ
Ġph iÃªn
Ġqu en
Ġb á»¥
Ġthu áº¿
iáº¿ p
Ġ ç
ĠCh ÃŃ
Ġs im
s ite
Ã² i
ar t
k h
Ġl áº½
Ġ è
Ġtá»ĳ c
Ġqu ay
Ġc Å©
Ġng on
ĠNg oÃłi
Ġc áº¥u
Ġth ai
ĠCh Ã¢u
v n
T T
á»į t
Ãµ i
Ġt áº¥n
ĠTh á»§
ĠÄĳ Ã¨n
Ġch a
S au
ĠL iÃªn
Ġt Ã³c
á»§ ng
Ġh Æ°Æ¡ng
Ġl iá»ģn
ĠT á»«
Ġl á»Ļ
Ġgi ai
Ġt áº·ng
Ġv iÃªm
Ġn iÃªn
Ġ2 4
ĠÄĳ ÃŃch
H CM
ĠT Ã¢n
Ġng Äĥn
Ġs áºµn
ı ng
Ġl uyá»ĩn
Ġph a
Ġth Äĥm
Ġg ame
Ġs Ã³c
u b
Ġc Æ°á»Ŀi
Ġ1 4
Ġm áº¥y
Ġc Ã¡n
Ġph Ãª
ĠTh áº¿
ĠgiÃ¡ m
ĠTh eo
ĠÄĳ en
Ġh Ãłi
B áº¡n
Ġk ia
iáº¿ ng
Ġs ung
B ND
Ġ [
K hi
ĠTh Ã´ng
Ġqu Ã¡n
Ġs á»¯a
Ġt á»Ļi
á»ĭ nh
Ġng á»¯
Ġd Ã¡ng
Ġt Æ°Æ¡i
Ġlá» Ĺi
Ġth iá»ĩu
o d
Ġth Ãºc
Ġb áºŃt
ĠL an
t e
Ġá»ķ n
Ġ1 3
" .
Ġth ao
ĠUS D
a b
Ġtr Ãºc
ĠÄĲ Ãł
Ġthá»ĭ t
ĠÄĳ á»ĳc
Ġ áº
o c
Ġ5 0
ĠÄĲ áº£ng
ĠH Ã²a
Ġc áº¯t
oo k
Ġx áº¿p
ĠÃ Ķng
Ġqu áº£ng
Ġn áº¡n
ar k
es s
Ġ Â
Ġt á»Ļc
Ġnh iá»ħm
i e
Ġc áºŃu
ĠÄĲ á»ĥ
Ġng á»Ŀ
Ġt uy
ĠT u
ĠGi ang
Ġtr ao
Ġt Ãłu
ĠNg á»įc
ĠPh Ã²ng
á»ĩ t
Ġb áº£ng
Ġg á»ĳc
Ġl áº¯p
Ġm á»ĳi
á»£ i
ar d
Ġb á»©c
Ġb Ãły
ĠQu áº£ng
Ġt áº§m
Ġt im
Ġth áº³ng
Ġy Ãªn
Ġs uá»ĳt
Ġs Ã´ng
Ġng Å©
Ġc Ã¡nh
ĠX uÃ¢n
o i
Ġco i
Ġph Ãºc
Ġk im
Ġd áº§n
ĠGi Ã¡o
Ġh áº¡nh
Ġm Ã¡t
Ġm u
i f
ã Ģ
Ġb á»ģn
áº¹ n
ĠK á»³
Ġh áº¡t
Nh á»¯ng
ĠNg uyÃªn
Ġch á»Ŀ
Ġc á»Ń
Ġk áº»
Ġweb site
âĢ Ļ
Ġl áº¡
Ã³ t
Ġch Ã¢u
ĠB áº£o
Ġkh Ã´
Ġk iá»ĩm
ĠH Ã£y
Ġchiáº¿ u
Ġngh iÃªm
Ġ +
ĠÄĳÃ³ n
ĠS á»Ł
á»¥ p
Ġd á»¯
Ġn Ã©t
Ġm Æ¡
ai l
Ġthá» ¥
Ġkh á»ĳi
ĠL o
Ġc áº§m
or e
Ġm áº¡ch
ĠG ia
G i
Ġph áºŃn
Ġ1 7
Æ°á»Ŀ n
. âĢĿ
Ġvá» ¯
ĠC on
Ġ &
ĠK inh
Ġs áº¡n
T Ã´i
C Ã³
Ġx u
s t
2 00
Ġx ong
ĠH u
Ġ2 5
ĠÄĳ áº³ng
Ġv Ã©
Ġso Ã¡t
n et
Ġ Æ¡n
ĠCh á»ī
ÄĲ á»ĥ
ĠK im
iá»ĩ ng
Ġt Ã´n
ĠU BND
Ġng áº¯n
2 4
Ġl ai
Ġs áº¯p
Ġkh á»ķ
Ġhá» ©
Ġhá»ĵ ng
Ġc Ãł
Ġtr á»ĵng
Kh Ã´ng
Ġg áº¯n
ĠVi et
es t
ĠkÃ© m
ĠNg a
Ġm Å©i
Ġvá» Ŀi
Ġtá» ĵ
Ġb Ãło
Ġs Ãłn
Ġl Æ°Æ¡ng
" ,
Ġb áº§u
Ġth áº§y
Ġ201 6
Ġk Ã¨m
ĠâĢ ¦
ĠPh Æ°Æ¡ng
Ġm iá»ĩng
ĠN inh
ĠTr ang
Ġx o
Ġh uyáº¿t
Ġb ÃŃ
8 8
Ġvá»¯ ng
c o
Æ°á» ¡ng
it y
e p
Ġl áº¯m
Ġt áº¯c
Ġd Æ°Æ¡ng
Ġm Ã£i
Ġd á»ĭ
o Ãłn
Ġch uyáº¿n
ĠÄĳá» «ng
ĠtÃ¹ y
ĠQu áºŃn
Ġgi Ã³
Ġx ung
Ġc uá»ĳn
ĠPh Ã³
Ġn iá»ģm
Æ°á»£ u
Ġth Æ°á»Ľc
Ġt Ã¡i
Ġh áº¡ng
ĠlÃł n
ĠQu Ã½
Ġb iÃªn
Ġt Ãºi
Ġl áº¯ng
Ġr á»Ńa
Ġtho áº£i
Ġr Ãłng
ĠÄĳ Ã¡o
Ġh Ã´n
ac k
Ġt áº¥m
ĠlÃł nh
Ġn Ãºi
Ġtr uy
ãĢ Ĥ
Ġ áº¥m
i k
Ġchiáº¿ m
Ġ Z
Ġgh áº¿
Ġt á»§
Ġthá» «a
Ġh áº§u
ĠgÃ³ i
P T
o v
Ġkh uyáº¿n
Ġth uyáº¿t
er a
er s
Ġm Ãª
6 0
r a
Ġt uyÃªn
Ġqu Ãł
Ġgi áº£ng
ĠQu ang
Ġth ÃŃ
á»© t
ĠÄĳá»© c
áºµ ng
Ġ Æ°á»Ľc
Ġ áº©m
ĠL inh
ĠCh i
Ä© a
Ġn áº¯m
ĠLu áºŃt
á»¥ n
Ġnh áº¯c
Ġ on
Ng Ãły
Ġtho Ã¡t
Ġm Æ°a
d o
Ġ á»§y
ĠH á»ĵng
Ġt Æ°á»Ŀng
ĠÃĤ u
ĠB a
g i
1 5
Q u
Ġ ãĢĤ
Ġc á»©ng
is t
2 5
a x
Ġx áº¥u
Ġph i
áºŃ c
Ġd Ãły
Ġth áºŃm
Ġch á»£
ĠV Å©
Ng oÃłi
ĠC ao
Ġbu á»Ļc
Ã ģ
Ġkh Ãºc
Ġr Æ°á»£u
201 7
Ġtá»ĵ n
Ġn áº¯ng
Ġc áºŃn
Ġth áºŃn
ĠH iá»ĩn
Ġtr Ã¹ng
Ġho Ã¡
Ġl á»Ńa
C Ã´ng
Ġdá»± a
ĠPh ong
Ġhá»į p
Ġt áº¯m
i le
il l
or t
ĠÄĳ áº¥y
Ġch Ã¡y
á»Ľ p
ĠlÃł ng
Ġl á»įc
Ġch Ã¡u
Ġh a
ĠG iá»
Ġnh a
2 3
Ġth áº»
Ġch á»¥p
Ġnh iÃªu
Ġv Å©
ĠT Ãłi
Ġkh áº³ng
ĠE m
á»Ļ p
Ã© o
Ġb áº¡c
Æ ¯
Ġb áºŃc
Ġc an
ai n
ĠNh Ã¢n
ĠNg Ãły
Ġt Ã²a
as s
Ġs Æ¡n
Ġnh áº¥n
Ġl y
Ġk á»ĭp
Ġgi Ãłu
Ġv ay
ĠCh o
ĠÄĳo Ã¡n
Ġm áº½
ĠÄĲ Ã³
áº³ n
Ġm Ã¹i
ĠV N
Ġs Ã³ng
Ġg Ãł
ĀĀĀĀĀĀĀĀĀĀĀĀĀĀĀĀĀĀĀĀĀĀĀĀĀĀĀĀĀĀĀĀ ĀĀĀĀĀĀĀĀĀĀĀĀĀĀĀĀĀĀĀĀĀĀĀĀĀĀĀĀĀĀĀĀ
e v
Ġr au
, âĢ¦
Ġhá»į a
Ġl Æ°á»£c
Ġ é
Ġb iá»ĩn
ĠNh Æ°
ĠT áº¡i
T C
Ġph Ã³ng
Ġng áº¡i
Ġn inh
ĠN áºµng
Ġs ong
9 9
Ġh áº£o
f f
Ġl Ã¡i
or d
Ġtá» ı
Ġng uyá»ĩn
ĠGi Ã¡
Ġtr Æ°ng
ĠPh áº¡m
V N
1 8
Ġtá» Ŀ
ĠÄĳá» ¡
Ġg Ã³c
ĠV iá»ĩc
Ġtr i
Ġmá» Ŀi
ĠÄĳ Æ°Æ¡ng
Ġho Ãłng
ĠKh u
ĠD u
Ġr u
am in
ĉ Ċ
Ġr á»«ng
Ġch Ãłng
ĠT á»ķ
ĠL Ã¢m
Ġph iáº¿u
Ġ4 0
ĠÄĳ Ãª
Ġkh áº¯p
T uy
ĠL Ã½
ĠM Ã¡y
Ġr Ãºt
ic k
Ġb Ã¨
l y
Ġn áº¥u
Ġd Ãµi
Ġk Ã¬
Ġtr uyá»ĩn
Ġth Ã¡c
ĠS Ãłi
ĠÄĳ á»Ļt
á»ĭ a
ĠÄĳá»© a
Ġc Æ°á»Ľi
Ġg áº¯ng
Ġtr á»«
á»Ľ t
Ġg á»įn
Ã Ģ
1 4
Ġl iá»ĩt
ĠT Æ°
Ġ Æ°Æ¡ng
Ġh u
á»ī nh
Ġd á»ĭp
Ġ201 5
Ġqu Ãªn
Ġ u
i o
Ġb á»Ļt
Ġtr á»¥
ĠT áºŃp
Ġx á»©
Ġv áº¿t
ĠS t
Ġh áº³n
Ġc á»¥c
Ġkh Ã¡ng
Ġl áº«n
Ġtr Äĥm
o u
.... ....
Ġs á»ķ
1 7
Ġs Ãłng
Ġh áº£i
Ġ á»ĳng
ĠC Ã´
1 6
ĠGi Ã¡m
ĠÄĲ áº·c
o x
Ġch áº·t
c e
ĠB Ãł
ag e
Ġhá» ģ
Ġbu á»ĵn
ĠNh a
h t
Ġx Æ°Æ¡ng
ĠH á»į
Ġm á»¥n
Ġl Æ°ng
Ġkhu Ã´n
áº¥ c
T á»«
Æ¡ m
Ġng Æ°á»£c
Ġr Æ¡i
ĠNgh á»ĭ
Ġng Ã´n
Ġnh á»±a
8 0
Ã© n
Ġl Ã´ng
Ġv Æ°á»Ŀn
ĠTh Ã¡nh
ĠTh Æ°Æ¡ng
Ġhá»Ļ p
Ġb á»¯a
ĠG Ã²n
Ġ e
at e
Ġbá»¥ ng
Ġt áº¡p
Ġ ung
H iá»ĩn
ĠÄĲ oÃłn
Ġthá» Ŀ
Ġd Æ°
ĠÄĳá» £i
ĠV áºŃy
Ġg áº¥p
Ġth Ã´n
1 3
ĠB Ãªn
Ġs u
ĠÄĳ Ã¡m
ĠN Ã³
Ġkh ung
ĠH á»įc
ī nh
ĠY Ãªn
ĠÂ »
ĠL a
ĠÄĳÃ£ i
ĠN Äĥm
u d
ĠS áº£n
Ġs á»©
Ġs a
Ã Ķng
Ġ2 2
Ġb á»ģ
Ġqu Ãª
Ġth e
ĠD á»±
p p
ĠÄĳ Ã²i
ĠA r
Ġt áº£
Ġb Ã¢y
Ġkh iá»ĥn
ĠNg Ãłi
u e
Ġ ï
ĠTh e
c m
Ġmá» «ng
Ġd inh
ĠC Ã²n
Ġlo áº¡t
Ġch áº£y
Ġch áºŃm
ĠM ai
Ġth ang
el l
Ġt áº¡m
Ġtr á»©ng
Ġph áº¡t
Ġlo Ãłi
¦ y
Ġl an
Ġh y
ĠA l
Ġb inh
ĠthÆ¡ m
Ġth áº£i
n am
ĠPh Ã¡t
ĠÄĲ iá»ĩn
Ġx inh
Ġthá» ıa
ÄĲ T
á»© a
Ġ =
ĠH Æ°ng
Ġ 01
Ġng ang
Ġl á»ĳi
ĠV in
T áº¡i
ĠH ai
ĠKh oa
ĠÄĳ iá»ĥn
Ġ Ð
Ġh Ãłm
Ġk em
ĠC á»Ļng
Ph one
u á»ķi
ĠC H
Ġl Æ°á»£t
Ġr á»ĳi
Ġx Æ°a
Ġh Ã¨
Ġn á»£
Ġng á»įt
Ġth a
ĠlÃ£ o
ter net
ĠcÆ¡ m
ÄĲ Ã¢y
Ġc Ãłi
Ġb i
ĠÄĲ Æ°á»Ŀng
Ġá» ŀ
ĠÄĲ Ã¬nh
Ġthá» ±
Ġc Äĥng
ĠTh iáº¿t
Ng Æ°á»Ŀi
ĠL e
Ġh Ãło
Ġn á»Ńa
Ġngh Ã¨o
á»ĭ n
Ġá» ¦y
Ġn á»Ĺi
o áº¡i
Ġtho Ã¡ng
Ġs áº¯t
Ġ2 3
ĠS á»±
Ġk o
Ġthá» ķ
4 0
Ġph Æ°á»Ŀng
Ġkhu áº©n
u c
ĠC am
Ġ2 1
Tr Æ°á»Ľc
l d
Ġc Æ¡n
Ġm á»ĩnh
Ġc áº·p
Ch Ãºng
Ġd á»«ng
ĠÄĳá» ĩ
2 2
to p
t p
Ġg Æ°Æ¡ng
Ġng Æ°Æ¡i
Ġqu ang
Ġth Æ°á»£ng
o k
Ġl á»ĩnh
Ġhá»ĵ n
eb ook
âĢ¦ âĢ¦
Ġb Äĥng
9 0
Ġph Ãº
i z
Ġng Ãłn
al l
Ġlo áº¡n
ĠÄĳ áº£ng
ĠT iÃªn
a z
it amin
ĠC Æ¡
Ġ6 0
7 0
Ġch Ãło
7 5
ĠV Æ°Æ¡ng
ĠÄĲ á»ĳi
ĠÄĳ Ãłi
Ġh Æ°
/ /
Ġtá»ķ n
201 6
Ġm á»±c
Ġch e
Ġng á»«ng
T V
Ġon line
Ġtr Ãł
ĠT in
ho p
ĠCh Æ°Æ¡ng
Ġd iá»ĩt
Ãº y
Ġnh Ãłng
ĠV iá»ĩn
Ġo f
Ġ ?
± ng
ĠB á»ĩnh
Ġv ÃŃ
Ġc l
Ġvi d
Ġvá» ı
e y
Ġh Ã´
i ch
an k
Ġb Ã£i
w n
Ġvid eo
ĠTh á»Ŀi
ĠÄĳ Æ°Æ¡
Ġ â
4 5
Ġgi Ãł
ĠÄĳ áºŃu
i an
a h
Ġtr áº§n
o p
Ġr á»Ŀi
A N
Ġmá» ¡
Ġi Phone
Ġm á»Ļ
ac ebook
Ġlá» Ĺ
: //
Ġk ÃŃn
Ġd Æ°á»£c
t on
Ġb áº¡i
Ã£ ng
Ġg an
Ġn á»Ļp
ĠB á»Łi
ĠT á»Ń
at ion
u á»Ļc
Ġv ua
Ġl Ã´
Ġt Ä©nh
ĠNg Ã¢n
Ġng á»±c
ĠÃ Ĳ
Ġ Ã©p
Ġb Ãª
r y
Ġn on
Ġgi Ãłnh
Ġh áº¹n
ĠPh an
Ġtr Ã´ng
6 6
Ġtr Ãº
Ġthá» Ł
Ġtr Ã²n
Ġv áº£i
Ġth Ã©p
ĠQu Ã¢n
Ġ áº©n
ĠV Ã¢n
e g
o g
ĠH iá»ĩp
in k
Ġth Ã¹
ĠV inh
Ġt i
ĠN ew
ĠT Ã¢m
Ġm i
ĠH Æ°Æ¡ng
ĠC Ã¡ch
Ġn Ã£o
Ġm ai
3 5
ĠX e
s e
Ġt an
Ġd áºŃy
oo g
Ġtr á»¯
Ġtá» ĩ
t y
ĠÄĲ á»Ļ
Ġtr á»įn
Ġtr Ãło
ĠÄĳ ua
á»³ nh
Ġm áº¯n
Ġt áº¯t
Ġnh i
oog le
Ġd uyá»ĩt
ĠS á»ĳ
ĠH á»
Ġl á»¥c
un d
Ġl Æ°á»Ľi
ĠÄĳ áº¿
Ġph áº«u
Ġb á»įn
ĠPh Ãºc
Ġv u
ĠT áº¥t
Ġt Ã´ng
á»§ i
Ġtr eo
ĠQ uy
ĠT áº¿t
Ġkh á»§ng
v er
ĠÄĲ áº§u
am s
Ġcam era
ĠP l
Ġtr Æ°Æ¡ng
ĠC áº§n
Ġ2 8
Ġt Ã¢y
I á»
Ġv iá»ĩt
Ġph Ã¡i
ĠÄĲ áº¿n
Ġth iá»ĥu
t el
ĠÄĲ á»ĭnh
ĠO n
on d
Ġ2 6
i b
á»¯ u
ĠH y
ĠM á»Ĺi
C H
Ġ201 4
Ġb á»ĳn
ĠH Ãłng
Ġk Ãªu
ã ģ
Ġth áºŃp
Ġm Ã£n
ĠV Ä©nh
Ġm á»ĩt
Ġb á»Ŀ
Ġkh Ã¡n
ĠH Ã³a
Ġ2 7
ph one
ĠbÃ© o
Ġáº ¤
Ġl áº»
ĠTh á»§y
Ġb Ã²
Ð ¾
Ġl ÃŃ
ĠÄĳá» īnh
ĠM ar
Ġn Ãªu
ĠS p
Ġbá»¥ i
¢ nh
201 5
ĠKh Ã¡nh
ĠTr Æ°á»Ľc
Ġh t
Ġ '
ĠTu áº¥n
ĠH D
á»¥ ng
Ġhá»© ng
Ġr Ã£i
Ġgi Æ°á»Ŀng
Ġ )
Ġch áº¥m
Ġmá» ıi
ĠH Ã¹ng
Ġb Ã³
Ġgi Ãły
Ġgiá» ıi
ĠB Ãłi
ar e
ĠS h
an t
L V
Ġph á»©c
Ġch ua
Ġhá» ıng
ĠNh iá»ģu
Ġp in
Ġan d
ĠÄĲ Ãło
ĠÄĳá» ±ng
á»Ĺ ng
Ġtá»ĳ n
Ġkh á»Ľp
Ġ Æ°a
ĠlÃ£ i
ĠTh á»±c
ĠT iáº¿n
Ġt iá»ģm
% .
6 5
I I
Ġt Ã¢n
áº¹ o
s u
Ġph u
Ġth iá»ĩt
Ã Ķ
Ġch Ã¹a
Ġn á»Ĺ
Ġlo a
Ġb Æ¡i
ĠkÃª nh
2 8
ĠÄĳá»ĭ ch
m m
Ġnhu áºŃn
Ġb Æ¡m
Ġd ao
á»± u
Ġs áº¯m
ĠS inh
3 3
Ġn á»ķ
Ġv áº½
Ġph áº¥n
6 8
Ġ5 00
Ġ !
¿ ½
ĠB ÃŃ
Ġd Ã¡m
Ġch áº¡m
Ġth Ãª
Ġv itamin
Ġs á»¹
Ġh iá»ĥn
Tr Ãªn
Ġb á»ĵi
ĠN H
ĠCh u
Ġkh uyÃªn
Ġht tp
iáº¿ c
Ġä ¸
Ġd áº¡
ĠT iá»ĥu
V iá»ĩc
m art
Ġ2 9
Ġthu a
ĠKh Ã¡ch
Ġc áº©n
Ġgi Ã£n
ĠTh Æ°á»Ŀng
ĠD á»ĭch
C N
i x
Ġc anh
in a
Ġtr Ãłn
Ġ á»§ng
ĠB Ã¡o
ĠÄĲ a
Ġvá» ¡
Ġgi áº¥c
ĠH CM
ĠS a
Ġh iá»ĩp
ĠM áº¹
ĠT NH
Ġng Ã£
ĠM áº·t
w w
i en
Ġd á»©t
ĠR e
Ġtr áº¥n
ĠTNH H
Ġ8 0
B Ãªn
ĠB iÃªn
-- --
ĠC á»¥c
Ġs Ã´i
ĠÄĳ áºŃm
Ġthá» į
Ġsá»ĳ t
Ġs e
Ġcá»ķ ng
o ur
ĠX em
ĠK áº¿t
ĠD Ã¢n
ĠC á»ķ
Ġtr áº§m
ĠP r
ĠL Ãłm
ĠNh áº¥t
B á»Ļ
ĠÄĲ Ãłi
ap top
Ġl áº§m
Ġth Ã¡nh
ĠÄĳ iá»ĩu
Ġm Ãłng
Ġ7 0
k g
Ġv Æ¡
) ;
Ġgi Ã¢y
á»Ļ m
Ġm á»ĭn
ĠH áº¡
Ġc á»Ļt
Ġh Ã¹ng
Ġm Ãły
Ġ >
Ġng á»«a
Ð °
Ġ Ã´m
ĠP H
Ġgi áº¿t
Ġch Ãºc
ĠGi áº£i
Ġt Ã¡n
ĠNgh á»ĩ
Æ°á»Ľ t
ĠC an
Ġnh Ã£n
A M
ĠQ uyáº¿t
Ġ Ġ
Ġgiá» įng
ĠC ity
i et
Ġn a
Ġ19 9
ĠTr Æ°á»Łng
á»¥ y
ĠâĢ ĺ
£ t
Ġch áº·n
Ġn Ãºt
Ġr o
Ġl Å©
T S
Ġg a
ul l
ĠPh áº§n
á»ĳ p
Ġt ÃŃ
ĠT R
ĠQu áº£n
ÄĲ iá»ģu
Ġm áº¡c
c k
Ġx Ã¢m
Ġ j
Ġk iÃªn
Ġt ung
2 7
Ġn Æ°á»Ľng
ĠÄĲ á»ĭa
ad a
á» ŀ
. "
ho w
ig ht
ï ¿½
ams ung
2 6
Ġm Ã³c
ĠTP HCM
Ġl áº·ng
Ġkh ÃŃch
Ð µ
Ġt Ãłn
Ġh á»§y
ĠH uy
Æ°á»Ľ p
Ġhu áº¥n
ĠÄĲ H
ĠS ing
ĠM an
ÄĲ á»ĳi
Ġm uá»ĳi
Ġth áº¯c
ĠPh i
ĠTh Æ°á»£ng
Ġl Ã¢m
Ãª nh
Ġd uyÃªn
Ġkh áº¥u
ĠK H
Nh Æ°ng
Ġg á»£i
Ġch á»¥c
Ġ201 3
ĠPh Æ°á»Ľc
ĠL Ãł
Ġth áº§u
ĠTh áº§n
Ġ Ã¡c
Ġch Ã³
2 9
Ġph Ã³
A nh
Ġtr á»Ļn
Ġth Ã¡ch
ĠÄĳá» £t
ĠThu áºŃn
Ġngh Ã¬n
ĠT Ã¬nh
Ġc á»ı
C P
5 5
or ld
N Äĥm
Ġtr á»¥c
Th Ã´ng
Ġph Ã¡n
Ġp ro
ĠB l
Ġb Ã´ng
Ġh Ã´i
Â ¿
Ġb ang
Â ½
ĠT a
Ġc Ãº
Ġgi Ã¡p
ĠG oogle
ĠKh o
ĠP ro
Ġth uyá»ģn
ĠH LV
Ġ áº¡
lo ad
ĠÄĳ uá»ķi
ĠT á»īnh
Ġ Ã¡i
Ġkh Ã³c
Ġhuy nh
Ġg áº¡o
ĠHu áº¿
, ...
ĠTr Ãªn
Ġc Æ°Æ¡ng
3 8
Ġb áº¯n
ap ore
ĠÄĳ uÃ´i
Ġt áº£ng
ĠX Ã¢y
ĠC áº§u
Ġth áº¥m
ĠGi ao
ĠV Ãµ
7 7
Ġho ang
Ġs Ã¡nh
Ġn o
ĠL Æ°u
Ġch ÃŃn
Ġh iáº¿m
p l
Ġv inh
Ġr Ã¡c
Ġt Ãºc
Ã Ĥ
ĠB Ã¡n
T P
ĠB Ã¡c
b er
as t
ĠD N
Ġth Ã¹ng
Ġ3 00
! !
ĠS Æ°
Ġm iáº¿ng
ĠD uy
% ,
ĠÄĳ áº¡p
ĠT am
ĠD i
ĠÄĳ á»ĳt
âĢ¦ ]
Ġkh en
Ġph un
Ġgi áº·t
ĠTh Ã¡ng
2 1
ĠH á»¯u
Ġc á»Ŀ
Ã¹ m
á»į a
ĠD Å©ng
Nh Æ°
ĠÄĳ áºŃp
Ġcá»ĳ t
ĠC l
D o
ĠAn d
Ġ9 0
Ġb Ã¡t
á»ı ng
Ġc áº¥m
Ġth Ã¢m
Ġn áº¥m
ĠC Ã¹ng
V á»ģ
ĠGi áº¥y
Ġb Ã¬
ĠM y
M Ã¡y
Ġnh áº¯n
ĠA pp
ĠV á»ģ
Ġth áº£m
lo g
C S
Ġmá» ıng
Ġbu Ã´n
h a
ĠÄĲ áº¥t
ĠK áº¿
x i
in i
ĠlÃ£ ng
o w
Ġb á»ĳi
á»ı i
an s
Ġ *
ĠM a
ĠH á»ĩ
Ġ3 5
Ġáº¤ n
Ġchu á»Ļt
X H
Ġx uÃ¢n
Ġch á»«ng
ĠÄĳ Ä©a
Ġc Ã¡p
Ġh Ãł
ĠTr á»įng
ĠC Å©ng
Ġru á»Ļt
ĀĀĀĀĀĀĀĀĀĀĀĀĀĀĀĀĀĀĀĀĀĀĀĀĀĀĀĀĀĀĀĀĀĀĀĀĀĀĀĀĀĀĀĀĀĀĀĀĀĀĀĀĀĀĀĀĀĀĀĀĀĀĀĀ ĀĀĀĀĀĀĀĀĀĀĀĀĀĀĀĀĀĀĀĀĀĀĀĀĀĀĀĀĀĀĀĀĀĀĀĀĀĀĀĀĀĀĀĀĀĀĀĀĀĀĀĀĀĀĀĀĀĀĀĀĀĀĀĀ
k m
k y
Ġth Ã³i
ĠÃ ļ
Ġh uá»ĳng
0 9
Ġtr áº¡i
Ġhá»© a
id e
Ã ¯
Ġch á»Ł
Ġb áº¡ch
Ġ[ âĢ¦]
k e
f t
V Ã¬
ĠN Ã´ng
Ġt áºŃt
Ġb Ã¹
Ġv ang
Ġk á»ĭch
Ġb á»įc
ĠA ir
Ġs ex
Ġk m
Nh Ãł
Ġb Ã£o
Ġt iá»ĩc
ĠL Æ°Æ¡ng
Ġn á»Ł
ĠTH PT
ĠC up
Ġd Ã¡n
ĠNg oáº¡i
) :
ĠS á»Ń
ĠSing apore
ĠG D
Ġc áº£n
ĠÄĳ ai
ĠÄĲ Æ°á»£c
ĠG iÃª
į t
Ġv ong
Ġt Ã¡ch
Ġng Æ°á»¡ng
ĠB áº¡ch
Ġh i
ĠD Ã¹
in es
Ġv Æ°Æ¡ng
Ġqu á»¹
Ġg á»¡
Ġho t
B Ãłi
Ġ áº£o
Ġ ong
Ġb Ã¡m
H Ã£y
ĠA m
Ġs anh
Ġáº ¢nh
ĠNg Ã´
201 4
Ġkho Ã¡ng
s ia
ĠU n
ĠC a
7 9
os t
o ut
ec t
um p
e ar
ĠL Ãºc
Ġtr á»Ļi
Ġd Æ°á»Ŀng
Ġx Æ°á»Łng
Ġtr á»ĳng
ĠTh á»©
ĠH ÄĲ
Ġm áº£nh
ĠB r
O S
kh Ã´ng
Ġl Ã²
ĠH uyá»ĩn
¡ i
ĠH Ã¬nh
? âĢĿ
Ġch Äĥn
ĠTr Æ°Æ¡ng
ĠT iá»ģn
Ã© m
Ã¹ y
ĠF acebook
Ġxo ay
Ġ3 1
4 8
Ġsá»£ i
Ð ¸
Ġhá»Ĺ n
ĠS amsung
Ġt áº©y
ĠC Ã¢u
Ġs Ãºng
Ġd ÃŃnh
Ġc Ã¡t
Ġt Ã¡o
7 8
ĠT Ã´n
ĠG r
áº ł
ĠW in
Ġd Ã¢u
Ġhá» ķ
3 6
p s
Ġnh Ã¡nh
s s
o h
Ġl aptop
ĠIn ternet
g e
ĠT Ãłu
Ġnh áº£y
ĠQu an
Ġx Ã³a
Ġ201 2
Ng h
Ġc á»¡
ĠC S
f e
ĠM al
Ġk Ä©
0 8
Ġng áº¯m
Ġc Ã¢
iá»ħ u
Ġx á»©ng
ark et
s a
Ġm en
C C
Ġb á»Ľt
l a
ĠTr iá»ģu
ĠT iáº¿ng
en d
ÄĲ Æ°á»£c
Ġng Æ°Æ¡
ĠM áº·c
ĠC áº£nh
Ġth Ã¡o
ĠB áº±ng
ĠL ai
Ġf or
Ġth áº£
E O
Ġtiáº¿ c
Ġng áºŃp
iv e
ĠP ark
ol d
I N
Ġv Ãµ
id eo
ĠCh iáº¿n
Ġm Æ°á»Ŀi
ĠÄĳ áº¯c
Æ°á» ¡i
Ġb á»ĥ
áº« y
Ġ4 5
á»ĳ m
3 9
ro up
Ġnh Ã´m
ic e
Ġh áº±ng
Ġgh Ã©p
Ġm á»įc
ĠN Æ°á»Ľc
4 4
ĠW orld
Ġ al
Ġs Äĥn
Ġgi áºŃn
Ġtá»± a
ĠPh á»¥
C O
ĠL á»Ļc
Ġm Æ°u
ĠphÃŃ m
Ġph á»ıng
a ch
L Ãł
u k
r i
ĠLo an
Ġth an
ĠCh áº¥t
e e
ĠC om
Ġv Ã¢n
or k
do w
ĠL á»ħ
Ġr á»§i
Ġtá» ıa
Ġkho Ã¡n
ĠTh Æ¡
wn load
Ġng Æ¡i
ĠT á»±
ĠTo Ãłn
Ġng Ãłi
Ġchu á»Ļng
ĠA d
ĠH Ãłnh
E D
Ġt Ã´m
r an
Ġnh á»ĭp
5 00
ĠM ua
f a
ro id
Ġtr Ãºng
Ġtu á»ĩ
Ġh áº§m
Ch o
ĠH Æ¡n
ĠC N
ĠC Ã¡i
ĠÄĳ am
ĠÃ Ŀ
ĠÄĳ eo
C Ã¡ch
Ġth áº±ng
ĠB H
Ġch im
ĠG al
Ġb áº©n
Ġg á»ĳi
ob ile
Ġc ong
Ġh Ãłn
ĠS y
ĠÄĲ áº¡o
áº« m
Ġv Ã¡y
Ġt áº¿t
Ñ Ĥ
ÄĲ áº¿n
ic ro
Ġ0 2
6 9
ĠCh a
o y
áº ¾
ĠN G
ĠQ ua
Nh iá»ģu
á»§ a
Ġv á»Ļi
ĠÄĳ Ãłm
Ġchu á»Ĺi
0 5
Ġx Äĥng
4 9
Ġm ÃŃ
Ġd Ã¢m
ĠT iáº¿p
i es
ĠÄĳá»ģ n
Ġdá»ĭ u
Ġch ap
áº¹ t
Ġ201 0
Ġch Äĥng
Ġch Æ°
Ġgi áºŃt
Ġc om
ĠÄĳ Ãł
0 7
Ġv iá»ħn
Ġb áº¯c
ĠÄĲ Äĥng
Ġkh a
ĠDo anh
Ġng á»Ļ
c t
Iá» Ĩ
ĠB á»ĵ
ĠÃļ c
ĠX in
ĠApp le
Ġ201 1
al o
Ġb áº¡o
A T
Ġn á»ĵi
Ã£ nh
C Å©ng
ĠÄĳ e
c Ã³
x y
Ġtr iá»ĩt
ĠT Ã¬m
Ġg áº¡ch
ĠS o
Ġd Ãłn
ĠC Äĥn
Ġnh áº¡y
Ġd á»įc
g o
ĠÄĳ Ã¢
ĠC P
ĠC o
Ġv áº¹n
Ġc áºŃy
ĠNgh Ä©a
Ġn áº¡p
Ġp l
Ġtr ÃŃch
m l
Ġmá» Ŀ
ol l
ac e
1 00
ax y
S á»±
Ġb Ã¡
ĠlÃ£ m
201 3
Ġï Ģ
Ã Ĭ
Ġ im
Ġm áº»
Q ÄĲ
áº ¤
Ġng áº¡c
Ġl ong
Ġch áº¥n
Ġth Ã´
Ġ z
Ġc Ãºng
Ġs ay
Ġs t
Ġnh Ã¢
Ġd e
3 4
Ġ á»ĳc
ĠTh á»ĥ
Ð ½
ĠV á»ĭ
m an
ĠHá» £p
ĠTh áº§y
Ġc áº¥t
Ġth Äĥng
3 7
Ġlá»ĩ ch
Ġt iÃª
Ġthá» £
am p
Th á»Ŀi
ĠI I
s o
áº ¢
u g
c on
Ġm áº¡n
ĠM á»įi
ĠM Ã£
Ġx Ã¡ch
Ġem ail
Ġ Ã¢n
Ġch Ãºa
m ent
ĠA S
Ġthu áº§n
0 2
Ch á»ī
Ġb ia
Ġnh o
ĠTh Æ°
arket ing
Ġchá»§ ng
Ġtá» į
ag ue
ĠÄĲ á»ģ
ĠNg ay
Ġm áº§m
Ġng á»įn
ĠX Ã£
ĠÄĳá» ¥
Ġh áº¹p
ĠTr á»Ŀi
ĠT Ã´
8 9
ĠL Ãło
Æ ł
Ġkh Ã¡t
Ġlá» «a
Ġtá»į a
Ġk á»ĩ
Ġ #
ĠGiá» Ľi
Ġh iáº¿n
Ġl ang
0 6
ĠTh áº£o
ĠTr ump
ĠTh áº¯ng
ĠTh á»į
âĢ¦ .
........ ........
ĠS ong
Ġph iá»ģn
Ġl am
Ġl Ãºa
ĠB ar
mart phone
0 4
Ġch á»ĳi
Ġt Ã¡
ĠÄĳ iá»ĩp
ĠN á»¯
Ġch Ã¡n
Ġtr Ã´i
D á»±
ĠL ao
oo d
om e
Ġk ÃŃ
Ġr Å©
Ġh á»ĳi
Ġh iÃª
Ġng Ã³n
ÃĶ NG
b um
ĠA i
ĠÄĳ áº¯t
Ġb áºŃn
in o
Ġb Ãºt
ĠViet nam
Ġ3 6
Ñ Ģ
ĠT T
Ġc áº¯m
ĠÃ Ķ
ĠV I
ĠT Äĥng
Ġn Ã©n
ĠH Æ°á»Ľng
ĠT ÃŃnh
Ġso i
Ġtr Æ°a
Ã ĥ
u ch
ĠD ung
ar a
ĠTr uyá»ģn
p r
dow s
B Æ°á»Ľc
A S
ĠE x
L B
v e
ĠH áºŃu
Ġt Ãłng
ĠÄĲ á»Ļng
Ġth áº¡ch
en s
Ġ ac
Ġb o
G iá»
8 5
Ch ÃŃnh
ĠÄĲ á»Ļi
0 3
Tr ung
Ġs áº¡c
C on
Ġf ile
Ġn áº¿p
Ñ ģ
Th á»±c
C T
Ġ0 3
Ġä º
Ġs Ã³t
ĠC á»¥
ĠT p
Ġquy áº¿n
Ġx Æ¡
E m
d e
Ġl Æ¡
us e
Ġtu Ã¢n
ĠÄĳ Ãºc
ĠTh i
ĠÄĲ Ã´
ĠV á»¥
ĠCh Ã¡nh
ĠT Ã²a
Ġl Ã¡t
ĠW eb
ĠN Ãªn
Ġt am
ĠV iÃªn
ĠCh á»ĭ
Ġc Æ°á»Ľc
p er
Ġs on
ĠB Ã¹i
Ġd Ä©
n e
Ġn á»ĵng
Ġnh Æ°á»£ng
ĠHo Ãłn
Ã¬ a
Ġng Ã¢m
Ġd á»«a
Ġ3 2
Ġ Æ¡i
Ġ á»©c
m e
on al
Ġl au
am a
r us
Ġc á»±u
Ġ15 0
es ter
ÄĲ áº¡i
as h
4 6
Ġx áº£
Ġs p
ĠCh ung
ĠD iá»ħn
ub e
ur e
Ġm Ã¬
ĠB iá»ĥn
av e
ĠGal axy
Ġc Æ°á»Ľp
Ġs an
ĠC ung
Ġh ang
Ġtr á»Ļm
Ġch áº½
Ġh Ã¢m
ĠB áº¥t
Ġb áº¥m
x it
ĠS er
ĠD Æ°á»Ľi
Æ°á»£ n
ĠD iá»ĩn
is s
Ġn Ã¡m
Æ°Æ¡ n
Ġv Ä©
Ġnh áº«n
ĠM Ã¬nh
ĠS on
ĠOn line
Ġch iáº¿t
Ġk á»ģ
B Ã¡n
ĠN Ã³i
ĠP ar
Ġho áº£ng
ĠN ai
iv i
ĠCh uyÃªn
ĠD anh
u á»ĵn
S Ã¡ng
Ġkh Ã©o
Ġm á»ĵ
Ġso áº¡n
ĠK iá»ĥm
ÄĲ á»ĵng
E R
s h
ĠÄĳ iÃª
m a
Ġkh uyáº¿t
ĠPh im
ĠÄĳá»ĩ m
ĠÄĲ inh
y l
V Ãł
Tr ang
ĠNh ac
ay sia
Ġr á»¡
Ġch ai
Ġtr Ã¡ng
d a
ĠS un
ĠK iáº¿n
ĠPh il
n Äĥm
Ġto p
7 6
Ġb á»ķng
ĠL áº¡t
ĠC ar
Ġtr áº¡m
Ġ0 8
Ġng á»įc
Ġb Ãº
Gi Ã¡
Ġtr á»ĳn
Ġch uyá»ģn
Ġch anh
Ġb e
Ġv áº·t
Ġl á»Ļc
Ġtr iá»ģu
ĠAnd roid
Ġnh áº¡t
ĠTr ÃŃ
Ġth iá»ĩp
Æ°á»Ł i
iv ers
ĠT Ä©nh
Ġcáº£ ng
Ð¾ Ð
a w
C Ã²n
Ġd á»įa
I n
á» Ĳ
ĠV ÃŃ
Ġvu Ã´ng
3 2
Ġh eo
N T
Ġkh á»©
ĠC uá»Ļc
ĠG I
Ġch á»ĳt
á»ĭ t
Ġs Ã¡u
Ġt ia
Ġm á»Ļng
ic a
s p
ip p
Ġn á»¥
Ġt áº§n
ĠB e
Ġl Ã³t
Ġm Æ°Æ¡i
Ġm Ã¢y
iv er
Ġin ternet
ÄĲ áº·c
ic o
us t
Ġv Ãª
Ġt Ãºy
Ġm á»ī
ot a
Ġcá»¥ m
ĠÄĳ áº¯p
i er
ĠC Æ°á»Ŀng
G B
ĠC áº£
Ġl eo
Ġmu á»Ļn
Ġx áº¡
Ġhá» ıa
ass age
ĠT iÃªu
ĠD Æ°á»£c
ĠB áº¿n
Ġtr áºŃt
Ġkho an
ĠTh á»ĳng
Ġch Ã¢m
ĠM á»¥c
ro l
ĠT inh
r id
Ġnh iÃª
ĠTr Ãł
Ġb iÃª
Ġkh áº©n
ĠIn d
Ġr áº¯n
ĠT V
Ġs en
l and
ĠK á»¹
Ġm áº¡o
Æ¯ á»
Ġs Ã´
Ġs martphone
ĠtÃŃ m
Ġv Ã¢
at a
ã Ĥ
ĠTh á»¥y
ĠLo áº¡i
áº» o
ĠTh áºŃt
ĠT S
te in
Ġ Ãªm
u ro
Ġv áº¡n
Ġ am
Ġt iá»ħn
ĠL áº¡c
Ġx Ã³m
á» ĥn
Ġth Ã¡p
or n
ĠÃĤ m
£ n
Ġho Ãł
Ġm áº¿n
Ġm Ã¡
Ġlá» ıng
Ġdo wnload
4 7
ĠC Ã¡t
Ġb áº¯p
Ġs how
ĠÄĳÃ³ i
ĠÄĳo áº¡t
ĠMal aysia
ĠWin dows
ia l
s on
at h
Ġc ay
H o
N ÄĲ
Ġ ..
ĠNgh e
Ġr ao
Th iáº¿t
Ġm Ã¹
! âĢĿ
ĠTr á»ĭ
Ġb Ã³n
Ġr ung
ĠC á»Ńa
Ġkh Ã¡i
ĠS ao
Ġt Ãª
8 6
Ġl iá»ģu
Ġb áº¿n
Ġtr Æ°á»£t
Ġth áº§m
ĠÄĲ T
Ġm od
le x
T á»ķng
ĠkhÃ³ i
Ġs hop
ĠÄĲ á»Ĺ
ĠR es
Ġb Ã´i
Ġv an
Ġng áº§m
ad e
Ġr á»±c
Ġ0 5
Ġgi am
c a
Ġch Ã¡nh
Ġn iÃªm
Ġl ÃŃnh
ĠÄĲ á»
á»¥ t
ĠK iá»ģu
Ġr Ãło
Ġng a
Ġkh e
Ġb á»ĵn
Ġth Ã¢
i um
D Ã¹
Ġv iÃª
S D
Ġch Ã©p
I D
á» µ
Ġkh Ã¢u
áº± n
ĠT e
Ġm áº£ng
Ġng Ãµ
ĠH ay
U Y
Ġth áº¥u
as er
Ġd á»įn
Ġb á»Ĺng
ap p
Ġd Ã£
t Ã´
Ġv en
O N
Ġch Ã¬m
ĠT áº¥n
ĠÄĲ iá»ĥm
Ġc á»ĳng
ĠU y
Ġcl ick
ĠCh Ãºc
o ol
Ġto ur
ĠQu á»³nh
A R
Tr Æ°á»Ŀng
Ġt ao
Ġh uyá»ģn
Ġl ÃŃt
ĠTh áº¡nh
Ġch áº£
Ġt iÃªm
h e
5 9
Ġn áº¡
ĠÄĳ áº¡n
M áº·c
Ġph Æ¡i
ã ĥ
Ġl Ã¢y
Ġl Æ°á»¡i
C Ã´
ĠÄĳá» Ĺ
ĠTh am
Ġng á»±a
ĠH uyá»ģn
Ġch inh
ĠY Ãªu
Ġ Ã¡m
ot e
ĠPh Æ°á»Ŀng
ĠC LB
Ġm á»ĳc
Ġgh Ã©
Ġc á»ĳc
b o
Ľ n
Ġ $
y m
Ġ Ã´n
T M
Ġqu áº¡t
ĠCan ada
Ġd Ã¢ng
Ġm Ã²n
ÃŃ a
Ġc Ã£i
tr ong
Ġx Ã´ng
ĠGiÃª su
Ġl Ã´i
Ġ Æ¡
Ġr Ã¨n
ĠD áº§u
p t
Ġn áº§y
Ġn Ã´
Ġb áº£y
Ġf an
on es
ng Æ°á»Ŀi
ĠB ÄĲ
ĠÄĲ á»ĵ
im e
ĠTh ÃŃch
N N
ng Ãły
V Ãło
th Ã¡ng
Ġl á»ĵng
ĠTh Ã¢n
H ai
ĠHu á»³nh
Ġtr Æ¡n
ĠS u
it h
Ġqu Ã¡i
á»Ń u
Ġv Ã¡ch
ĠL á»ĭch
áº ¬
ĠNh u
ĠM á»Ľi
ag en
en n
ĠV Ãło
I C
ĠL á»£i
ĠS an
ĠNh i
áº¯ k
Ġm Ã³ng
Ġn Ã¢u
Ġtho a
ap h
at t
Ġg am
ĠM áº¡nh
G T
tr al
Ġ ao
Ġth áº¯t
Ġs er
6 7
C Ã¹ng
Ġtr e
Ġgi áº¥u
_ _
ĠM Ã´i
ĠD Ã¹ng
Ġho an
Ġ4 00
Ġc Æ°á»£c
Ġkh iáº¿u
Ã² m
Ch Æ°Æ¡ng
Ġ0 4
Ġch iÃªu
ĠÄĳá»ĵ n
ĠÄĲ Ã£
ĠL am
H Ãł
Ġtr Ãłng
M á»Ĺi
ĠC áº£m
ĠâĢ Ŀ
3 1
Ġso fa
* *
r ia
E S
Ġl á»ĵ
ĠE l
Ġl i
Ġ201 9
ĠL y
Ġm Ã©t
Ġv áº¯ng
as hi
ĠTr iá»ĩu
os e
X em
Ġtá» Ľ
âĢ¦âĢ¦ âĢ¦âĢ¦
Ġth iá»ģn
Ġr e
Ġin ox
Ġo xy
Ġl ink
Ġ á»ĵn
ak e
201 2
Ġm assage
Ġt ang
ĠÄĳ áº»
Ġkho áº»
Ĥ n
ĠH iá»ĩu
Ng ay
ĠP V
ĠNh á»Ŀ
Ġin ch
Ġtho Ã¡i
ĠS im
Ġl Äĥng
Ġn á»ģ
Ġkh Ã´n
I S
ĠTh ay
co in
Th á»©
? ?
ĠNh áº¡c
Ġc m
Ġk g
ĠÄĲ á»«ng
Ġch áºŃu
Ġ Ãł
er n
ĠF or
ĠT y
ĠÄĲ áº·ng
ĠH á»ĵi
Ġ200 9
Ġtr Æ°Æ¡
ĠHo t
Ġkho Äĥn
8 7
M T
B C
Ġl Ãµi
Ġc ua
C Äĥn
Ġph áº¿
Ġv áº£
Ġs Æ°á»Ľng
ĠLe ague
Ġ200 8
ĠÄĳá» Ľn
Ġb á»ĳc
Th áº¿
Ġx áº¿
b a
ĠÄĳ Ã¡y
Ġkh á»ķng
Ġs áº¹o
ĠThá»ĭ nh
ĠM á»Ļc
ĠM V
Ġs Æ°u
lo ck
ĠR áº¥t
ĠTr á»ĭnh
P S
ĠÄĳ u
Ġcl ip
Ġm au
ot o
Ġlá» £n
ac t
ĠI s
Ġx ÃŃ
Ġm á»ķ
in t
O T
ĠViet tel
Ch á»§
Ġm e
Ġl Äĥn
9 5
ĠV Å©ng
is h
ĠĠ ĠĠ
ĠS Ã¡ng
ĠS e
Ġkho Ã¡c
K áº¿t
Ġng Æ°
Ġd áº¡o
Ġv Ä©nh
ĠhÃ£ i
Ġch iÃªn
ĠÄĳá»ĵ i
G D
om es
ĠTh Äĥng
Ġ Æ°á»Ľt
ik e
ĠA c
Ġtr Ã¢n
Ġx i
Ġqu Ã©t
ĠE d
ĠS Ä©
T áº¥t
Ġhá»į ng
Ġt em
ar ao
ĠH áº¡nh
ĠÄĲ i
ĠT uyÃªn
ĠTh áº¡ch
Ġnh áº§m
ĠÄĳ Ã¢m
Ġb Äĥn
ig n
al i
ĠH Ã´m
S áº£n
m p
Ġkho ai
Ġh ao
Ġs Ã¢m
Ġa xit
Ġca fe
Ġph á»ķi
ĠÄĳ áº§m
ĠT Ãªn
Ġch Ã¨
ĠM i
ĠC ol
Ġ3 8
ĠC á»©
in d
ĠHo áº·c
Ġs Æ°Æ¡ng
ĠÄĲ Æ¡n
v i
6 4
ĠN Æ¡i
Ġ Æ°ng
p e
Ġthá»ķ i
Ġg Å©i
Ġ2 000
N Ã³i
g r
Ġvi rus
áº¥ ng
ion s
ĠH ar
V áºŃy
Ġ20 20
Ġnh Å©ng
C a
ĠH a
ond a
Ġph Ã¡o
Ġv Æ°Æ¡n
Ġnh Äĥn
ĠPh Æ°á»£ng
Ġb om
E C
Ġx ay
ch i
Ġngo Ã¡i
Ġl áº¥p
ĠPl us
Ġl Ãª
ĠPh áº£i
Ġh ung
ĠHo Ãłi
m ar
Ġv Ãº
I M
B S
Ġtr Ä©
ĠL á»¥c
ĠV Ãłng
ĠD e
Ġc Ã¡m
n a
an o
m i
Ġh áºŃn
t u
ĠH e
iá»ģ ng
ĠTh iáº¿u
ĠB ao
ĠM Ãł
Ġn Ã¡t
Ġqu Ã¡t
ĠM ac
c el
arao ke
Ġph áº³ng
L ÄĲ
out ube
uy en
ĠM áº«u
ĠM ob
Ġl á»©a
Ġm m
ĠC r
s en
ĠV Ã´
Ġ áº¥p
H Ã´m
Ġlá» ¡
if i
ĠCh áº³ng
Ã į
re e
ĠI S
ĠM Ã´n
ĠT Ã¹ng
Ġch Ãª
ð Ł
Ġn áº¯p
m á»Ļt
tr e
b ank
Ġk áº½
3 00
E T
on t
Ġl Æ°á»¡ng
Ġg Ã¡nh
5 4
Ġ up
Ġnh Æ°á»£c
Ġnh áº¯m
Ġkho e
8 4
Ġthu n
Ġs áº¥y
E L
ol f
Ġt e
ua t
C Ã¢u
Ġg ai
Ġh am
ĠL ED
Ġt ivi
Ġl áº§u
Ġch Ã©n
ĠD r
ĠH S
Ġtá»¥ ng
ĠR á»ĵi
Ġ Ã³c
k ho
ĠK it
ar y
Ġkh Ã´i
ĠCam p
ĠH áº±ng
ĠK iÃªn
an a
ĠTo Ã¡n
201 1
ĠTh iá»ĩn
ĠM icro
Ġm Å©
ĠgÃ¬ n
ĠS c
ĠTh á»ķ
oc k
ĠB Ãłn
I V
Ġl Ã¢n
ĠT Ãº
Ġnh an
Ġvi sa
Ġvi et
Ġ ad
ĠM ay
ĠS ai
Ġ á»Ľt
Ġv áº¡ch
Ġv áº¥t
Ġng Ãło
ĠF PT
Ġn ang
Ġd Ã²
7 4
ĀĀĀĀĀĀĀĀĀĀĀĀĀĀĀĀĀĀĀĀĀĀĀĀĀĀĀĀĀĀĀĀĀĀĀĀĀĀĀĀĀĀĀĀĀĀĀĀĀĀĀĀĀĀĀĀĀĀĀĀĀĀĀĀĀĀĀĀĀĀĀĀĀĀĀĀĀĀĀĀĀĀĀĀĀĀĀĀĀĀĀĀĀĀĀĀĀĀĀĀĀĀĀĀĀĀĀĀĀĀĀĀĀĀĀĀĀĀĀĀĀĀĀĀĀĀĀĀ ĀĀĀĀĀĀĀĀĀĀĀĀĀĀĀĀĀĀĀĀĀĀĀĀĀĀĀĀĀĀĀĀĀĀĀĀĀĀĀĀĀĀĀĀĀĀĀĀĀĀĀĀĀĀĀĀĀĀĀĀĀĀĀĀĀĀĀĀĀĀĀĀĀĀĀĀĀĀĀĀĀĀĀĀĀĀĀĀĀĀĀĀĀĀĀĀĀĀĀĀĀĀĀĀĀĀĀĀĀĀĀĀĀĀĀĀĀĀĀĀĀĀĀĀĀĀĀĀ
Ġgi Ã¡n
Ġquy á»ĥn
I A
H á»Ļi
B Ãł
T ag
ĠÄĳ iÃªn
Ġd áº¯t
Ġt iá»ĩm
ÄĲ Ã³
ĠC uá»ĳi
Ġä ¹
ĠX uáº¥t
L C
Ġ5 5
w e
v a
Ġgiá» įt
ĠH Ã¡n
Ġnh á»©c
Ġ| --
¨ ng
Ġc Ãµi
ĠS EO
ĠCh Ã¢n
ĠBÄĲ S
Ġb Æ¡
ĠM iá»ģn
á»ı a
Ġch uá»ĳi
Ġhá» Ł
ĠT Ã´ng
---- ----
Ġph Ã¢
Ġl áº¡m
Ġn Æ°Æ¡ng
ĠUS B
as e
Ġv s
ĠT O
Ġv Æ°á»Ľng
ĠSy ria
Ġb log
ĠNgh iÃªn
Ġ12 0
Ġkho Ã¡i
Ġ0 6
nh Æ°
ĠD a
ĠTo y
Ġ á»ĳp
ic s
Ġl áº¯c
Ġr á»¥ng
Ġkh uy
ĠTr áº»
E AN
Ġr á»Ļn
C áº§n
Ġh iáº¿u
Ġtá»± u
g on
Ġc ai
ĠG ame
Ġh iá»ģn
Ġm Äĥng
Ġqu i
/ .
Ġs Ãºt
Ġgh Ã©t
Ġ0 7
Ġl áºŃu
Ġng áº§n
Ġx á»ķ
A C
Ġnh á»ī
ĠRe al
n áº¿u
Ġho Ãłi
ĠNh áºŃn
ĠÄĳ un
Ġx á»ī
ĠO r
Ġm á»Ļc
Ġm an
Ġng á»©a
ĠNg uyá»ĩt
n er
Ġn u
Ġd Æ°a
ĠG roup
Ġlá» ģ
ĠL á»Ŀi
ut e
ĠPh Ã¢n
et h
V ideo
Ġd ai
Ġt Æ¡
K ho
ĠT im
Ġho áº¡i
áº· m
6 3
âĢ ¢
ĠF l
Ġl á»Ļn
X e
Ġm ini
t a
Ġng á»£i
ĠF r
ĠA s
G S
Ġd iá»ĩu
ĠHÄĲ ND
Ġr Ãł
Ġ3 4
ĠGiá» Ŀ
Ġtho áº£ng
7 2
b ps
áº ¦
âĢ ĭ
b ook
Ġl áº·p
Ġtá» ıi
Ġl Ã¹i
Ġb Ã´
re en
Ã½ t
Ġ7 5
Ġtr Äĥng
Ġgi ang
Ġbá»ı ng
ĠCh á»©ng
ĠC Ãł
ĠI P
Ġngo an
ĠÄĲ áº¿
Ġm áº¯m
Ġr Ã¨m
8 3
o an
ĠÃģ nh
oll agen
Ġnh á»ĭ
T H
as ter
Ġbu Ã´ng
Ġ6 00
Ġch ay
Ġt Ã¹ng
ĠÄĳ áº¯n
Ġ3 3
ph cm
ĠÃģ o
ĠS hop
Ġtr á»į
Ġl ed
Ġm Ã¨o
Ġch áº©n
Ġm Ã´ng
Ġnh Ã£
oh n
Ġc Ã´n
Ġg Ã£
Ġtá»ĭ nh
ĠH onda
Ġlu Ã¢n
ĠPhil ipp
ĠH iá»ģn
L Æ°u
ones ia
Ġr Ã¡p
ĠM ad
Q ua
b áº¥t
Ġgi Æ¡
Ġs Æ°ng
ĠC al
Ch iá»ģu
Ġh Æ°u
Ġs h
ĠC A
ĠS Ã¡ch
ĠC áº©m
ĠTr inh
Ġl Ã©o
Ġ3 9
e k
er o
Ġng uyá»ĩt
D á»ĭch
it coin
ĠI t
Ġb ong
ĠG old
L Ãºc
Ġb ar
ĠL Ã£nh
Ġt uyáº¿t
K H
Ġt Ã¢
L Ãłm
ĠTh áº©m
ĠQ U
m in
ĠCh r
Ġk eo
und ai
ĠK iáº¿m
ĠP C
Ġmá» ı
ÃĬ N
Ġl Ã¹ng
Ġru á»Ļng
ĠV áºŃn
ĠÄĳ Ã¹a
s ub
ĠNh Æ¡n
Nh Ã¢n
Ġthá»ĭ nh
U BND
Ð »
ĠPh á»ĳ
ĠToy ota
ĠM o
Ġ2 50
al e
so ft
. [
ĠM Ãłu
ĠTo p
Ph áº§n
B á»ĩnh
ard en
Ġqu á»·
ed ia
Ġ3 7
Ġh Ã²n
Ġb ai
ĠNh Ã¬n
k in
ĠS iÃªu
Th Ãłnh
Ph Ã¡t
Ġthu áº«n
ĠC áº¥p
g iá»
Ġt Ã¡m
Ġx Ãło
Ġ Ã¢u
Ġd Ã£y
N am
Ġhá» ¥
M Ã¬nh
ĠT Ã¡c
ĠÄĳ c
ĠTr Ã¡i
ï ¼
Kh u
uch ia
Ġ3 20
T iáº¿p
Ġbu á»ĵng
Ġch iÃªm
Ã¹ n
Nh áºŃn
ĠT ÃŃn
Ġchu Ã´ng
Ġng á»¥
ĠS H
ĠQu Ã¡n
8 2
ĠC Ã¢y
Ġx Ã¡
Ġcá»§ ng
Ġk á»ī
e u
ä ¸
ĠÄĲ iá»ģn
201 0
Ġ200 7
Ġn áº¡i
Ġd á»ĳc
ĠT N
? "
on a
ĠTh á»«a
Ġm arketing
Ġhttp s
Ġl á»įt
ĠAS EAN
T N
Ġm o
Ġb á»ī
at ch
er t
Ġngh iÃªng
ĠQ uyá»ģn
ĠB u
Ġb Ã¹ng
or g
ÄĲ áº§u
Ġl Æ°á»Ŀng
Ġlo go
Ġm Ãłi
Ġm áº¡
v Ãł
Ġd áºŃp
Ġch Ãªnh
Ġm áº·n
Ġkh Ã©p
Ġv e
Ġmu Ã´n
Ġr á»ī
Ch Ãło
ĠÄĲ áº£o
Ġph anh
Ġkho Ã¡
Ġx oa
C B
Ġph Ã´
Ġå ¤
ĠTh áº¥t
7 3
Ġf ull
Th á»§
ĠPar is
Ġ6 5
Ġn áº£y
ĠÄĲ Ã¨n
ĠX anh
4 3
à ¸
Ġtr o
ĠB áº£ng
ĠÄĳ áº±ng
ĠInd onesia
en e
er e
Ġtr áº¯c
ĠY áº¿n
ie u
Ġ ;
Ġæ ľ
Ġpro tein
C uá»Ļc
Ġm Ã²
Ġth Ã¨m
Ġ q
Ġn Ã©m
ĠN a
B Ã¬nh
Ġcu á»Ļn
ĠB ang
Ġpl ay
ĠTh áºŃm
6 2
le y
ĠC O
Ġd á»ĳi
V iet
Ġx Ãł
Ġc Æ°á»¡ng
Ġth Æ°a
ĠH á»Ĺ
ĠÄĳ Ãłnh
4 2
Ġr áº¯c
ĠE n
l u
ĠV áº¥n
f or
Ġc áº¯p
ĠK ÃŃch
L iÃªn
ĠV áºŃt
ĠBH XH
ĠL áºŃp
Ġv Ã²i
ĠIn ter
Ġm Æ°á»£n
Ġtr iáº¿t
ĠF ord
á» ĺ
E N
ĠÄĲ á»įc
Ġs á»ī
Ġk iáº¿p
ĠL Äĥng
Ġb á»Ļi
en z
ĠP an
Ġr á»ĳt
i re
Ġk araoke
Ġr á»ĵng
Ġd áº»o
Ġn á»ĳt
ĠT á»·
ĠTh Ãªm
Ġ is
Ġx Äĥm
ĠC en
ĠY ork
Ġb áº¥y
uy Ãª
Æ ¯u
ĠH áº§u
ex t
Ġy áº¿t
ĠT áº¿
Ġm Äĥ
ĠVinh omes
ĠX uyÃªn
ĠPh á»§
Ġh Ã²
H á»ĩ
Ch á»ĭ
ch e
ĠCh á»£
Ġk Ã¨o
Ġcon t
ag r
Ġv Ã³c
ra z
ĠKh ang
Ġchá»£ t
Ġ4 8
ĠN o
F F
áº¿ ch
ĠM er
á» Ĭ
Ġl ung
ĠthÃ¬ a
ĠC á»Ńu
Ġv Ã¢y
Ġä ½
Ġw in
19 9
iz e
ĠM Ã¹a
á»ĩ n
Ġs uá»ĳi
ĠTh Ã¡p
Ġng Ã´
ww w
ĠL H
Ġl áº¥n
Ġtr u
ĠB ay
Ãº m
Ġc áº¯n
Ġngh á»ĭch
Ð º
Ġc ar
Ġh Æ¡
ĠA ng
Ġd á»ĵi
Ġh Ã¡i
ĠOn e
Ġc Ãłnh
Ġph o
Ġc á»įc
k a
Qu Ã½
Ġkh á»Ń
ĠT Æ°á»Ŀng
Ġt Æ°á»Ľi
, ..
5 6
as on
ĠS Ã´ng
ly mp
Ġå ħ
ĠCamp uchia
Ã ĵ
áº¿ m
Ġr á»ħ
ĠH P
ian o
ĠÄĳ áº·n
Ġth iÃª
Ġl e
Th Ã¡ng
ĠSon y
c ol
ĠÄĳ iá»ģn
Ġn Ã´n
Ġ <
ĠL á»ĩ
am es
B an
ĠT uyáº¿t
Ġn á»©t
Ġm Ãºa
Ġl áºŃt
ĠG S
Ġsá»ĳ c
ĠM od
Ġx ÃŃch
Ľ t
ĠB Ã¡
Ġ1 000
ĠG u
l ess
ĠM au
ĠM Ã´
áº» m
T X
& #
Ġm Æ°á»£t
ĠÄĲ áº¡t
ĠJ ohn
ol y
Q T
Ġx Ã¡m
ĠbÃ³ p
ĠC ai
ĠPr em
Y T
Ġnh ang
ĠÄ Ĥn
H Ã¬nh
ĠTr Ã¬nh
. ,
Ġthu á»·
Ġm p
ĠH i
ĠPhilipp ines
V iá»ĩt
Ġ Æ¯
Ġng á»Ļt
âĢ Ķ
Ġh at
ĠL iÃªm
l et
c Ã¡c
= =
Ġ6 4
u x
ĠÄĳ áº¯ng
en ce
Ġc á»ĵn
5 8
ec k
Ġl Æ°á»Ľt
Ġ9 9
S N
ĠNgh iá»ĩp
l ist
P ad
Ġt phcm
ĠB Ã¡ch
X in
ĠT M
Ġm anh
ĠCh áº¯c
Ġx en
ĠÄĳá» Ľi
Ä Ĥ
Ġf acebook
l Ãłm
Ġr Ã´
pr ess
Ġthá» īnh
ĠQu á»¹
Ġæ ĺ
Ġr áº¡ng
ĠTh uá»ĳc
ĠC T
M á»įi
ĠM on
Ġtu i
C D
I T
Ġtr inh
Ġkho áº£nh
Ġth Ã¡m
Ġto a
ĠM ax
. /.
ĠS ch
ot t
i el
Ġng Æ°ng
ĠR o
á» °
Ġm Ã¢u
Ã Į
Ġk iá»ĩt
ĠO lymp
ĠL áº§n
ĠTr anh
ĠKit Ã´
Kh Ã¡ch
b ao
U S
ĠH iáº¿u
Ġnh á»Ł
ĠT áº§n
ĠKh ai
ĠT áº¡o
ĠHot line
Ġngh iá»ĩn
Ġ200 6
ĠS eo
á»Ń ng
ĠTh Ãºy
b on
ear l
Ġhot line
á» ¤
Ġr un
ĠV áº¡n
Ġth iÃªng
= "
A L
Ġd á»ĵn
Ġlu i
ng h
Ġn Æ°Æ¡
H á»įc
ĠP al
Ġ8 00
se a
Ġg u
Ġtr Æ¡
ĠC ÄĲ
Ġ uá»ĳn
Ġvá» Ł
ĠI II
ĠCh iáº¿c
Ġlu á»ĵng
ĠG arden
g ia
ĠTH CS
ĠTr e
ĠÄĲ an
lo w
Ġhá»¥ t
Ġvi ew
ĠR iÃªng
Ġs i
ic t
ĠÄĳ áº¡m
ĠD iá»ĩp
Ġx Æ°ng
Ġs Ã©t
ĠN Äĥng
ĠR ob
Ph Ã²ng
ĠHy undai
Ġk iÃªng
ĠB áº¡c
Ġv iá»ģn
k i
ĠQu áº£
Â »
Ġä¸ į
Ġg Ã¡c
Ġch Ã¡o
Ġh e
Ġ Æ°
Ġg Ãµ
Ġy áº¿n
ĠA P
ĠÄĲ Ãłn
ĠM Æ°á»Ŀi
ch o
d r
ĠV ua
tr a
Ġx Ã´i
onal d
Ġch á»Ńi
Ġh Ãª
ĠS á»©c
ud io
D A
Ġkh iáº¿t
ĠÄĳ áº¡c
ĠHu á»ĩ
G ia
ho áº·c
4 00
5 7
Ġg o
Ġk iÃª
Ġd Å©ng
or y
Ġtr á»«ng
Ġd á»Ļi
c r
ag on
ĠB i
it al
Ġt áº¡
ĠÄĳ inh
ĠT áº£i
ĠÄĲ Ã´i
ĠCh á»įn
Ġd á»Ł
Ġä¸į báº¥t
t á»«
Ġd áº£i
Th anh
Ġw ww
ĠT Æ°Æ¡ng
A n
Ġb áº¿
Ġlo i
ĠX S
ĠC á»ĳ
ĠNg uá»ĵn
ĠB Ã¡t
ch á»ī
Ġl Ã¢
O R
ĠTr uyá»ĩn
C Æ¡
Ġ4 2
ĠÄĳá» įng
ĠC Ã¡
ĠÃ´ tÃ´
ĠÄĲ Ã¡nh
ĠÄĳ an
en c
Ġr es
Ġb y
et ro
Ġd áº¡i
Ġc áº¡n
ĠS up
ĠT Ã¹y
l ines
ivers ide
Ġcu á»ĵng
ĠÄĳ ÃŃnh
Gi áº£i
M á»Ľi
Ġk Ã©p
ĠÄĳá»¥ c
Ġl á»¥
Ġchi p
Ġk i
M B
an e
Ġx Ã³t
Ġch á»ĳn
ĠX i
Ġg as
ĠM e
Ġch Ã¬a
Ġt Ãł
ok ia
B a
C á»¥
y a
Ġcan xi
j i
Ġr á»ĩt
ĠC áºŃp
ĠD iá»ĩu
ĠÄĳá»© t
ĠM U
Ġch áº·ng
ow er
g er
Ġta xi
ĠÄĳáº¿ m
l i
Ġs Æ°á»Ŀn
Ġkh Æ¡i
Ġy ou
Ġk iÃªm
T Ã¬nh
ĠF ull
5 2
Ġá» ¨ng
ĠÄĲ iá»ĥn
T ui
ĠlÅ© y
T a
áºł I
ÄĲ Ã£
Nh Ã¬n
B TC
ĠA us
S á»Ł
A G
m er
Ġ4 9
Ġd á»ĩt
ĠA t
Ġh Æ°ng
Ġx ao
ur a
Th e
Ġkho ang
á»ĩ m
ĠV iá»ħn
ĠW h
ĠNg Å©
ĠE U
ĠS en
Ġ200 5
ĠÄĳá»¥ ng
L u
Ġr Ã¢
Ġr Ã¡o
Ng uyÃªn
Ġc á»±
ĠWeb site
ĠS á»Ńa
Ġnh ÃŃ
C uá»ĳi
áº¤ T
ĠMicro soft
ĠTu á»ķi
ar i
I NH
6 00
ĠCh Æ°a
ĠB ÃŃch
t in
Ġn i
Ġho Ãłnh
ĠNg Ã£i
Ġg á»«ng
ĠX Ã´
N á»Ļi
H Æ¡n
a e
Ġ Ãło
M ua
Ġg Ã£y
Ġè Ģ
ĠL á»±c
v Ã´
ĠG áº§n
Ġd áº¹p
Ġng á»±
ĠH ang
ĠÄĲ áº·t
I áº¾
nh áº¥t
Ñ ĥ
4 1
Ġn á»į
8 00
T Ã¬m
Ġk y
Ġv Ã¡n
Ã ļ
F A
ĠT á»©
M á»¹
ĠB Æ°á»Ľc
Ġt áº£n
5 3
Th áºŃt
an ce
ĠPh Ã¹
ĠL áº¡i
Ġc Ãºi
Ġb Ãłng
Ġb Ã¡ch
ĠNg hi
Ġnh á»¥c
M áº·t
M P
th á»ĭ
8 1
Ġ á»ĳm
Ġs Ãºc
ĠA b
á»Ľ n
el sea
Ġqu Ã£ng
an n
ĠÄĳ áº¯m
ĠÄĲ áº¹p
áº ¢nh
p ort
t i
Ġph e
Ġch Ã¢
ĠÄĲ Ã¡
Ġc á»į
Ġå ¾
hi p
ĠÄĲ áº¯k
Ġc á»Łi
Ġgi Ã²n
ĠB Ã¢y
200 9
Ġh áº¡ch
Th am
Ġx Æ°á»Ľc
l in
ĠV ideo
Ġvá»ĭ t
M S
e ng
] .
eg a
ĠH áº¯n
ĠK ÃŃnh
Ġl á»į
Ġ á»§
ĠV al
tral ia
Ġh á»ĳ
c Ã´ng
A P
ĠvÃł nh
R O
ĠB Ã³ng
Ġqu áº§y
ĠCh iá»ģu
m ail
ĠN Ãłng
ĠHo Ãł
C ua
ĠH iáº¿n
Ġd áº·n
ĠB á»ĭ
is e
' s
ĠTh á»©c
Ġb Ã£
Ġg áº¯t
S á»Ń
ĠT ai
ĠK á»·
ĠC Æ°
Tag s
w it
ĠHÃł m
t á»±
Ġv o
ĠCom p
Ġngh iÃª
T in
ĠC áºŃu
Ġtr Ã¢u
u ong
Ġ eo
Ġr áº½
ĠD Ã²ng
ĠC á»§a
l er
B Ã¡o
Ãº n
or s
al bum
Ġb á»ĵ
ĠSai gon
ï¿½ ï¿½
Ġs Ã¡p
Ġnhá»Ŀ n
ĠC ty
ĠbÃ¹ n
ĠS te
ĠT ay
ĠL Æ°á»£ng
Ġb áº¡t
Ġ4 3
Ġng Ã¢y
Ġv oi
ĠL G
Ġt Ã¡nh
ĠS am
ĠB o
Ìģ ,
Ġ au
ĠAir lines
t áº£i
ro om
raz il
it a
Ġkh á»ĳng
g h
ĠBl ack
Ġr Ã¢u
Ph Æ°Æ¡ng
Ġv Æ°á»£ng
od e
c ed
ĠE uro
it ed
Ġh áº£
ĠTr Ã¬
ĠT á»ĳt
Ġt Ã³m
ĠS ky
ĠB V
ĠCh Ãº
Ġ it
v ent
ĠMad rid
ig h
Ġs tr
H oa
Cua Tui
ĠIt al
ĠC B
ĠC ap
ĠNhac CuaTui
Ġd á»Ĺ
Ġb Ã¡u
Ġtr Ã¹m
t s
Ġl en
Ġg áº¡t
r l
ÃĤ N
ĠB á»ĳ
ĠSt ar
ĠH ÃĢ
K T
ĠTh iá»ģn
Ġ7 00
á» £p
i ew
au l
Ġmáº¹ o
ĠKh Ãª
ĠD á»¥ng
ĠL and
ĠCh amp
ĠG Ã²
Ġg Ãłng
C Ã¡i
nh Ã¢n
âĢ¦ âĢĿ
Ġnh á»Ļn
ĠS al
K inh
d i
Ġc áº¥y
ĠS Ã¡u
ĠCh á»©c
Ġl Æ°
Ġt Ã²
Ġk áº¹o
ĠV iÃª
Ġac id
Ġph Ã¬
ĠÄĳ Ã²n
Ġç Ħ
TV T
Ġth on
6 1
Ch i
ĠT Æ°á»Ľng
Ġtr á»ħ
en a
ĠCh áº¿
Ġd Ãª
Ġxo áº¯n
200 8
A ND
7 1
Ġgi Ãłn
Ġo ff
Ġå ı
ĠÄĳ Äĥ
ĠPh áº©m
ĠN ote
ĠM áºŃu
Ġvá» ī
Ġx á»ĭt
ĠN S
ĠPh Ã¹ng
Ġg á»ī
á» ¦
w er
ol a
Q uy
Ġ á»§i
ĠTr Ãºc
Ġnh Ã¬
T B
B áº£n
Ġk e
r om
ĠO b
S á»ĳ
> >
T ÃŃnh
ĠNh Ä©
M Ã¹a
Ġb á»įt
ĠÄĳ Ã¹i
ĠV á»«a
ÄĲ iá»ĥm
Ġi Pad
n ey
ĠGi Ã¡p
ĠK iá»ĩt
ĠPh á»¥c
Th u
Ã Ŀ
ĠD V
Ġs á»ıi
A I
Ġg ay
ĠCh elsea
Ġl aser
Ġlo ss
l es
os s
Ġd ong
ĠM arketing
ĠÄĲ áº¥ng
ĠL ang
e al
ĠO ff
ĠCam era
ĠVN ÄĲ
Q G
M Ã´
á»Ľ c
ĠT uyá»ĥn
ĠM obile
V Äĥn
b y
ĠAus tralia
Ġc ollagen
ĠB Äĥng
ĠK y
Ġlá»¥ a
Ġr ang
Ġx áº¯n
ĠGi Ãºp
ĠTr áº¡ch
ĠY ou
Ġ uáº¥t
Ġplay list
ĠB itcoin
ĠB áº£y
ĠB razil
ĠR iverside
ĠÄĲ Ãºng
H Æ°á»Ľng
ĠB Ã©
ĠÄĳ iÃªu
Æ°Æ¡ m
Ġch áºŃt
ĠM ang
o áº¡n
ashi ng
ĠCh uyá»ĩn
ĠCh Ã¹a
ĠV iáº¿t
! "
Ġvá» Ĺ
D C
Ġk iá»ģm
ĠG h
Ġkh uáº¥t
Ġh áº»m
k r
Ġh ÃŃt
ĠB S
Ġb Äĥ
Ġnh áº¥p
Ġf l
E M
Th ay
Ġal bum
Ġloss less
ĠNew s
if e
er ry
ĠI ran
B ank
Ġ9 5
M áº«u
ĠM il
Ä ģ
ĠS Ã³c
Ġx Ã¬
if one
ĠV ill
ĠM á»©c
ation al
Ġng áº«u
Ġng áº¡ch
Ġw ifi
in s
ĠTr uy
Ġl Ã¡nh
Ġl áº·n
T áºŃp
Ġlo g
ĠK em
ĠmÃ£ nh
Ġå į
¯ a
Ġch á»Ľ
ĠM uá»ĳn
ashing ton
ĠTr iá»ĥn
Ġnh á»įn
Ġtr Ã¡n
ĠQu Ã¡
Ġg áºŃt
r on
Ġn áº¿n
Ġb Ã³c
Ng uyá»ħn
Ġt Ãº
Ġd Ãło
Ġl Æ°Æ¡
Ġch Ã©m
w ay
Ġ ðŁ
Ġsp a
) )
ĠThu áºŃt
ĠL á»Ļ
Ġl á»Ļt
Ġta p
ak i
ĠC Ãºc
Ġk áº¹t
ing s
A D
Ġä »
aph one
Ġl anh
onal do
ĠTr Æ°ng
ĠN i
ĠH á»Ļ
t á»©c
Ġs á»¥p
ĠÄĳ á»ĳng
ĠÄĲ Ãłm
ĠT áº¡p
uat ui
Ġm iÃªu
ĠB áº¿p
l l
Ġg á»Ļi
qu e
Ġl á»Ł
ra el
Ġh Æ°á»Ľc
un t
oo th
K S
Ġn an
R áº¥t
c uatui
Ġx Ã´
Ġ8 5
ÄĲ á»ĭa
er m
ĠG reen
ĠkhÃŃ a
ĠL iá»ĩu
Ġd áº·m
ĠM C
Ġp ost
ĠH Ã£ng
Ġkh ao
ĠG T
Ġqu ÃŃ
Ġk bps
ĠT á»§
ĠI m
ĠCN TT
Ġï ĥ
ĠS ang
ĠV á»ĩ
Ġch Ãł
A O
ĠV an
re am
ĠKh áº£
b an
Ġg olf
Ġd á»Ŀi
b ur
Ġmu á»Ĺi
ĠK Ã½
az a
9 8
ĠR om
L e
ĠTo ur
Ġx áº£o
Ġg en
Ġnh Æ°á»Ŀng
Ġtr á»ĩt
ĠNhac cuatui
ĠCh uyá»ĥn
ĠM áº¡ng
Ġh Ã´ng
ĠNh Ã³m
Ġm Ã¢m
ĠS Ã¢n
ĠH iá»ĥu
ĠL Ã£o
Ġngh iá»ĩt
D u
V á»ĭ
ĠM áº¡c
å ¤
Ġnh áº·t
Ġ4 7
ĠV P
Ġg á»ĳm
ĠTu áº§n
ĠÂ «
Ġ4 4
Ġlu á»Ļc
th eo
ĠKh áº£i
Æ¡ ng
ĠB ro
ĠT á»³
Ġn iá»ĩu
ĠS P
iv es
Ġv uá»ĳt
ĠP et
Ġt Ã¡t
Ġá» Ĳ
ĠL iÃªu
ĠT á»ĳi
ĠH N
Ġr áº¡p
ĠV ÃĢ
A Y
ĠÄĳÃ£ ng
ot el
Ġng áº¯t
ĠD onald
ĠKh ÃŃ
N Æ°á»Ľc
is a
ĠD T
if orn
Ġd Ã©p
Ø §
H z
ĠH ong
Ġkh áº½
uk i
Ġtá» ³
H ome
er y
ir c
g en
Ġl á»ĳp
H Ãłng
................ ................
Ġkhi Ãªm
th er
Ġg r
ĠÄĲ á»ı
ut o
it ar
ĠS á»ĳng
Ġmod el
Ġâ Ĩ
H á»ĵ
Ġnh á»ĭn
Ġl á»Ļi
O NG
ar m
Ġch Ã´n
ĠHo áº¡t
ĠU á»·
Ġm y
iet nam
Ġs á»Ŀ
Ġg om
ĠW ashington
áº¿ ng
Ġc áº±m
ĠC ÃĶNG
ĠBl u
ĠM ich
ĠH an
ĠL á»Ľp
h ay
ĠR a
t ion
ĠC Æ°Æ¡ng
C áº£m
ĠThu áº¿
iforn ia
ĠcÃ³ c
ond on
inh o
Ġu á»·
ĠCh áº¥p
Ġ4 6
Ġs et
Ġg á»Łi
Ġmu á»Ĺng
Ġr á»ĥ
á»£ t
Ch uyÃªn
ĠD uyÃªn
Ġ4 1
ĠC ro
Ġb anh
Ġgi áº¿ng
Ġch áº£o
og a
ĠT á»ĳng
ĠC or
ĠA M
c ar
Ġc ard
ĠTr Äĥng
ĠM c
Ġ Æ¯u
v an
Ġ as
Ġr anh
Ġs Ã¹i
Ġng á»¥c
ao mi
ĠKh á»ĳi
Ġä¸ Ģ
Ġnh uyá»ħn
Ġ ex
ot or
Ġch Ã¬
ĠGr and
Ġlo Ã©t
ĠM in
ĠIs rael
Ġb á»Ļc
ĠB iáº¿t
ĠT á»ĭnh
ĠB Ã¡nh
el e
Ġtu á»³
Ġo an
ĠB iá»ĩt
% )
Ġkh iáº¿p
ic on
Ġtá»ĵ i
Ġt áº¡ng
Ġv áº¯t
ĠM ong
ĠÄĳ Ã¨
ĠC D
Ġr Ã¡ch
Ñ ı
Ġb Æ°u
ĠR AM
S o
á» Ķ
> <
ak a
ĠïĢ ½
Ġ1 10
d er
Æ¯ Æł
Ñ ĭ
H D
ĠV ND
Ġph ot
ĠRes ort
D Æ°á»Ľi
Ġch á»įc
Ġ5 1
ĠmÃł o
Ġph Æ°á»Ľc
Ġvá» ©
Ġh Æ°Æ¡
ĠJ e
v Ã¢n
Ġg Ã²
Ãµ m
Ġch Ã¹m
al og
ou th
ĠGi ai
ĠC u
ĠAr sen
ĠTh o
Ġto Ãł
Ġ9 00
Ġc au
ain er
Ġmá»ī m
Ġc á»Ľ
ĠV ui
t Æ°Æ¡ng
ĠB Ã£i
ĠP er
ĠD av
ist an
ĠG o
ĠH á»ıa
ap a
ĠbÃº n
ht tp
ĠT ag
ĠÄĲ á»Ļc
ĠPh iÃªn
ĠS il
Ġr ong
ĠKh áº¯c
ĠKh á»Łi
, âĢĿ
uc k
ĠV TV
ĠNh iá»ĩt
9 6
æ ľ
ĠC M
ĠOlymp ic
ĠNhu áºŃn
Ġngu á»Ļi
Ġ at
od y
Ġch iÃª
ĠNg á»¯
ĠHo me
S t
Ġæ Ń
ĠKho áº£n
Ð° Ð
Ġç Ķ
â ľ
ĠEm ail
Ġnh iáº¿p
Ġbu Ã½t
Ġx uÃ´i
5 1
ph á»¥c
ĠS hi
ĠT C
at er
UY á»
ĠR á»ĭa
ĠM ess
C l
Ġt est
Ġlo Ã£ng
Ġ200 4
ĠH O
ĠTr áº¯ng
Ġi OS
Ġp r
ĠC as
Ġm á»§
Å© a
Ġv iáº¿ng
ĠS V
ĠAng el
Ġl Æ°á»Ŀi
ĠS U
et a
ĠS E
ĠL ondon
Ġs Æ°á»Łi
ĠM art
Æ¯á» ľ
ĠChamp ions
ĠP S
Ch áº¥t
ĠNG H
T Æ°
Ġmu á»Ļi
Ġáº ¢
Ġb á»«ng
ĠD is
ĠGi Ã¡ng
ĠM Ãłn
ĠKh uyáº¿n
Ġr Ã©t
ĠÃĤ n
Ġv Ã£
ĠNg Ã´i
av a
Ġk iá»ģu
gi Ã¡
Ġn Ã¡ch
ĠB Ã¡i
ĠM á»Ŀi
Ġb Æ°á»Łi
Ġh iáº¿p
Ġä¸Ģ nháº¥t
ĠJ u
D anh
av el
ĠV Iá»Ĩ
ĠKho áº£ng
ĠR onaldo
ĠÄĳo an
Ġt Ãºng
Ch iáº¿c
Ġv áº·n
Ġgi eo
Ġt Äĥm
Ġca ch
an mar
Ġn uá»ĳt
qu y
Ġnh ung
Ġb á»±c
z a
H P
ĠG en
Ġg áº§y
th u
ua l
ĠS Æ¡
ĠCal ifornia
ĠMob ifone
ĠD áº¡
ah a
B áº£o
et ooth
Ġn Ãłn
l Ã´
Ġngh iá»ģn
P P
x x
ĠNh Ã£
ĠK r
c l
Ġd ay
Ġ5 2
ĠM Ã³n
s ter
200 7
ÄĲ á»ģ
A i
ÄĲ Ãºng
Ġch áº£i
Ġtho áº£
Ġl iá»ħu
b e
9 2
Æ¯Æł NG
A NH
ĠS á»¹
ĠSup er
R E
D I
ÄĲ á»«ng
ĠG TVT
Ġm á»ĵi
p ool
l Ãł
ÃĮ NH
it an
Ġb Ã¨n
ĠPl ay
Ġng á»¡
Ġqu e
ĠB á»ī
ĠTh Ã¬
us h
D Ã¢n
kh eo
Ġng áº·t
Ġvá»ĭ nh
Ġs al
ÄĲ Æ°á»Ŀng
, "
ĠD es
Ġg Ã¢n
Ġy outube
Ġ200 3
Ġs Ãłnh
op y
h am
ĠE r
Äĳ áº¡i
Ġgi áº·c
Ġm áº§u
H á»į
Ġnhu á»Ļm
am il
ĠQ L
ĠV áº¥p
. -
Ġvá»ī a
ĠM P
ĠH IV
is hi
pl ay
7 00
ĠâĢ Ķ
Â Ń
ab le
ĠA N
ĠVin aphone
O V
Ġt Æ°á»Ľc
B áº¥t
Ġc á»«
ov a
ĠTh áº¥y
Ġ 00
Ġk áº¹p
Ġs áº§m
ĠB M
% ;
ĠO s
Ġ or
Ġká» µ
Ġth Æ°Æ¡
Ġkh Ã¡nh
" :
ĠTo wer
nh Ãł
m g
ix el
ĠÄĳ uá»ĳi
ĠF ran
ĠSp a
ĠL uÃ¢n
b r
Ġd Ã¢
Ġgh en
ĠMar ia
ic al
ĠK on
!! !
ĠTh Ã¹y
ĠL Ã´
ĠçĦ ¡
g ent
Ġgh Ãª
Ġæ ĸ
Ġ un
... ]
ĠnÃ³ n
Ġb Æ°á»Ľ
Ġk iÃªu
Ġl á»Ļng
Ġr áº£i
Ġd ang
ĠR ed
T D
ĠLe e
ÄĲ á»©c
em ent
Ġcom p
ĠNh anh
Nh áº±m
Ġr Ã¡t
Ġ Ã¡
Ġs c
", "
ĠgÃ³ t
ĠX II
Ġl áº«y
ev iew
ĠArsen al
ĠB log
Ġgi Ã£
Ġkáº½ m
ĠT áº·ng
Ã© c
ĠN okia
Ġg el
ĠU V
C áº£
ĠT ÃŃch
f o
ĠB TC
ĠTe ch
B Ã¡c
ĠVin a
ĠĠĠĠ ĠĠĠĠ
Ġstr ess
ĠL áº¥y
Ġ18 0
Ġr á»§
ĠCh ia
ĠN ay
ĠTr á»±c
Ġth Ãªu
f ord
Ġs á»¥n
ĠK ang
it ion
ky o
t hi
Ġ7 2
l Æ°á»£ng
A NG
Ġnh á»ķ
nh á»¯ng
Ġch Ã©o
Ġph áºŃt
Ġå ¦
ĠUy Ãªn
Ġx Ãłi
Ġb áº©m
ĠBH YT
ĠPh u
ĠK iá»ĥu
ĠD an
u z
ĠÄĲ ang
Ġc áº©m
Ġd á»¡
Ġkhi Ãªu
Ġph iÃªu
ÄĲ i
ain e
Ġco de
V á»«a
Ġd Ã¬
B á»Łi
b in
D S
Ġvá»£ t
M áº¹
ĠTr i
ĀĀĀĀĀĀĀĀĀĀĀĀĀĀĀĀĀĀĀĀĀĀĀĀĀĀĀĀĀĀĀĀĀĀĀĀĀĀĀĀĀĀĀĀĀĀĀĀĀĀĀĀĀĀĀĀĀĀĀĀĀĀĀĀĀĀĀĀĀĀĀĀĀĀĀĀĀĀĀĀĀĀĀĀĀĀĀĀĀĀĀĀĀĀĀĀĀĀĀĀĀĀĀĀĀĀĀĀĀĀĀĀĀĀĀĀĀĀĀĀĀĀĀĀĀĀĀĀĀĀĀĀĀĀĀĀĀĀĀĀĀĀĀĀĀĀĀĀĀĀĀĀĀĀĀĀĀĀĀĀĀĀĀĀĀĀĀĀĀĀĀĀĀĀĀĀĀĀĀĀĀĀĀĀĀĀĀĀĀĀĀĀĀĀĀĀĀĀĀĀĀĀĀĀĀĀĀĀĀĀĀĀĀĀĀĀĀĀĀĀĀĀĀĀĀĀĀĀĀĀĀĀĀĀĀĀĀĀĀĀĀĀĀĀĀĀĀĀĀĀĀĀĀĀĀĀ ĀĀĀĀĀĀĀĀĀĀĀĀĀĀĀĀĀĀĀĀĀĀĀĀĀĀĀĀĀĀĀĀĀĀĀĀĀĀĀĀĀĀĀĀĀĀĀĀĀĀĀĀĀĀĀĀĀĀĀĀĀĀĀĀĀĀĀĀĀĀĀĀĀĀĀĀĀĀĀĀĀĀĀĀĀĀĀĀĀĀĀĀĀĀĀĀĀĀĀĀĀĀĀĀĀĀĀĀĀĀĀĀĀĀĀĀĀĀĀĀĀĀĀĀĀĀĀĀĀĀĀĀĀĀĀĀĀĀĀĀĀĀĀĀĀĀĀĀĀĀĀĀĀĀĀĀĀĀĀĀĀĀĀĀĀĀĀĀĀĀĀĀĀĀĀĀĀĀĀĀĀĀĀĀĀĀĀĀĀĀĀĀĀĀĀĀĀĀĀĀĀĀĀĀĀĀĀĀĀĀĀĀĀĀĀĀĀĀĀĀĀĀĀĀĀĀĀĀĀĀĀĀĀĀĀĀĀĀĀĀĀĀĀĀĀĀĀĀĀĀĀĀĀĀĀĀ
ĠâĨ Ĵ
ĠÄĳ ao
Ã Ĳ
ĠPh á»ķ
» ¿
Ġkh inh
ĠTh oáº¡i
ĠÂ ·
ĠK Ã´ng
Ġ5 4
Ġtr iÃª
ĠÄĲ á»ĳng
ĠV y
Ġå Ĳ
ĠV Ã²ng
Ðµ Ð
ĠMy anmar
ĠM it
Ġb ack
ĠNg Ã´n
% /
ĠçĦ¡ vÃ´
ĠA v
Ġkh ay
Ġb Ã¢
G áº§n
p a
1 50
ĠP GS
Ġs á»¥t
ester ol
ĠT uáº¥t
D F
Ġchap ter
Ġäº ĳ
áº¦ N
ĠS áº½
Ġto an
9 7
ĠV itamin
ell a
Äĳ á»ĥ
Ġ3 60
Ġng áº¥t
b i
ĠM at
kho áº£ng
Ġv Æ°
Ġm ore
B T
ĠB en
Ġr Ã²
ĠA T
on s
ĠL áº¡p
Ġäºĳ vÃ¢n
Ġ6 3
Ġ19 75
ĠM el
Ġ us
Ġm icro
v á»Ľi
ĠCh Äĥm
âĢ¦ )
I P
ĠM áºŃt
Äĳ Ã£
R e
ĠM Æ°á»Ŀng
Ġho áº¡
r m
ĠL áº¡ng
Ġnh ai
ĠOb ama
ac ute
ced es
N áº±m
Ġ en
ĠT Ã¡m
Ġd Æ°ng
ĠM áº¡ch
Ġs eo
p age
ĠhÃ£ m
ĠA C
ĠSp ort
Äĳ Æ°á»£c
á» ¨
Ġl Ã¡ng
Ġnh iá»ħu
ĠB er
Ġh Ã¢n
d ro
o int
iver pool
Ġw ith
ot te
V ÃŃ
ĠPh ÃŃa
Ġå Ī
ĠM u
ĠT á»©c
Ġx á»ĳp
Ġæĺ ¯
Į C
9 4
Ġ Æ°á»Ľp
ĠR ang
.... ..
ĠÄĲ Ãªm
N Ã³
Ġho Ã£n
Ġth áº¡o
ĠCh ar
Ġh ack
Ġh iÃªn
Ph im
ĠQu áº§n
D L
ĠI V
ĠW ord
Ch u
Q uyáº¿t
Ġc Ãło
ĠGi áº£m
ĠY o
ĠS áº¯c
T iÃªu
h á»¯u
Ġæĺ¯ thá»ĭ
Ġd ec
ĠM Ã´ng
ĠN áº±m
ĠUn ited
p y
Ġh uyá»ĩt
ĠNg Æ°á»£c
tr ung
á»ķ n
ĠPrem ier
L Ã½
Ġm Ã¢
ĠP ower
Qu áº£ng
O L
C ÄĲ
T u
s au
ĠTo kyo
Ġg áº§m
ĠV u
ĠKh Ã³a
ĠcÃº m
om b
ä º
Ġg áº¥u
t d
Ph Ã³
ĠHo l
Ġgi Ã²
c Ã´
ĠC á»ķng
ĠJ ack
k o
ĠTh iÃªm
ĠE co
ĠNh ung
j a
ĠM iá»ħn
Ġch á»Ľp
ĠK CN
ĠO p
Ã Ĵ
ĠT áº¡
Ġ @
et t
ĠGI Ãģ
b al
Ġr á»Ļ
__ __
Ġ2 20
Ġc Æ°ng
or a
ĠM T
ĠM á»Ł
ĠT iáº¿t
ter s
ĠB ig
9 3
Ġc áº©u
er r
Ġv n
p earl
ĠXi aomi
Ġkhuy a
ĠK ing
Giá» Ľi
ĠG l
ac o
ĠÃĲ á»©c
P N
th Ãłnh
Ġcu Ã´
Ġn áº£n
ĠIS O
o use
Ġch Æ°á»Ľng
H S
n y
ĠM os
ĠÄĳ Æ¡
D N
at es
ĠCá»© u
Ã³ p
Ġh Äĥng
an i
ĠS i
TT g
ĠC Ãģ
Ġ5 6
ĠN iÃªn
ay a
Ġb alo
d uc
Ġl á»ĵn
s inh
am i
Ġl ay
Ġvá» ±ng
Ġd r
M I
ĠGi áº£
ĠK ong
P C
ĠC áº£ng
ĠBan k
ĠK á»ĥ
200 6
ĠbÃ© n
ĠL iá»ħu
Ph á»¥
ip s
ĠKh Ã¡c
Ġho i
Ġd áº¡n
ĠT iá»ĩn
U NG
Ġé ģ
Â ²
Ġl á»Ńng
at in
Ġth áº£n
ĠHÄĲ QT
ĠB iá»ĥu
Ġc á»Ĺ
ĠÃģ p
C Ã¢y
ai r
ĠU kr
T á»ķ
st ar
Ġcho l
per ia
Ġh Ã©t
ing roup
Ġqu áº¥n
Ġtá»¥ i
ĠGi Ã¡c
ĠD Ä©
Th á»ĭ
Ġ el
ĠV Æ°á»Ŀn
Ĥ «
Ġm áºŃp
Ġn Æ°
ĠT Ã¡t
ĠA lex
Ġch á»ĳc
ĠM Ã¹i
ĠTh uyáº¿t
os ter
ĠG B
wit ter
b iz
w ork
S inh
Ġn Ãłnh
an c
Ġm Ã¡c
ĠE ng
T Ã¢n
ĠR á»ĵng
s er
ĠChu áº©n
Gi Ã¡o
Ġ ).
ĠS w
x Ã£
ĠD el
ĠVi ew
Ġc Ãºp
Ġ> >
ĠH iá»ĥn
Ñ Į
ĠM ag
Ġtr áº§y
U SD
x in
ex ico
ĠChr ist
áº¬ T
áº ®
ĠL iverpool
ĠK i
sh ine
Ġi phone
Ġ- -
ĠV á»ĭnh
ĠbÃ¬ a
Ġc á»ĳi
Ġl Æ°á»£n
Ġc at
it t
. )
C L
Ġnh á»įc
Ġxo ang
ĠKh Ã¡m
Ġquy Ãª
T Äĥng
T O
gi áº£
ĠL i
m en
ĠW al
Ġch Ã¨n
P r
Ġ8 8
L á»Ŀi
x em
ĠE le
ĠP in
p ro
T á»ĳi
ĠÄĳ iá»ģm
Ġb áº¡
Ġs áº¿p
Ġ6 8
ĠvÃł n
L áº§n
CC C
ĠS how
Ġn á»ĩm
F C
Ġn oi
x e
Ġt Æ°Æ¡
ĠNg Ãłnh
Ġng áºŃm
ĠW ar
ĠS n
Ġngo áº¡n
w ard
ĠV ol
Ġs áº§u
Ġæ ķ
ĠAl l
Ġthá» ı
ĠM Ãª
Ġcont ainer
Ph Ã¡p
ĠN et
Ġch Ã³i
Ġchu i
âĢ¦âĢ¦âĢ¦âĢ¦ âĢ¦âĢ¦âĢ¦âĢ¦
agr ave
? âĢĿ.
ĠV ingroup
w ood
áº½ n
Ġj e
at or
ĠÄĲ á»Ŀi
Ġs ty
on y
ov er
Ġs á»«ng
ĠPh a
d u
Th Ã¡i
ĠM ore
Ho Ãłng
M á»¥c
ĠE ver
ason ic
Ġ1 30
Ġho st
ĠTr Ãłng
Ġgi u
B A
ĠM á»«ng
Ġd es
Ġvá»© t
i i
ĠT áº§ng
Ġv Ã´i
ĠS á»¯a
Ġch uyÃª
ĠG P
Ngh e
H y
ĠÄĳá»Ļ n
ÄĲ á»Ļi
ĠB os
ĠÄĳ Ãłng
ĠG eo
Ġnh at
f Ã©
ĠS l
com bank
T A
Ġl áºŃn
ĠRe ad
H uyá»ĩn
ht ml
az on
Ġs ho
Ġchol esterol
ĠS Ãłn
Ġ Ã¢
ĠH ill
Ġph Ã¡c
d otel
p hi
Th iÃªn
9 00
c c
N V
ĠC Ã´n
Ġth á»ĳi
Æ°á»Ŀ m
Ġqu áº¥y
Th Ãªm
Ġlo an
z u
ep t
C om
ph a
Ġg á»¥c
ĠTh áºŃp
ĠT áº¡ng
ad o
ĠT á»ĳ
Ġkh á»ĳc
Ġn Ãªm
Ġ3 50
Q H
ĠÃģ i
ĠPh ÃŃ
Ġg áºŃy
Äĳ á»ĳi
ĠIn tel
f r
Ġx Ã©
áº ¶
Ġg ym
áº¢ N
if ic
Ġc r
giá» Ŀ
ĠPh á»¥ng
Ġ= >
Ġ5 3
m y
Ġng Æ¡
gent ina
Ġå ¸
Nh á»Ŀ
Ġm áº¯ng
e ed
ĠH Ã²n
ĠL ed
Ġ19 00
Ġs áº£nh
ĠA g
ĠMer cedes
H áº§u
Ġc Ãºc
ĠC EO
Q L
m Ã´n
C V
ev el
B Ãłn
Ġnh á»ĵi
Ġr áº¡n
ĠL aser
Ġkh an
ig a
Ġfor m
ĠJ o
Ġch Æ°ng
Ġgi Ã¡ng
C á»Ńa
ĠPl aza
ĠM exico
ĠV á»£
ĠI D
Ġnh áºŃu
our inho
ĠLu áºŃn
Ġthá»¥ c
Ġl iÃªng
ĠNh áºŃp
ĠL ÄĲ
Ġâ ľ
Ġnh Ã¡y
2 24
Ġb lock
ĠMob i
Ġgi rl
ct ion
ĠS mart
Ġn Ãª
Ġs il
ut in
d ay
os hi
Ġc áº·n
Ġ5 8
ĠF LC
ĠÄĳ Å©a
ĠS ol
Ġxu Ã¢
M A
Ġth áº¯p
ĠT Æ°á»Łng
áº¬ N
Ġto Ã¡t
ĠT om
Ġch at
Ġæľ ī
Ġr á»Ĺi
Ġr ob
th anh
ĠN Ãºi
ĠDav id
Ġnh Ã¡i
b ox
Ġph ai
ĠV iÃªm
A V
T E
Ġ6 2
Ġv Ã¡c
ĠÄĲ áº£m
l ic
Ġl á»¥t
ĠÄĲ á»ĳc
Ġt áº¡c
Ġnh Å©
ĠL CD
ui ld
w ord
Ġr Ã²ng
ĠM r
Ġm Ã©p
Ġth iáº¿p
ĠS á»ķ
Ġth áº¯n
Ġ %
C am
ĠN AM
ĠT uyáº¿n
im a
ĠK ar
Ġkh ÃŃt
ĠW est
ĠR oy
2 50
ĠL Ã¡
201 9
Ġå ľ
Ġr áº£nh
Ġngo a
ĠT Q
or ia
ĠNgh iÃªm
Ġä¹ ĭ
T iá»ĥu
ĠW ill
ĠnhÃł m
ĠTr áº¥n
Ġth ÃŃnh
Ġ ep
os a
Ġæľī há»¯u
ch er
Ġå ¿
Ġm obile
ĠâĢ ĭ
ĠCh á»¯
ĠUn ivers
ic an
il le
Ġkhu áº¥y
Ġbá»ķ n
Ġph á»Ł
Ġt áº¥u
ĠT Y
Ġr Ã£
Ġcom ment
ĠL áº¯p
Ġè ¦
Ġbu s
Ġh Ã³c
Â °
Iá»Ĩ N
) -
G A
Äĳ á»ĵng
ĠY am
Ġvá» Ľt
ĠCon t
Ìī ,
ĠB inh
Ġqu á»³
ĠP CCC
Ġä¹ĭ chi
Ġn Ã¡o
ĠHo tel
Ġ ev
ÃĢ N
ĠH TX
Ch ia
Ġm on
ĠX Ã¡
ĠCh á»ĳng
ĠN ov
ĠAr gentina
ĠÄĲ Ã¡ng
ĠC á»±c
Ġd ata
Ph áºŃt
ĠT um
' ,
ĠQu áº¿
ĠT witter
B uá»ķi
Ġb á»Ľi
Ġn ew
Ġ ~
Ġl Ã©n
Qu an
Ġkh á»ĳn
ber g
ĠT K
ĠI r
Ġk Ã©t
Ġphá»¥ ng
or i
Ġph Ã´ng
Ìģ .
ĠÄĲ en
Ġchu á»ĵng
Ġg oogle
Ġr á»Ľt
Ġr Æ°á»Ľc
½ ©
Ġch áº§n
ĠKh a
Ġth at
Ġc ity
Ġ200 2
Ġh áº¯c
Ġthá»§ ng
ul t
s á»±
ĠCh Æ¡i
ĠW e
Ġnh Ã¡t
ĠmÃŃ a
ph Ãºt
ĠT á»ĳc
Ġb á»ĩ
v á»ĭ
nh Æ°ng
ĠÄĳ áºŃy
ĠC á»§
n ational
d ate
ĠNh iÃªn
TT Q
T oÃłn
ĠS tr
Ġho rm
Ġngh áº¹t
th á»Ŀi
Ġr á»Ĺng
á» ļ
ĠÐ ¿
ĠVin pearl
Ġqu áº¿
ĠM aster
Į nh
T Ãªn
Ġg áº·t
Ġp iano
Ġn iá»ģng
T Ãłi
ĠVIá»Ĩ T
ĠS outh
Ph áº£i
200 5
ĠM ourinho
â ĸ
ĠD Ã¢y
ĠL Ãłng
ĠKh Æ°Æ¡ng
V á»¥
ĠIn st
Ġp oly
Ġs áºŃp
ĠD ao
ĠÄĳá» Ŀ
g ed
ĠV ict
at o
ĠTim es
ĠS G
ĠD áº§n
Æ¯á» ļ
N á»¯
U B
Ġd au
ĠB us
Kho áº£ng
L oáº¡i
¥ nh
Ġ12 5
Ġm iÃªn
ĠP a
h uyá»ĩn
Ch uyá»ĩn
Ġtu Ã½
A h
ĠKhu Ãª
Ġng á»ĳc
Ġ are
ĠV ÄĲ
Ġth áº£y
T Ã¡c
Ãģ N
v Ã¬
ï »¿
Ġs ize
Ġ12 8
cr ip
Ġ \
Ġ5 7
ĠÄĳ Ã¡i
Ġho áº¡n
Ġn áº¿m
ĠM us
n ing
Ġcá»« u
Ġqu á»µ
t áº¡i
Ġr en
ĠGD P
Ng uá»ĵn
ĠH áº¡t
B Ã¢y
Ġd iÃª
Ch ung
eal and
Ġl im
ĠH Ã¢n
I L
ĠM S
Ġru á»ĵi
Ġx ua
ĠM iss
and a
m ua
ĠH á»ķ
an y
Ġch áº±m
Ġ5 9
ĠC V
ĠMess i
N Q
ĠKh anh
ÃĢ I
ĠS Ã¡t
Ñģ ÑĤ
Ġch eck
Ġg áºŃp
ĠG a
Ġr á»ķ
ĠGold en
å ı
ĠCen ter
ĠH Ã´
Ġcho Ã¡ng
Ġc alo
Ġ19 90
F i
ĠS apa
ĠP M
ĠCh inh
ĠL áº¯k
Ġo Ã¡n
Ġl áº©u
Ġb áº«y
âĢ¦ ,
ĠL in
-------- --------
tr y
p ad
ĠCh Ãłng
D Ã¹ng
Ch áº¯c
one y
Ġkh áº¯t
ub a
Ġb áº»
Ġth áº¡c
Ġquy á»ĩn
Ġä ¾
z ada
T W
ĠP i
ĠR O
Ġth iÃªu
cel ona
em e
ĠH TC
Ġph iáº¿n
ĠC R
ol i
ĠÄĳ á»ĳ
s á»ĳ
Ġn á»ī
Ġv áº¥p
v iáº¿t
ĠY outube
t Ã¢m
L á»ħ
v iet
d ex
ĠN Ã¢ng
g an
Ġhá»ĩ t
Ġshow room
Ġres ort
ĠD áºŃu
w in
Ġch Äĥ
Ch Ãº
k s
c á»ĳ
Ġn áº¥y
ĠGiá» ĳng
l or
l ish
ÄĲ áº¥t
á»£ n
id a
Ġ- >
D T
Ġphá»ĳ t
ĠH am
Ph ong
Ġ6 6
ĠL aptop
ĠD O
Ġngh Ãª
ĠT uyá»ĩt
Ġtr Ã¹
in ess
ĠTr a
ĠL á»Ľn
Ġc áº¡o
C o
Ġch en
Ġæ Ľ
ĠD H
Ġç Ľ
y n
Ġmen u
s Æ°
Ġch Ã´
Ġngh áº½n
ÄĲ Ã¡nh
m Ã¡y
j ect
at ar
Ġst art
ĠA p
ĠT AND
j et
ĠV Ã¹ng
X D
ĠU N
Ch á»įn
ot ov
ĠW i
ĠTr á»¥
ĠG ar
Ġå¦ Ĥ
ch ester
Ġm Ä©
20 20
aw a
e on
Ã Ĺ
Ġta b
ÄĲ oÃłn
t Ã´i
áº ¨
ĠX Ã©t
s an
Ġl iÃª
Ġl Å©ng
Ġx áº»
ĠÄĳ á»ĳm
Ð ²
Ġv Ã²m
ĠC áºŃn
Ġh Ã©
Ġr áº¡ch
1 20
ĠC TC
Nh áºŃt
Ġ áº£
Ġs Ã¡o
E X
ĠV C
Ġnhá»Ľ t
H N
Ġng áº£
Ġsty le
c á»§a
Ch Æ°a
B áº±ng
ch á»ĭ
c Ã¡i
ĠP R
ĠD inh
d s
Qu áºŃn
N Ãªn
ĠS m
ĠTh ÃŃ
ĠJ un
ĠD Æ°
qu áºŃn
ĠH el
ĠNg á»į
Ġc Ãły
ĠL Ä©nh
Ġg Ã¡y
c i
ĠÄĲ á»ģn
Ġtá»ĳ ng
ĠM á»Ļng
ĠM á»Ļ
Ġï ģ
ch Ãºng
c Ã¡ch
ĠS ho
Ġthu á»Ł
Ġ200 1
c Äĥn
it r
ĠF u
ĠZ ealand
ĠPh ao
B L
' .
Ġx Ã¡t
ĠJ ose
ĠX Ã¡c
Ġh inh
Æ¯á»ľ NG
EL TS
Ġnh Ãłn
sub ishi
á» ¬
Ġl Ã¡ch
Ġw h
m ark
Ġn ung
t am
ur n
Ġtr Ãªu
oc opy
b áº¡n
k hi
Ī Ĵ
ĠNh á»Ľ
ÄĲ Äĥng
ĠH iÃªn
Ngh iÃªn
c ity
Ġ19 99
T K
Ġ om
Ġc Ã²i
ĠL Ã²
Ġho c
w are
Ġ16 0
Ġtá»¥ t
Ġd ep
es h
a el
Ġe uro
Ġr Ã£nh
Ġdec al
ĠPan asonic
ĠPh Ãª
Ġrob ot
âĢĻ .
Ġ9 8
Ġm ail
Ch iáº¿n
ĠV H
d io
n i
h an
ĠÄĲ áº±ng
Ġt áº¥p
ĠP utin
otov ietnam
Ġc Æ°a
ĠM az
Ġsan otovietnam
l ink
ĠD ell
Ġç ľ
ĠBu Ã´n
âĢĿ ;
ĠL en
ĠGi áº£ng
ĠD ong
g a
Ġvá» įt
ĠM etro
Ġ6 7
ĠR em
Ģ N
il d
88 8
Ġb Ãºp
] [
Ġmu Ã´
ĠBar ca
ĠB B
Ġ6 9
H Ãłnh
s k
ÄĲ iá»ĩn
Ġk Ã¬m
Ġs Äĥ
ch ain
Ġæ ³
ĠThu Ãª
T Æ°Æ¡ng
ĠN N
Ġb en
ĠTh ao
Th Æ°Æ¡ng
ĠH á»ıi
ĠBM W
ot ton
ĠÆ¯ á»Ľc
S ao
Ġs áº¥u
Ġm g
ĠHo Ã¡
Ġ Ãºy
ĠD iá»ħm
P L
ĠB uá»ķi
ĠX I
u is
Äĳ Æ°á»Ŀng
l ad
pl ant
ĠÄĳ Ã¨o
ĠU l
d Ä©
Ã² e
ĠTu á»ĩ
ĠM áº¥y
ĠTr áº¡m
ĠxÃŃ u
Ġ Ãª
V C
k ok
Ġdi en
ĠX á»Ń
Ġt áº©m
tr i
Ġl ike
ĠCS GT
Ġ {
ĠA sia
ĠX a
ĠB áº¯t
ĠD ai
Ġte en
qu a
Ì£ ,
ĠR ao
ĠM ark
ĠNh á»ĭ
ĠBlu etooth
Ġkhuy nh
ĠP P
Ġho Äĥ
ĠS ec
ĠHá» ĮC
ĠItal ia
ĠSun shine
Ġv ÃŃt
K á»ĥ
Re ad
Äĳ a
Â «
M Ã£
ra q
P l
X uáº¥t
Ch áº³ng
for m
el a
ĠC á»±u
! âĢĿ.
Ġ app
Ġc as
Ġ6 1
Ġc ac
ĠV er
M C
á»¥ i
Ġx Æ°á»Ľng
Â ®
Ġng á»Ńa
ĠH ung
S á»Ńa
ĠJ ong
ĠG ames
Ġnh áº¥c
Ġg l
Ġl on
ĠCl ick
ĠïĢ «
ĠP T
ĠI ELTS
Tr áº£
H O
b it
ĠBar celona
ĠM un
P ro
D iá»ħn
T á»§
Ġx oÃłi
c Ã²n
Ġt áº£o
Ġnh Ãºng
Ġch Ã¹i
ĠÄĳ áº£
ĠSu z
ĠC Ã¢n
ig er
Ġt Ã¡ng
Ġthá»Ń a
ĠA FF
s c
Ġb uá»ĳt
Ġm áº«n
Ġt á»§y
et te
Ġser ver
ĠB al
ĠN Ã´
th iÃªn
R L
ĠG á»įi
Ġn á»©c
ĠM ed
Ġvi p
or m
ĠAm azon
Ġca p
Ġthá» ģ
ĠVI P
ĠC anh
Ġ ^
ab y
g mail
Ġn Ã¨
S C
Tr áº§n
Ġph á»ĵng
Le ague
ĠFor m
v en
A l
ĠCh ap
Ġæ ī
ĠTh a
Ġtr Äĥn
ĠL Ã¢u
Ġ ....
lo ud
ĠD á»¥c
ĠGi Ã³
Ġlá» «ng
Ġng áº¥m
pp o
I ÃĬN
ĠTh iá»ĩu
Ä Ĥn
Ġ Ãºt
T iá»ģn
Ġå ®
ĠN V
ĠB L
and al
ĠL Ãªn
ĠTr áºŃn
ĠInter national
Ġth á»ĳt
D iá»ĩn
E F
el f
o id
2 25
ĠèĢ ħ
ĠI raq
ĠN at
ĠNh o
Ġb á»ĵng
Ġm áº©n
Lu áºŃt
s i
Ġl iáº¿c
ĠU p
ph ong
ĠO anh
Â ·
Ġg Ã²n
ur y
ĠL iá»ĩt
ĠN Ãły
ĠJ et
Ġnh e
Ġm á»ĳt
Ġm Ã¹ng
Ġb Ã¡i
Ġå °
ĠP e
ĠT á»Ľi
ĠTr ans
is ion
T iáº¿ng
ĠH er
ĠSeo ul
ĠÄĲ á»ĵn
ĠO pt
Ġkhi Ãª
ĠR ich
ĠTr Ã£i
ĠH áº¡o
Ġt p
ĠèĢħ giáº£
Äĳ á»ģ
Ġh d
Ġtr au
ĠS T
Ġ ar
Ġhá» Ŀ
ro w
Ġca fÃ©
Ġé Ľ
Ġs áº£ng
ĠG á»Ĺ
ĠA ud
ĠM edia
k inh
Ãį NH
ĠE book
Iá» Ĥ
Ł d
ĠT á»ĭch
r it
ĠM as
l am
h iá»ĩn
Ġvá»¥ n
Ġf ree
Ġm á»ĵm
ĠL ink
B ao
E x
Ġ _
ĠPV C
Ġch áºŃp
ĠGT GT
k ing
Ġng Ã³
ĠJ ames
9 1
Ġáº ¨
um b
ĠM Å©i
ĠB ill
ĠM áº¯t
ÃŃ u
Ph Ã¢n
ir a
ĠC á»ĳc
ĠGeo r
ov o
ĠTh Ã´i
Ġb l
Ġmi x
M uá»ĳn
ĠR iver
at ia
Ġviet tel
ĠK T
st em
ĠCen tral
Ãµ ng
C ung
Ġt áº·c
ĠT D
ĠH á»Ļp
ĠH al
Ġc uá»ĳng
Ġb iáº¿u
Ġh áº¡m
Ġm oi
Ġnh á»§
T Ã¹y
Ġth ung
b Ã¡n
ĠÄĳ áº¥m
ĠMod el
Ġ7 3
áº³ m
m inh
Ġ8 6
ĠM B
ĠïĢ Ń
rol et
ĠCh Ãło
ud e
ĠL oa
å ½©
A r
Ġ áº§m
Ġ Î
ĠRes id
ĠÄĲ o
Ġl Ã¬
Ġ[ ...]
Ġch Ã¨o
ev rolet
ĠUkr aine
ĠPH Ãģ
X Ã¢y
ĠÄĳ Ã´n
ĠÄĳ Æ°
ĠÄĲ á»ĩ
ĠB ol
h y
ĠÄĳ áº½
ĠCh iÃªu
ĠG em
ĠP aul
S ong
ĠSh in
K im
Ġ áº¥u
ik i
ĠTH U
á» ª
E P
ĠC Ã¡n
Ġh Ã¨n
ĠD iá»ĩm
c ess
ĠX Æ°Æ¡ng
Ġ1 01
s m
g et
ĠTh Ã¡m
ĠB Ã¨
Ġn et
Ġd Ã´ng
Ġb Äĥm
Ġn Ã©
ĠH Ãłi
ĠH áº£o
Ġkh á»ī
Ġb iáº¿ng
Ġd Æ°Æ¡
l ight
ĠT i
ĠQu á»·
ĠWh ite
Ġ14 0
ÄĲ Ã¨n
ah oo
ĠX X
Ġph Æ°á»£ng
ĠD ay
ĠMaz da
Ĥ º
Tr ao
Ġ ]
Ġlá» Ŀ
Ġng Ã³i
ĠDV D
ĠTr avel
ĠS S
ĠS ant
tr on
ÄĲ Ã´i
s anh
ĠAr ch
Ġ9 6
Th uá»ĳc
Ġ ap
Ġè ĩ
Ãģ o
Ġs Ãłi
Ġm Ãºt
ĠG am
Ġ9 2
V iÃªm
ec o
Ġxo Ã¡y
ĠPh Ã³ng
ĠG V
ĠÄĳ Ã¡n
ĠTr Ã²
V áº¥n
al a
Ġ8 2
ĠB T
00 00
ç ¥
Ġl á»¯
ĠKh Ãºc
Ġn Ã£y
Æ¯á» ¢
Ġn á»Ļ
e ch
ĠP ost
Ġr Ã¡n
ĠÄĲ Ã¡p
tre am
ĠGiá» ¯a
Ġthi s
áº¦ U
is co
Ð¾Ð ²
H C
iel d
Ġh á»ĳt
ĠG Ãł
Ġ4 50
Ġ8 1
à ¤
¸ ı
es e
ĠL Ã¢n
Ġngh Ãªnh
ĠT Æ¯
A A
ĠTh Ãº
ĠMit subishi
Ġh en
Äĳ áº§u
Ġæ Ī
M Ãłu
at s
Ġthu Ã´
Ġcá»Ń u
Ġh an
ĠCom ment
ĠT ui
r Ã´
ĠQu Ã´
Äĥ k
bur g
iv al
ĠM en
Ġå¤ §
Ħ N
ag o
ÃŃ p
B M
ĠR anh
ĠA ss
ĠK Ãªnh
ill a
ch á»§
ĠbÆ°á»Ľ m
y o
ĠCS VN
ĠR am
Ġ24 0
Ġr Ã³t
T á»±
Ġn á»ĥ
Ġ7 8
.. ...
B áº£ng
r u
å ħ
h á»įc
il a
qu an
ce an
ĠH Ã¡t
Ġkh ang
Ġv Äĥng
ik a
Ġb á»į
Ġgu itar
ĠF I
Ñ ĩ
Ġv Ã¡
k en
ĠMan chester
ĠBang kok
Ġh á»§
ĠB ÃŃnh
Giá» Ŀ
Ã ¤
Ġ7 1
ĠI N
g in
ain t
ĠH Ã³c
Ġa b
Ġç Ĥº
Ġs á»įc
y s
th á»Ń
« sÆ°
ĠS C
] ,
ĠK áº»
ĠTr Ã¡nh
Ġhá»ķ ng
ĠT Ãºi
Ġå¦Ĥ nhÆ°
T R
Ġs áº¡m
á»° C
c ao
h ai
ĠK e
ĠX V
ĠC uba
Łd Ã£
2 000
ĠT Æ°á»£ng
Ġä¹ ŁdÃ£
H áº£i
er al
p o
R á»ĵi
Ġph Ã´i
ĠTo Ãł
K iáº¿n
ĠG el
ĠA B
Ġphot ocopy
bo ard
200 4
R iÃªng
ĠK ia
ĠM TV
ÄĲ Ãł
S im
Ġg á»įt
ĠR áº»
ĠbÃª nh
Ġkh ong
v Äĥn
Ġqu ai
ĠÄĲ Ã´n
Ġb áº§y
< /
ĠB Ãłng
Ġthá» ģm
ĠMil an
Ġ Ñģ
M E
t Äĥng
Nh Ã³m
¥ c
% ),
Ġv Ã¢ng
m o
Ġx Ã´n
m obile
ĠA R
th iáº¿t
Ġ8 4
ĠL au
ĠKh Ã´i
ĠH uÃ¢n
ĠL á»¯
ĠkÃŃ p
ĠHo use
Qu Ã¡
ĠMich ael
ĠÄĲ áºŃu
ad ing
Ġthu Ã¢
ĠAr t
C áºŃu
ĠD C
Ġth áº¯m
ĠÄĲ áº¥u
ĠM otor
em on
Ġm iÃª
ĠS O
ĠF in
Äĳ i
Ġh anh
ation s
Ð ¼
Ġv ung
ĠCl in
ĠU á»ĳng
Ġn uá»ĳi
Ġr em
% ).
th Æ°á»£ng
Ġb Ã³i
c Æ¡
Į h
th Æ°á»Ŀng
ĠçĶ Ł
ÄĲ áº·t
ĠC Ãłng
Ġ amin
ÄĤ N
ĠGh áº¿
ï ¸ı
ĠM TTQ
áº¢ I
ĠS X
Ġgiá» ı
Ġäº º
ĠP as
ĠV áº«n
f er
áº© ng
á» Ĩ
S V
Ġph áº¥t
ĠB Æ°u
c an
ĠÐ ²
ĠT Ã½
ĠC at
ĠM or
Ġg Ã¢
Ġ7 6
Ġ Ø
M O
ĠAm er
ĠRoy al
ang e
Ġv áº§n
II I
Ġå¸ «sÆ°
Ġch á»«
Ġhu á»·
Ã Ļ
ÄĲ á»įc
ĠB CH
ac om
ÄĲ Æ¡n
Ġn Äĥ
L á»ĭch
ad er
ĠV Ä©
ĠTr áº£
Ġph Ãłm
ar ch
ĠLu Ã´n
ĠS á»©
ĠC áº£i
Ġvá» Ŀ
ĠÄĳo a
Ġ7 9
v o
Æ £
Ġy oga
Gi ao
D Ã²ng
Ġkho Ã¡t
Ġd c
Ġx á»ĩ
H Ã£ng
S A
ĠX u
ĠPh á»ĳi
Ġtá»¥ y
il m
ist a
H ÄĲ
ĠTh ai
Ġtr Æ°
Ġd Ã¨
Ġng áº¡o
ĠV n
ÄĲ Ãªm
ĠQ uyÃªn
Ġd at
S P
n o
ÄĲ á»ĵ
ĠÄĲ iá»ĩp
ĠYam aha
H áº¯n
Ġbá»ĭ t
Ġd á»©a
ĠâĢ¦ .
PT NT
Ġs Ãºp
ĠS ak
ĠN or
ol og
ĠA I
Ġ á»©
ÄĲ a
Ġh Ã¡o
ĠG á»Ńi
Ðµ Ð½
ĠD á»ħ
Ġs l
ĠNg Æ°
Ġtr Ã³i
N et
ĠâĢĭ âĢĭ
Ġy our
f l
ĠCh Ã¡u
Ġnh Ã³c
Ġs áº¡t
ĠS Ã¢m
Ġhorm one
k im
ĠTh an
ĠmÃª nh
Ġ8 9
Th Æ°á»Ŀng
L L
d oc
th áº¿
ĠçĶŁ sanh
ĠA TM
áº¾ T
Ġh cm
Ġch an
ĠçĤº vi
Y Ãªu
ĠV isa
ĠL Ã²ng
Ġtá»ī a
te ch
ĠV á»įng
Ġth áº³m
Ġco py
ĠBl ue
ĠH T
ĠF C
Ġfl ash
Ù Ħ
all et
Ġå ī
== ==
Ġg Ã´
Ġnháº¹ n
ĠH igh
Ġc ty
ĠGr ab
å¤ ©
th e
iss an
ĠT ur
ĠvÃµ ng
ĠV AT
y e
ÌĢ ,
ĠPrem ium
ĠCh iáº¿t
re at
) âĢ¦
ĠS um
ĠK iá»ĩn
o und
Ġc otton
ĠT áº¥m
ĠT an
Ġn á»Ľi
ĠO m
ĠThu á»·
å ®
Ġm in
... )
lo bal
kh u
crip t
ĠT el
Ġkh iáº¿m
ev er
Â º
ĠL ib
n b
S T
ĠL ight
ÃĤ Y
ĠF ree
C áº§u
ĠGi Ãły
th Ã´ng
app y
ĠM Æ¡
Ġ Ã¹n
T inh
Ġng áº¡t
âĢ¦ ..
C áº£nh
Ġ199 2
Ġtr Ã³c
ĠF ed
ĠCro atia
ĠKH ÃĶNG
ĠD on
ĠCh Æ°
ĠR ep
Ġ199 5
ĠK o
C Ã¡
Ġm ÃŃt
Ġser ies
CO M
t t
ĠL uyá»ĩn
Ġç ķ
enn is
Ġäºº nhÃ¢n
Ġd áº§m
r en
ĠIn n
ĠCP U
ĠnÃ³ c
C ao
gi áº£i
Ġè «
F one
ĠT or
ch u
ĠNh iá»ĩm
J C
Ġ199 8
ĠH Ã¨
Ġvá»¯ a
tre et
ĠHÃĢ NG
Ġv ali
ĠC le
ĠTh áº¡c
à ¹
Ġå Ľ
Ġo ut
ĠI phone
Ġgi áº¥m
at i
ĠÄĲ á»ķi
Ġ7 7
om a
L A
ĠLu x
Ġta g
ĠSuz uki
Ġtruy en
Ġth Ã¢u
ĠTh á»Ľi
n ay
Ġm á»©t
Ġmá» ³
K áº¿
vent us
k á»³
Ġs Ãło
k iáº¿n
ĠA uto
w a
ĠNH NN
Ġb Ãºa
S h
Ġng Ãłng
w eb
Ġgh e
Ġth ong
ĠC áº§m
ĠH ua
In dex
Ngh á»ĩ
Ġl Ãµm
Ġng á»Ŀi
ord er
ĠKh ung
vi ew
Ġnh Ä©
Ġ199 7
ĠTh áº»
ĠT Iáº¾
ĠC Ã¡p
Ġnh Æ¡
ho a
ĠTh Ã¬n
ĠN ik
Ġm at
ĠB OT
Gi áº¥y
Ph Ãº
o om
Ġch á»įi
I G
Ġc Ã²
ers ion
T Ã³m
Ġl Ã³c
d ong
Qu áº£
ĠTr Ã¢n
ed it
Ġgi Æ°
... "
ĠZ en
Tr áº»
ĠN ar
ĠT al
ĠM áº§m
Ġn Ã´i
us s
Ġt ua
Ġsh are
h Ãł
agr am
Ġæķ ħ
r ic
ĠTr áº£i
p x
Ġte am
Ġtr á»ķ
tr Ãªn
L S
t áº¥n
id er
Ġ8 7
Ġæ³ ķ
ĠCTC P
ĠKh á»ķng
ie ng
Ġng áº©ng
Ġæķħ cá»ĳ
Ġn ot
un e
Ġn Ãºm
á»Ĳ C
ĠH it
ĠSU V
Th áº§y
we i
ĠAP EC
ĠÄĳ Ã²
ĠM áº¡i
ĠNh áº±m
K em
l ing
G h
ĠDo wnload
Ġè ª
ĠDr agon
ĠB ox
Ngh á»ĭ
ĠA f
am ine
ĠH Ãło
Ġc Äĥm
Ġs iáº¿t
O O
Ġv áº¯c
Ġng áº«m
ĠFran c
âĢĶ âĢĶ
Ġm iá»ĩt
el le
Ġn ick
á»¤ C
Ġ ur
ĠS uá»ĳi
35 7
Ġf rom
ĠThá»ĭ t
ĠX peria
P A
B V
3 60
G ÄĲ
ĠOff ice
âĢĻ ,
s á»Ł
ĠAs us
B ook
Ġph en
tu áº§n
Ġå¤ ©
Ġb á»«a
T iáº¿n
tr ang
Do anh
a acute
ĠÄĲá» ĺ
200 3
Ġl Ã¬a
ĠÄĳá» ±c
ĠH OT
ĠF an
Ġmá» ģ
P H
ĠH áº¡ng
re ad
Ãģ Y
u le
Äĳ áº·c
c am
Ġr Äĥn
Ġshow biz
K D
ĠH á»©a
ak u
ec e
Ġng á»¥y
ap an
C á»©
ĠS ub
Ġg iá»ģng
W h
n es
ĠnhÃł o
Ġ7 4
99 9
ĠL ÃĢ
Ġy áº¿m
Ġtr Æ°á»Ľng
Ġth Ãł
ĠH á»£i
ĠL im
ĠA V
Ļ Ĥ
nh am
Ġph ao
ly wood
m on
Ġ^ ^
Ġm Ã©o
O A
ĠNg Æ°Æ¡i
Ġgi o
d en
g y
Ġå Ń
Ġt Æ¡i
t inh
Ġ all
** **
qu ang
Ġé Ģ
ĠV o
Ġr i
ĠNg Ã£
ex us
ĠU r
Ġr Ã¹a
b le
ĠFl or
ab a
ĠB ook
gi o
Ġh á»ĳc
Ġl Äĥm
ĠLo ve
TP O
b ack
Ġs ite
ĠTh á»¥c
L T
Ġx Ãª
Ch uyá»ĥn
P ost
B ÃŃ
ĠT á»«ng
M á»Ł
ĠÄĳ áº«m
ĠCh evrolet
ĠVN PT
Ã ¼
ĠO cean
ĠB Ãª
ĠB iáº¿n
Ġâ Ĥ«
âĢĿ âĢ¦
Ġl á»ĵi
t Ã¡t
á ¹
Ġl á»¥y
Ġxo Ã¡
Ġn eo
K ÃŃnh
Ġph áº«n
ĠM Ã¡c
Ġng á»ı
Kh Ã¡c
Ġng Ã¡n
ĠG ÄĲ
ĠÄĳ áº¥ng
ĠF e
m Ãł
ĠAr ab
ĠT uÃ¢n
Ġho m
Ġsex y
r ight
H T
Ġs áº£
ĠCh e
ĠS oi
Ġnh Ã¡
ĠPh ot
Ġquy Ãªn
ĠCh ina
ĠViet jet
el and
ĠVict oria
ĠItal y
ĠD ig
tr á»«
io us
U N
Ġv áº«y
Ġ' '
L áº¥y
ro gen
t Ãªn
ĠT uyá»ģn
Ġhá» ·
t á»Ń
ĠB á»ĳn
Ġs Ã²ng
Ġr áº§m
T ube
Ġm á»įt
ĠR ock
Ġkho áº¯n
S á»¯a
Ġ8 3
i us
c er
ĠC ore
Ġm ac
ĠT áº£
Æ°á»Ľ u
ĠC Ã¹
ĠCH á»
ĠO ut
Ġ3 000
Ġg Äĥ
Ġin s
Ð ´
H á»ĵi
os hop
uild ing
1 01
ĠUnivers ity
L áº¡i
¤ thá»Ń
ul in
ĠJu ventus
ĠM ini
Ġ ),
v ÃŃ
y c
Ġl áº¡y
Ġ Æł
ak er
á» ¨ng
L ink
Ġtr áº·c
d anh
ĠP ol
ĠH AG
ĠT IN
if t
Äĳ á»ĭa
Ġ ion
ĠS L
Ġ19 80
ĠI C
Ġnh Ã©t
ĠL os
Th áº¥y
ĠH áº¡n
ĠO ppo
ĠT B
ĠB Ã´ng
Ġl uyáº¿n
b rid
b l
ĠCN C
H u
ĠÃ įt
Ġv est
ĠB lock
Ġm ag
Ġchu á»Ļc
ĠÄĳ á»ĳn
ĠN iá»ĩm
Ġ199 6
ĠS ur
h u
ed an
b our
t ai
Ĵ NG
ch áº¥t
á»ĺ I
Äĳ áº¯c
Ġb ox
Ġtuy Ãª
co w
ĠC á»¦
Ġm l
á»¨ C
Ch a
ĠÄĲ áº¯c
d y
ĠLo uis
ĠHar ry
ĠTh ang
1 60
Ġand roid
U R
ĠS IM
Ġs áº¯n
Ġh Å©
Ġch Ã¡t
Ġch Æ°á»Ľc
ĠL á»±a
ĠG hi
ĠTh Ã©p
Ġg ang
ĠC ard
Ġad min
Ġnh Ã´
ª th
ĠThu á»Ļt
Äĳ áº¡o
th áº§n
ĠSá»Ń u
Ġch Ã³t
D R
end er
Ġg old
Ġm Ã¨
Ã ¶
Ġcá»¥ t
ph ouse
Ġqu áºŃt
T uá»ķi
ĠG Ã³c
Ġb áº©y
p le
Ġ199 4
Ġt Äĥ
Ġsu Ã´n
ĠT áºłI
ĠBe au
ĠÃĶ n
ian a
t ect
ĠJ ul
ĠNh Æ°á»£c
ĠNg Æ°u
Ġ10 5
Ġb ÃŃt
ĠC Ãºp
Ġ9 7
Ġh Ã¡
Ġá» Ķ
ĠP le
ĠÃ Ĭ
Ġcas ino
X X
Ġr áºŃp
ĠW ifi
1 000
ĠYo ung
ĠF ort
ĠD Æ°á»¡ng
Ġn áº¡o
Ġn em
Ġt anh
ĠN ano
Ġr Ãªu
ĠV ang
ĠC oc
ph áº§n
G P
in fo
' '
B áº¯c
Iá»Ĩ U
M Ãłn
Ġm ica
Ġc Ã´i
L ong
Ġ10 8
Ġc á»Ļi
ar ia
ĠæŃ ¤thá»Ń
o ff
âĢ ĺ
ĠC ollagen
d ep
ĠhÃ£ nh
ĠkhÃ³ e
c Å©ng
Ġp H
Ġt áº»
ĠU ng
ĠTh á»Ń
ĠA BS
K V
ĠR Äĥng
ax i
A d
Ġlá»ģ u
ĠR áº¡ch
m Ã¬nh
Ġ9 3
ĠÄĲ áº§m
Ġth á»ĳn
y an
Ġb ik
Ġl á»ĳc
Ġr Äĥ
H Ãłn
t v
ch Æ°a
ĠD á»±a
ĠSn ap
ĠM Ã£o
Ch Ãºc
G ame
y Ãªu
ĠC á»Ŀ
L Ãª
Ġtr á»ı
ail y
id s
ĠNh Æ°á»¡ng
ĠR Ãµ
ĠCá»¦ A
Ġg Ãło
ĠGiá» ¯
ĠTr iáº¿t
ĠP u
Ġng áº©n
Ġtho ai
t en
ĠCan on
Ġs up
z z
um ent
M Ã³n
Ĩ l
M áº¥y
Ph iÃªn
Ġtá»ĩ p
Ġtr Ã¡
th uá»Ļc
ĠP o
Ġl Ãºng
eng er
hi re
ĠH en
Ġb ung
L a
Ġf r
Ġh Ã¡n
Ġca bin
á»Ĭ CH
Ġç Ł
is on
at ed
Ġv Ã¹i
Ġv áº£y
ĠV ai
ir st
Ġqu Ã´
B Ã¡nh
ĠP earl
ĠÐ ½
Ġt áº¯n
Ġr Æ°á»¡i
ĠA udio
ag es
ĠN ob
Ġv Ã£ng
ĠHá» ĺ
ĠS ar
ĠÃĲ áº¡i
ĠCh á»ĵng
th o
N Ãłng
?? ?
Ġä» ¥
ĠP ac
ĠQu Ã¡ch
Ġ199 3
am ond
es el
Ġf ix
ĠD ec
ĠCon dotel
Ng Æ°Æ¡i
O C
+ +
( "
ĠB ur
Th iáº¿u
á» ľ
Ġhá»© c
Ġth Ã¡n
h ang
IN E
at ing
M ay
ot s
ĠD J
it s
Ġb ook
Ġm el
ĠWill i
Ġhost ing
am b
Ġk ali
ers on
L Ã¢m
ĠSch ool
r es
Ġth en
Ng Ã´i
ro p
O P
ĠæĽ °
X S
Ġä»¥ dÄ©
Ġå¾ Ĺ
ĠB á»ķ
Pr ess
W eb
Ã ī
ĠV TC
Ġt Ã©
Ġm iáº¿u
N A
ĠVÄĲ V
ĠÐ ¸
ĠRang er
Th Æ°a
ĠæĽ° viáº¿t
Ġr áºŃm
ï¼ Į
M á»©c
ĠP ak
Ġ20 30
ÃĢ NH
B á»ĭ
ĠSer ies
ĠTr Ã¢m
ĠD S
Ġ09 0
Ġb ody
Ġæ Ĺ
f in
V Ã²ng
um in
Ġå¾Ĺ Äĳáº¯c
Ġ enz
ĠL iga
ÄĲ H
ĠNH ÃĢ
Ġtr Ãºt
ĠP oly
r et
, ,
ĠTh om
ĠM ao
Ġx áº¥p
Ġ Æ°Æ¡m
ĠG olf
X B
ĠSer ver
in ch
Ġå¿ ĥ
Ġ17 0
ĠMos cow
ĠSt ore
ĠB ID
ĠViet combank
ĠYou Tube
ĠVN CH
T Ã¢y
Ġhu á»ĩ
ĠN á»ģn
Ġï Ĥ
Ġngh áº¹n
ĠP op
ĠH áº¯c
ĠA D
ĠT X
ĠT ex
Ìī .
T p
Ġh á»Ļt
N Æ¡i
ĠCh iá»ĥu
u ters
Ġlog ic
I NG
ĠJ ava
ĠRob ert
Ġngu oi
V Ã©
ag er
ĠS á»Ĳ
b áº£n
Ġv Ã£n
c ast
ĠI T
ĠI d
áº¢ O
V OV
Ġ11 5
ĠL U
ĠTO P
tr Æ°á»Ľc
ear ch
Ġ á»ĳ
h ot
ĠGi an
ng uyÃªn
Ġå ±
Ġn ao
ĠGi oan
ist ics
ĠC it
ĠHD MI
ĠA k
ĠF B
Ġph Ã¡ch
ob i
ĠL at
ĠO f
ĠCÄĲ V
Ġr Æ¡m
Ġgiá» ¥c
ob e
ĠB R
Ġ est
Ġch ÃŃch
ĠOp en
y le
Ġ19 45
ID S
ch a
ĠC Ã¡m
I F
Ġå ¯
... ,
Ġw ap
Ġs áº£o
c u
K á»³
ĠG Ã³i
Gi Ã¡m
Äĳ iá»ģu
ver ter
j p
ff ee
an el
Ġs ub
T Ã¢m
GD VN
l ong
Ng Ã¢n
Ġ Ãºp
ĠÄĳ iáº¿u
ed u
ĠL Ã£ng
ÄĤ NG
ĠT á»µ
ĠN iáº¿t
ļ Ħ
ĠH at
and er
Ġch uyen
Ãģ CH
Ġ9 1
Ġw as
ĠV á»ĳn
org an
ĀĀĀĀĀĀĀĀĀĀĀĀĀĀĀĀĀĀĀĀĀĀĀĀĀĀĀĀĀĀĀĀĀĀĀĀĀĀĀĀĀĀĀĀĀĀĀĀĀĀĀĀĀĀĀĀĀĀĀĀĀĀĀĀĀĀĀĀĀĀĀĀĀĀĀĀĀĀĀĀĀĀĀĀĀĀĀĀĀĀĀĀĀĀĀĀĀĀĀĀĀĀĀĀĀĀĀĀĀĀĀĀĀĀĀĀĀĀĀĀĀĀĀĀĀĀĀĀĀĀĀĀĀĀĀĀĀĀĀĀĀĀĀĀĀĀĀĀĀĀĀĀĀĀĀĀĀĀĀĀĀĀĀĀĀĀĀĀĀĀĀĀĀĀĀĀĀĀĀĀĀĀĀĀĀĀĀĀĀĀĀĀĀĀĀĀĀĀĀĀĀĀĀĀĀĀĀĀĀĀĀĀĀĀĀĀĀĀĀĀĀĀĀĀĀĀĀĀĀĀĀĀĀĀĀĀĀĀĀĀĀĀĀĀĀĀĀĀĀĀĀĀĀĀĀĀĀĀĀĀĀĀĀĀĀĀĀĀĀĀĀĀĀĀĀĀĀĀĀĀĀĀĀĀĀĀĀĀĀĀĀĀĀĀĀĀĀĀĀĀĀĀĀĀĀĀĀĀĀĀĀĀĀĀĀĀĀĀĀĀĀĀĀĀĀĀĀĀĀĀĀĀĀĀĀĀĀĀĀĀĀĀĀĀĀĀĀĀĀĀĀĀĀĀĀĀĀĀĀĀĀĀĀĀĀĀĀĀĀĀĀĀĀĀĀĀĀĀĀĀĀĀĀĀĀĀĀĀĀĀĀĀĀĀĀĀĀĀĀĀĀĀĀĀĀĀĀĀĀĀĀĀĀĀĀĀĀĀĀĀĀĀĀĀĀĀĀĀĀĀĀĀĀĀĀĀĀĀĀĀĀĀĀĀĀĀĀĀĀĀĀĀĀĀĀĀĀĀĀĀĀĀĀĀĀĀĀĀĀĀĀĀĀĀĀĀĀĀĀĀĀĀĀĀĀĀĀĀĀĀĀĀĀĀĀĀĀĀĀĀĀĀĀĀĀĀĀĀĀĀĀĀ ĀĀĀĀĀĀĀĀĀĀĀĀĀĀĀĀĀĀĀĀĀĀĀĀĀĀĀĀĀĀĀĀĀĀĀĀĀĀĀĀĀĀĀĀĀĀĀĀĀĀĀĀĀĀĀĀĀĀĀĀĀĀĀĀĀĀĀĀĀĀĀĀĀĀĀĀĀĀĀĀĀĀĀĀĀĀĀĀĀĀĀĀĀĀĀĀĀĀĀĀĀĀĀĀĀĀĀĀĀĀĀĀĀĀĀĀĀĀĀĀĀĀĀĀĀĀĀĀĀĀĀĀĀĀĀĀĀĀĀĀĀĀĀĀĀĀĀĀĀĀĀĀĀĀĀĀĀĀĀĀĀĀĀĀĀĀĀĀĀĀĀĀĀĀĀĀĀĀĀĀĀĀĀĀĀĀĀĀĀĀĀĀĀĀĀĀĀĀĀĀĀĀĀĀĀĀĀĀĀĀĀĀĀĀĀĀĀĀĀĀĀĀĀĀĀĀĀĀĀĀĀĀĀĀĀĀĀĀĀĀĀĀĀĀĀĀĀĀĀĀĀĀĀĀĀĀĀĀĀĀĀĀĀĀĀĀĀĀĀĀĀĀĀĀĀĀĀĀĀĀĀĀĀĀĀĀĀĀĀĀĀĀĀĀĀĀĀĀĀĀĀĀĀĀĀĀĀĀĀĀĀĀĀĀĀĀĀĀĀĀĀĀĀĀĀĀĀĀĀĀĀĀĀĀĀĀĀĀĀĀĀĀĀĀĀĀĀĀĀĀĀĀĀĀĀĀĀĀĀĀĀĀĀĀĀĀĀĀĀĀĀĀĀĀĀĀĀĀĀĀĀĀĀĀĀĀĀĀĀĀĀĀĀĀĀĀĀĀĀĀĀĀĀĀĀĀĀĀĀĀĀĀĀĀĀĀĀĀĀĀĀĀĀĀĀĀĀĀĀĀĀĀĀĀĀĀĀĀĀĀĀĀĀĀĀĀĀĀĀĀĀĀĀĀĀĀĀĀĀĀĀĀĀĀĀĀĀĀĀĀĀĀĀĀĀĀĀĀĀĀĀĀĀĀĀĀĀĀĀĀĀĀĀĀĀĀĀĀĀĀĀĀĀĀĀĀĀĀĀĀĀĀ
Ġl iáº¿m
Ã³ e
ĠKh iÃªm
ĠB re
L oÃłi
Ġn Ã²ng
ĠM á»ĩnh
Ġé ĸ
Ġs á»į
Ġå¿ĥ tÃ¢m
ĠPh Ãłm
ik u
Ġh Ã¢
ch en
ĠN issan
ĠB y
ĠVi r
A B
ĠÄĲ au
ĠP at
Ġp art
ĠK ey
ĠAud i
n ess
Ġr oi
Ġf ol
ĠT W
ĠR i
Q uyá»ģn
ĠT Ã³c
Æ°á»Ľ n
Tr uyá»ĩn
ÄĲ Ã¡ng
ĠCol le
ĠCh áº¥n
R P
ĠC Ã¡nh
ĠHol lywood
ĠT itan
Ġè Ī
k er
l áº§n
otte nham
s et
Ġh áº¯t
em ber
Ġk Ã¨
um i
ĠN Ãło
ĠÄĲ B
Ġvá» Ľ
áº º
Ġv Ãªnh
H á»Ĺ
ĠC áº¥u
âĢĿ :
Ġn ano
Ġ 000
ach i
á»ı e
Ġé Ŀ
ĠB C
ĠT á»įa
ĠGiá» įng
ĠTr áº¡i
Ñ ħ
ĠT oshi
Q uá»ĳc
Ho áº¡t
V in
Ġl ine
Ġcá»§ i
Ġc Ã¯
n d
ĠH uyáº¿t
ĠBay ern
ĠRe uters
ĠN áº¥m
Ġo k
ĠT á»Ŀ
ĠÄĲ áº³ng
Ġlá» £p
Ġto Ã¡i
Ġl Äĥ
og r
Tr áº£i
ĠC á»Ń
ĠL Ã¡i
Ġt Ã²i
Ch áº¿
Ġs hip
ĠKang nam
h Ã¬nh
Ġqu áº¥t
ĠC á»±
Ġb Æ°ng
ÄĲ Ã´ng
Ġä¸ ī
b Ãł
ĠPh áº£n
Th i
Ġw ord
Ġ Ù
ap e
Æ¯á»ļ C
T á»įa
Ġviet sub
ĠE VN
ĠB in
ĠK en
Ġg Äĥng
N Ãły
th á»±c
ĠM eg
,âĢ¦ .
Ġv v
ĠÄĲ oáº¡n
ĠEx press
h áº¡
Ġch Æ°á»Łng
Ġng Ã²i
s á»Ńa
Ph ÃŃa
t áº¥t
2 12
Ġn il
Th Æ°
M inh
Ġv Ã¡ng
th á»§
S Æ¡n
Ġfor um
ik o
x uáº¥t
X Ã©t
Ġm ake
ĠFr ank
ĠF DI
Ġcl ass
ĠHo an
Kh Ã³a
ĠSh ar
ĠJ i
âĢĻ âĢĻ
Ġo ai
Ġph Æ°á»£t
ĠG áº·p
ĠP re
ÃĬ U
ĠZ ing
ĠCl ub
c á»ķ
it er
Ġng Ã¡y
Ġs Ã¹ng
ing ton
Ġr Ãªn
ĠB á»įn
ĠM ir
Ġn Æ¡
ro und
Ġä¸ Ń
ĠV at
Ġt á»Ļt
z o
us hi
ĠMo on
ĠB el
ĠDá»± ng
T ÄĲ
ĠInst agram
ĠD áº«n
Ġs áº§n
Ġ áº¯t
if f
Ġ áº¿ch
ĠIn ox
ĠHAG L
b Ã¬nh
ĠS M
ĠPhao lÃ´
H ay
c ent
Æ°á»£ m
ĠÄĲ á»īnh
i or
Ġ á»ĵ
N Ã¢ng
Ġ199 1
Ġc al
â Ļ
G VN
ĠHua wei
Ġ et
ph im
á» Ģ
ĠG e
Ġs á»¡
Ġs á»§ng
ĠT ab
v in
á»ļ I
Ġa h
Ġph Ãłn
t á»īnh
Ġfan page
ĠtÆ° ng
ä¸ Ń
Ġc á»ĵng
olog y
ĠJet star
ĠN á»ķi
K iá»ĥm
i ent
1 10
ĠNo el
ĠC C
ĠM A
ĠÄĲ Æ°Æ¡ng
â ĺ
Ġè ĭ
Ġs áº·c
T U
ĠA u
ĠP art
m s
ĠR u
r ay
ĠB as
v el
3 50
x a
t Ã¡c
ĠS D
ÃĤ M
ĠV en
Ġx Ã¡o
ĠV Æ°á»£ng
ĠC ur
ĠB on
I ON
ĠA F
ĠD áº¡y
Ġto áº£
ĠCol or
Ġp ass
ĠH á»ĵn
b áº£o
Ġv in
Ġtr á»ĩ
ĠT Ã¡o
ĠB áº§u
ĠT ao
áº¤ P
ĠEn ter
ĠNh an
Ġc Æ°Æ¡
Ġ Ã´i
Ġkhu áº¿ch
ĠS K
Ġd áº¥n
Ġtá» µ
ĠS at
Giá» ĳng
ĠR ec
ĠM áº«n
Ġb Ãºi
en ter
ĠO l
Cam era
ĠFI FA
b á»Ļ
g l
æ Ĺ
pp ing
s iÃªu
Ðµ ÑĢ
ĠL á»ĩnh
Ġm Ã¡ng
ĠN e
Ġm Æ°
ĠQu Ãł
ĠquÃ½ t
) ...
X Ã£
ĠĠĠĠĠĠĠĠ ĠĠĠĠĠĠĠĠ
E W
Ġb itcoin
Ġk á»ĭ
ĠLen ovo
Ġtho i
ĠH im
Ġg áº¯m
Ġch áº±ng
ĠB á»Ļt
ä »
ĠMac book
Ì Ĥ
Ġn Æ°á»Ľu
id an
ĠS oc
Ġp er
Ġr eview
Ġ19 70
E A
ĠÄĲ Æ°a
Ġn áºµng
UY ÃĬN
ãĢ ģ
Ġch áº¡p
Ġd áº«u
Ġ7 50
Ġ10 80
Ġé ĩ
B áº¯t
ĠS JC
Ġv un
Ľ PháºŃt
Ġ áº¡t
t iá»ģn
Ġr ay
os ite
ĠSt udio
ust in
ĠN ap
Ð° Ð½
el s
in ja
ĠR Æ°á»£u
th a
ÄĲ á»Ļ
o f
ĠTh á»¥
Ġch ao
T uyá»ĥn
ph Ã¡t
Ġsu Ã½t
ĠD ub
Ġth Ã²i
Ø ±
Ġ Ã¡ch
Ġn Ã£
ate g
ĠT áº§m
Ġb áº£
ĠJ W
áº¬ P
ĠTex as
j u
as y
ĠÄĳá»ĭ t
v ice
ĠM all
ĠX inh
Ġb á»©t
? .
Ġè ¨
ĠQ Ãºy
Ġd an
ĠR áºŃp
ĠWord Press
ĠP ok
ĠM Ã£i
om at
Ġh áº¥u
ĠB Ã´
Ġk ey
Ġ18 00
Ġs á»ĩt
19 75
K á»¹
ä ¹
ĠUS A
ĠT ottenham
ÄĲ ang
Ġl á»±u
th Ã¢n
h Ãłng
Nh áº¯c
j o
âĢ¦ âĢĿ.
å Ĳ
Tr á»Ł
ĠKh áº£o
ĠÄĲ á»©ng
ot ion
m ay
S iÃªu
Ġn ÃŃu
al y
ĠPh Ã¡
s eo
Ġn ai
Ġb Ã¹i
ÄĲ áº¡o
L Ã£nh
o C
ĠL Ã¡ng
Ġr áº«y
ES CO
ĠF ace
H Ã²a
s Æ¡
Ġs á»§a
ĠL áº¡nh
ĠHu áº¥n
Ġng Ãł
ĠF ire
Ġé ł
ĠN av
ĠEx cel
ĠQu e
M an
Ġï ¿½
Ġè¦ ĭ
ĠPh o
Ġ19 60
Ġng Ã¡ch
a f
ãģ ®
Ġd en
ĠM ur
á»£ c
ĠT em
ad y
Ġgi áº§y
Ġä½ ĽPháºŃt
áº¶ T
ĠL um
way s
ĠCa fe
Ġy eu
Ġä½ ķ
Tr Ã¡i
E U
M Ãł
Ġb Ã¨o
AT O
ĠVin city
ĠCH O
V TV
ĠO k
Ġr eo
ĠDes ign
ĠT Ãł
Ġcar bon
M N
Ġth Ã©t
Ġè ¡
Ġn Äĥn
ĠR á»Ńa
Ġd áº§y
ou cher
Ġho n
Ġè¦ĭ kiáº¿n
Ġc á»Ļ
ĠK TS
ĠCl ass
ia c
s áº½
ent al
Ġm Æ°á»Ľt
tr Æ°á»Ŀng
Ġr á»ĳn
Ġm á»įng
kh á»§ng
Ġph an
ĠCh á»¯a
Ġh and
c Ã¹ng
ĠP N
Ġho Ã¡n
ĠL S
Ġs á»¥c
u el
Ġv Æ¡i
Ġm Ã¡ch
ĠTh Æ°á»Łng
ph Ã¡p
H i
d ney
Ġä½ķ hÃł
Ġc áº·c
ĠAnd re
ph áº£i
ĠnghÄ© nh
Ġtr á»įt
ĠE X
ey mar
Ġ9 4
ĠM ov
ĠT á»Ļi
ĠY oga
Ġngá»§ i
ĠD Ãłi
Ġnh Æ¡n
Ġs Ã³i
ĠÐ ¾
Ġcat alog
Ġtr iá»ģn
ĠP ep
ĠL Æ°
Ġr ep
ĠÃģ n
ĠÄĳ ay
Ġ30 4
Ġr Ãłnh
Ġd el
ĠSau di
Ġtr Æ°á»£ng
ĠD iÃªn
Ġc Ã¹
to c
C á»¥c
Ġp m
D á»±a
ĠTH ÃĶNG
em a
ĠC Ãłi
Ġs um
Ġ áº¯c
ĠMobi Fone
ĠL ip
Ġp ar
Ġth uyÃªn
ĠT ivi
ĠU B
Ġè ģ
ç ļĦ
d is
ĠC ry
ĠN u
V i
Ġ1 11
E G
Ġcho Ãłng
ĠV KS
1 30
Ġv áº§y
Ġtr áº§u
st on
th á»©c
ĠS A
ÄĲ á»Ļng
Ġv Ã©t
ĠB á»©c
ch ÃŃnh
T o
s tr
ĠM Ã¨o
ĠCh ÃŃn
Ġt áº©u
ĠT ang
ĠPac ific
D r
ĠA ut
ĠA ct
Ġng á»Ńi
ĠD ream
ag a
ib ank
ĠR ad
ĠG Ã¡i
ĠS el
ĠÃ į
ĠK áº¡n
Ġtu á»Ļt
b Ãłn
Ġä¸Ń trung
Ġ á»ī
as c
ov ic
ashi on
ĠV a
ĠP ay
Ġqu áº©n
Ph áº¡m
t iáº¿ng
K ÃŃch
ĠG lobal
as a
ĠK Q
Giá» ¯a
Ġm ui
p i
th Ã¬
Ġ3 65
Nh anh
z y
Ġlu Ã¢
Ġmá» Ľ
D Æ°Æ¡ng
Ġæī Ģ
Ġqu Ã¢y
Ġ one
f ile
ĵ ng
Tr anh
f ield
ĠL Ã´i
ĠM et
v á»ģ
ç¥ ¨
ĠCor p
ĠResid ence
ĠÄĲ Äĥk
ĠBos ch
Ġoff line
ĠAngel es
V Æ°Æ¡ng
Ġo i
Tr áºŃn
Ho áº·c
Ġd áº»
rol ux
Ġn áº·n
ĠR ub
ĠBID V
Ġláº½ o
D áº§u
t ÃŃnh
Ġkho anh
ĠL ab
Ġc Æ°á»¡i
t Ã¬nh
Ġb it
Ġx ui
ĠT U
d f
ĠC uá»ĳn
t or
t Æ°
24 0
Ġx Ã¹
TT P
s ch
T ai
ff et
we en
Ġtr Ã¡m
âĢĭ âĢĭ
B H
ĠR eg
ĠComp lex
ĠVill a
ĠK S
á» ®
A pp
ĠR os
ĠR S
ĠNh Ã¢m
O H
ew s
ĠÄĳÆ°Æ¡ c
em o
ĠC Ã¡o
Ġv Ã²
ĠB uilding
Ġt Ã¬
ĠNh á»±a
ĠW il
z e
Ġvi r
ĠæīĢ sá»Ł
ĠMart in
L inh
ĠS ex
ĠEng lish
ĠKh á»ıe
um a
ĠtuÃ½ p
Ġt Ã£
V n
r am
ĠP ort
s hop
Ġv áº©y
Ġm á»¥
g áº§n
Ġn áºŃp
Ġl ives
ĠÄĲ Ãª
Ġlo ve
ĠZ alo
ĠP en
Ġä¸ī tam
ĠS Æ°Æ¡ng
il et
ï Ģ
Ġh Ã²m
ĠM ah
ath er
ro s
ĠCom m
on line
ĠToshi ba
B ÄĲ
áºł N
n ect
Ð¾ ÑĢ
G hi
Ġx iáº¿t
X VN
Ġ oto
Ġm áº£i
it o
Ġt one
ĠTr Ã¹ng
Ġs áº£y
T Ã²a
Ð ¿
ph en
ĠNg uy
Q uÃ¢n
Ġáº¤ t
Ġå¤§ Äĳáº¡i
Äĳ Ã¡nh
art on
Qu áº£n
ĠTr á»£
Ġ13 5
ĠN á»ĺI
ĠN Ãł
b ar
Ng a
m ade
00 3
GD ÄĲT
M á»Ŀi
ĠM Æ°a
l an
â ŀ
Ġit em
ĠÄĳ áº·ng
d ing
ĠD om
Äĳ iá»ĥm
H á»ıi
ĠT TC
ĠO ai
n al
n Æ°á»Ľc
Ġxo Äĥn
V á»£
ĠX á»©
!! !!
Ä ¨
V P
kh Ã¡ch
Ġt eo
jp g
th áºŃp
Ġhá»ķ i
und er
Ġs am
Ġtr Ã¨o
h Ã´
ĠSy dney
t im
ĠV FF
ĠV Ã©
Ġ uyÃªn
E E
un a
Ġtrá»£ n
ĠS and
á» ¸
Ġph Ã¨n
ĠP age
x u
Ġéģ ĵ
Äĳ á»Ļ
ĠTh Æ°a
ĠU ber
Ġr Ã¹i
ph Ã²ng
>< /
ee k
Tu áº§n
Ġqu áº§ng
ib er
b áº±ng
Ġ áºŃp
d om
Post ed
ĠO S
Ġá»Ĳ c
Ġ18 8
24 3
ĠNgh Ä©
f one
b et
Ġb áº§n
D i
ug in
Ġt iá»ĩt
Ġch á»ķ
ĠS ir
ĠSa f
ĠX H
T á»·
W C
x t
á» Į
Ġgi un
Ì£ .
ĠJ an
B iáº¿t
ç Ķ
ĠNg uyen
Įnh i
Ġs á»¯ng
ĠèĢ Įnhi
ĠL ife
ĠKh áº©u
d an
ch Ã¢n
B á»ĳ
d á»ĭch
iv a
c Ã¡
ĠLe g
ĠL av
Ġá»Ĳ ng
P G
ĠPak istan
Ġv áº¡t
Ġl áº§y
dr agon
Ġr ÃŃt
Ġw e
ar o
Ġd Æ¡
Ġm et
ĠGeor ge
ĠM ÃģY
Ãģ O
Viet nam
ĠBus iness
ĠM á»ħ
s Æ¡n
ĠM ega
S ang
ĠS av
å½© ç¥¨
http s
áº ¸
con t
Ġn at
ĠC áº©n
B áº¿p
Ġtr áº¡ch
Ġtim e
ĠNGH Iá»Ĩ
S hop
ĠF re
? !
T am
Ġth Äĥ
ĠS treet
ĥ ½
Ġco in
Ìĥ ,
t is
B D
ur ity
Ġs Ã²
Ġb ÃŃch
ĠS MS
Ĺ ı
2 20
ĠW on
ĠUN ESCO
Â ¯
ĠH aw
ĠX ung
gr am
Ġng á»«
ĠRom a
ĠH H
ĠCÃģ C
ĠCo un
ĠC á»ı
t Ã¹y
ĠT á»ģ
å Ľ
ĠO ld
ĠW at
ĠU RL
Ġc ol
ĠCon tin
et s
Ġnh áº§y
Th á»ĥ
ĠV ene
w o
Ġ19 89
P hi
u ter
Ġy á»ĥ
ĠGu ard
Ġ2 30
os h
Ġkh eo
ĠG od
Ĥ N
Ġl áº«m
Ġå ·
ĠC ang
Ġg á»ıi
ĠPS G
Ġdu á»Ĺi
Ġs Æ°a
ĠComment s
g á»įi
ĠN eymar
ĠcÃ¡ u
Ġng uyá»ģn
L E
d á»±
ĠB BC
ĠCá»¥ m
. (
ĠNh Ãłn
Ġa v
Ġè Ń
ĠPh áº¥n
l ÃŃt
Ġt ennis
ĠH un
ĠÐ º
id o
ĠV ig
re g
al axy
ĠW C
ĠR au
I K
Ġnh á»ĳt
Ġz in
ill er
est ival
c os
Ġng Ã³ng
ph Æ°Æ¡ng
ĠS ung
ĠkÃ© n
Ġx á»ĭn
Ch Ã¢n
c ap
M a
âĢĿ -
ĠhÆ°Æ¡ u
Ġè Ļ
Ġ19 88
Ġtu Ã´
is ter
M ang
ps on
if y
ĠT áºŃn
ur t
ĠDi amond
ĠLa zada
Ġo p
ĠT ime
d am
ĠQu áº¡t
Ġtruy Ãª
ap ter
le d
ĠB at
ĠSE A
c al
ĠL Ã£
V A
sp an
ul a
ĠHuy nh
ĠD A
v is
ĠF un
Ġn e
su zu
ĠCh iáº¿u
S er
ĠS áº¢N
ĠTr á»Ł
ĠUy á»ĥn
, .
Ġl ip
ĠPet er
Ġnh á»ĩn
te ur
Ġvá»¥ ng
Ġqu Ã¢
ĠP DF
ãģ Ħ
ĠVin com
Ġs áº«m
ĠS qu
al k
12 3
ĠM Ã¡i
ic Ã´
ĠBer lin
Ġph oto
ĠtÃŃ a
ĠGi use
Ãģ C
ĠTo wn
ĠR ap
U n
Ġs á»ĵi
23 4
Ġnh áºµn
ĠBe ach
ĠL Ãłnh
Ġgl uc
Ġh it
S áº½
ĠR á»«ng
1 88
Ġtá»§ i
Ġng Ã¹ng
å ¹
Ġhu á»³nh
ĠR et
24 7
ĠP L
ĠB á»Ńu
Æł N
ĠU E
N K
-- -
g á»ĵm
ch á»©c
Ġnil on
ĠH U
Ġp ixel
Ġch á»¯ng
G M
qu á»ĳc
ĠTr áº§m
Ġtráº» o
ĠS anh
ĠTh á»ıa
ĠM Ã¢y
Ġm á»ĭ
Ġo xi
Ġ09 6
ĠB ack
ĠÄĲ am
3 20
ĠNh Ã£n
Ñģ Ðº
rid ay
Ġ á»ķi
c ept
un ce
ĠS uy
Ġch áº¯p
Ġx Ã²e
ĠCH ÃįNH
amil k
ĠS aint
Ġ id
ĠO K
Ġs edan
ĠÄĲ Ã¢u
ĠV Ãłi
d Ã¢n
ĠMus ic
ĠA gr
Ġ09 8
ĠPh Ã¡o
ĠC ast
ĠÄ ĥ
âĢ¦ ).
ĠPal ace
v áº¥n
Ġtr ans
ĠCh Äĥn
Ġph one
æ ĸ
ĠCas io
s trong
ĠT iáº¿u
ĠG PS
Ġ! !!
Ġâ ĪĴ
Ġ19 54
O D
ĠQu Ãª
ĠHar v
Ġt ÃŃt
ĠY u
ff e
Ġ7 20
Ġm áº©u
áº¤ N
ĠSt art
Gi ai
Ġ5 000
ĠDig ital
ĠB ern
Ġr Æ¡
ĠÄĲ áº¥y
R a
ĠKh ac
Ġ á»ıi
ent ine
Ġd áº¿
Ġm á»ĵng
Ġc áº¥n
ĠK ore
Ġnh Ã¡m
4 50
H oÃłn
ĠD áº¥u
Ġr Ã¢m
ĠT TT
Th Ã¢n
ĠÄĳá»Ŀ m
Ġs á»Ļ
ia g
is m
ĠT er
ĠTo uch
Ġn áº¯n
L á»Ľp
ĠPhan x
á»ľ I
Qu áº§n
n Äĥng
ĠV á»ı
Ħ ¢
ing er
ĠS k
B áº¡ch
Ġ19 68
let ico
s ao
ĠT Ã¡
[ /
ph Ã¢n
ĠViet in
ĠPhil ips
ĠN ext
Ġl Ãºn
Ġu áº©n
Ġhá» ħ
ĠTh Ãºc
c ung
Ġch á»ķi
ĠG HP
Ġo áº£i
L á»£i
ĠNgh á»ģ
gi ai
ob s
ĠTe am
200 2
man n
Ġnh eo
H LV
ĠW all
n Ã³i
ĠI OS
Ġhy dro
Ng Ãłnh
B erry
Ġ Ãºng
ĠT ar
TM L
f ace
ĠNg á»¥y
ĠHo st
g ame
ĠPi ece
V Å©
Ġl ick
Ġ12 3
ĠI suzu
ĠÄĳ ong
ĠD áºŃt
Ġx á»Ļn
ĠCont rol
ĠÃļ t
Ġs amsung
Ġje an
N S
ĠHá»į a
ĠN áº¯m
ĠT est
ĠFl ash
m it
ĠN on
Ġblog ger
ĠCh uyáº¿n
S á»ķ
Ġ }
Ġr áº©y
Ġf e
v ic
l ott
" >
ĠP U
Ġch áº¯t
ĠÐ ´
Ġâľ ħ
B l
ĠSnap dragon
ĠTh áº±ng
ĠÄĲ oan
Ġm Ãºi
Ġch Ã²m
Įnh á»ĭ
Ġs ua
ĠL áº§u
ĠT ak
Ġgr am
T á»īnh
ĠnhÃŃ u
Ġm ap
ĠJ apan
ĠJ in
nb sp
ĠA BC
____ ____
Ġb on
Ġngh Ãłnh
ĠLu c
Ð ±
an ia
Ġ10 2
p ol
24 4
Ġ12 00
Ġ Ã³ng
Ġch Ãłi
ĠB á»ı
Ġje ans
ĠT Ãło
gh an
L á»±a
Ġ15 00
n ow
re y
Ðµ ÑĤ
ĠE S
ĠCh iÃªm
Ġnu oc
ĠCh im
Ġå ĸ
Ġb lu
ĠA z
u ay
V áº«n
ĠM id
a a
or ies
T op
Ġb ass
Ġsil icon
Ġch áº£nh
ĠJ ung
ĠLo g
ĠÄĲ Iá»ĨN
ĠR eview
Ġg á»Ľm
ĠV ÄĤN
Ġf ont
em y
Ġxá»ī u
um e
12 5
ĠSG K
" )
Ġt Ã½
Ġå ĩ
ĠK ÄĲT
r áº¥t
Y ou
Ġ19 82
P V
ĠSy stem
Ġm em
ĠA h
Ġdo wn
Ġåį ģ
Ġ Ã¡t
Ġl iÃªm
es us
Ġ10 3
ĠC el
Ġn au
ĠT á»ī
Ġhá» ī
Ġthá» ıi
ÃĴ NG
ĠH áº¿t
Ġæ ĥ
ĠC y
ĠJe an
Ġ6 50
Ġd á»Ļt
Ġnh Ãºn
enc y
w an
Ġth áº¹n
ĠðŁ ĺ
Ġom ega
ĠNh Ã¬
gi Ã¡o
w ell
ĠTr ai
ĠW ater
Ġb áº§m
Ġbik ini
á»ģ nh
ĠTH á»Ĭ
Ġ19 86
L and
Ġäº Įnhá»ĭ
D a
ÄĲ Ãłn
k á»ĥ
ect or
ĠT á»¥c
ĠX á»ķ
ĠH Æ¡i
ĠÄĳ Ãły
ox y
V iá»ĩn
ĠM ont
ĠS martphone
S p
Ġd am
ĠC áº¯t
ĠA ward
ĠNh á»ı
o ot
Ù Ĩ
ĠÄĲ Ã³ng
Ġl iÃªu
Ġim plant
s hi
ĠV áº£i
T á»Ń
Ĭ thÆ°á»£ng
ap ixel
Nh áº¡c
ĠC ream
ĠÄĳá» Ĺi
lo áº¡i
Ġxá»ī n
ĠçĽ ¸
al th
ĠP ass
ĠbÆ°á»Ľ u
ĠY ahoo
ĠPh one
gi áº£m
ĠD ie
ĠH Ã´n
Ġl áº¹
ĠC á»«
ĠR ev
Ġt áº¡t
ĠQ H
elf ie
Gi áº£m
ĠE th
Ġm ar
ĠEle ct
¡ n
Ġr á»įi
Ġv Å©ng
7 50
Ġpl us
ĠG ym
Ġpro tect
Ġv áº¯n
ĠArch ives
Ġg Ã¡n
Ġ2 10
ĠClin ton
Ġæ Ģ
ĠF er
v es
V T
Ġho ay
ĠK an
ĠAl pha
Ġblock chain
ĠC áº·p
b á»ĭ
ĠChr is
com m
Ch á»©ng
ĠÄĲá» Ĭ
ĠQu ay
Ð¾Ð »
Ġd is
L oa
Ġ Ï
T áº£i
Ġ es
ĠGHP GVN
= >
ĠAS IA
Ġtr Ã¢
ĠS N
Kho a
Ġt áº¥c
ĠV lad
Ġv ar
k áº¿t
giá» Ľi
Th ÃŃch
ĠR od
s áº£n
az z
Ġâ ĸ
Ġngo áº·t
ĠTP P
Ġup date
Ð° ÑĤ
å Ī
ĠB ud
ĠB ec
N ET
Ġsh ort
ĠH C
Û Į
Th Ã¡nh
ub lic
ĠM Ã³ng
Ġáº¤ y
Ġlu á»ĵn
Tr iá»ĥn
th am
Ġgi Ã¢
Ġtr Ã²ng
ph o
H á»£p
K iá»ĥu
S á»©c
Ġtr Ãłm
Ġnh Äĥ
Tr uyá»ģn
ĠKh Ã³
Ġæĺ İ
Ġngo Ã£n
Ġng ao
ĠS Ã³ng
ĠN XB
ĠV Ãłnh
ro ss
Ġbá»Ļ n
â Ŀ
ich i
d es
ngh Ä©a
Ġm á»ĭt
ĠM á»ĳi
19 45
Ġd on
á»ı m
ĠK m
ĠJ ac
ÄĲ Ã¡p
Ġd áº¡t
ĠPle iku
Ġs un
Ġhá»Ŀ n
ĠcÆ¡ ng
Ġch Ãłm
Ġb Ãłnh
Ġkhá»ı a
Ġla zada
ĠGi rl
ĠX K
ĠPas teur
ĠÄĲ Ã¡m
Nh u
ĠD aily
ĠAt letico
ĠC ÄĲT
R A
î Ģ
is o
d on
Ġn áº¡t
ĠSak ura
g u
ĠT on
Ġins ulin
ĠQU á»ĲC
Ġtu Ã´n
ĠHo m
Äĳ áº¥t
L áºŃp
ĠH appy
gi ao
g ar
ut ion
R S
Ġ/ >
Ġt áº±m
ĠTM CP
Ġ19 0
ghan istan
V áºŃn
ch ung
Ġ5 50
ĠB it
at us
ĠB á»ģ
Ġthi et
ĠKh á»ķ
Tr iá»ĩu
x ÃŃt
et er
Ġ uyá»ĥn
ĠâĢĺ âĢĻ
ĠÄĳÃ³ a
ra h
ĠB á»ĥ
ur i
ĠGu itar
Ġc arton
ĠM ak
th á»©
Ġto ilet
ir m
ra ft
H á»ĵng
ac c
ĠCap ital
Ġto áº¡
Ġx iÃªn
omb ia
Ð½ Ñĭ
r is
Ġ Ã¹
ĠThom as
T Ã´
H iá»ĩp
ĠN an
wit ch
ĠPh Ã¡i
Ġstart up
ĠP A
Ġm Ã¬n
ur es
á»Ĳ I
ĠForm osa
ĠCH Ãļ
ph á»¥
Ġnh áº£
T áº¡o
ĠT L
Ġm ain
Ġr Ã¹ng
ĠEle c
C á»ĳ
Ġth uy
ĠNg á»Ļ
ĠNg á»ĵi
ĠïĢ ¨
Ġká»ģ nh
Ġ19 87
Ġsal ad
200 1
al s
att le
ĠChr ome
ien ce
Ġqu Äĥng
r ing
Ġm áºŃn
Ġs uyá»ħn
Ġåį ³
ch iáº¿n
al and
ĠÃ ±
Ġp ol
ĠUl tra
ĠCl ip
ĠY ang
Ġp age
ĠS SD
ĠTH ÃĢNH
á» Ĵ
ĠT s
ut s
Ġng uyá»ħn
Ġd áº¥y
Gh áº¿
ÄĤ M
Ġd áº±n
Ġ ec
Æ¯ T
â Ĥ«
ĠM á»±c
C Ãł
ĠSant a
ud a
ĠCar l
Iá» ĢN
re ak
Ġåį³ tá»©c
C an
ph Æ°á»Ŀng
Äĳ Äĥng
ov e
Iá» Ģ
v ietnam
á»Ŀ ng
Ġthá» Ľt
Ġcu p
Ġâ Ļ
ĠNet work
ĠS uá»ĳt
Ġnh áº½
Ġbu Ã´
ĠB est
Ġthá» «ng
ĠS acom
Ġnh á»©t
T á»Ľi
ĠJ enn
ĠM anh
ĠVill as
co unt
Kh áº£
Ġcon dotel
Iáº¾ T
Ġx ÃŃt
itt le
ar oo
ĠGI A
ĠDub ai
ĠGiá» ıi
p op
ĠH ack
I O
ĠBeau ty
ĠD em
ĠBlack Berry
ar s
ell er
v al
Ġn Ãł
t ain
Ġæĺİ minh
P E
it le
ÄĲ au
Nh a
ĠD j
ĠKh mer
Ġg Ãºt
ĠC L
it or
ank s
Ġnh Ã¢m
ĠG iÃªng
Ġh ave
ĠM Ä©
ĠC Ãĵ
ĠPhanx icÃ´
ill s
b ay
P M
Ġcr ack
ĠB aby
ĠAf ghanistan
ĠC ost
Ġr áº±m
áºł O
ur s
Ġsc andal
ĠNH áº¤T
en se
ĠçŁ ¥
Ġå ¹
M ong
ĠF A
Ġ11 6
lo ween
ĠN iá»ģm
Th áº§n
th ay
Ġd Ä©a
ĠW atch
qu Ã¡
ĠÃį ch
ĠNg u
Th áº»
ĠHD V
ir l
ĠN Ãª
Ġdi esel
Ġest rogen
ĠB TS
99 0
ĠS INH
b es
H áº¡
ĠTh Ã¡c
ber ry
Äĳ á»ĭnh
Ġev ent
ĠDo Ã£n
ho st
ĠL á»Ĺ
an in
ĠCh Ãłm
Ġ Ø§
ĠS ev
Ġin ter
ĠG M
l inh
Ġd Ã£i
ĠJ esus
Ġn ail
iv o
Ġlo ay
ĠG Æ°Æ¡ng
ĠD ata
Ġx Æ°
ĠH Q
Ãģ nh
BS CL
m á»Ĺi
2 88
ĠÄĳ Ã¹ng
Ġs Ã¡m
Ġkh Æ¡ng
k va
ĠJ ae
w atch
Tr á»Ŀi
im ir
D V
Ġd á»ĥ
Ġm ic
Ġch Æ¡
Ġl Ã¹n
ĠR en
ĠBB Q
ĠIn s
ber t
Ġch ang
T á»«ng
Ġ19 79
ph u
18 0
ĠAn t
Ġä¸ ĬthÆ°á»£ng
Ġ art
Ġb áºŃy
Ġgiá» Ĺ
n Ãªn
Ġdu ong
o z
t ay
t áºŃp
æľ Ł
Ġho áº£
ĠL exus
ĠT ele
ib aba
ĠSt and
ÌĢ .
l á»£i
en ing
Ġo pt
oc us
ĠPHÃģ T
S á»ĳng
t á»ķ
ar is
ĠV áº·t
l anh
ĠM s
áº¨ M
e z
Ġk Ã¨n
ĠC ook
Ġt áº¥y
S Ãłn
ĠÄĲH QG
ĠNg á»±
Ġç ¾
Ġd iá»ģu
ĠDis ney
ĠTh Ã¹ng
Ġ09 38
ĠN m
amil y
k u
Ġv on
ĠÄĲá» ¨
ĠD L
ĠB or
ĠIr eland
ĠKh Ã¡ng
Ġma x
ĠC er
ĠM áº¥t
Ġm áº¥u
ĠRich ard
ĠIs land
Ġ19 72
ĠB ÃģN
ĠTr Ãłm
Ġ20 21
et e
Ġph Ãło
iz za
Ġèĩ ª
est ay
h á»£p
Th ÃŃ
in al
ĠSt an
ic le
ĠNgh á»ī
Ġæĸ ¼
Ġv áº©n
T á»ĳt
v est
ph an
ï¿½ï¿½ ï¿½ï¿½
ĠB ia
ĠVin amilk
ĠL ive
o us
Ġ19 85
Ġvi s
ĠTech n
ĠX Æ°á»Łng
ÃĤ m
aul t
g round
bour ne
Ġmi en
H iá»ĥu
ĠI Q
ĠG Iá»
ĠF ile
Ġ09 3
Ġng Ã¡t
C ity
Ġm Æ°Æ¡ng
ĠMun ich
S H
Ġs k
B Ã©
ĠTR Æ¯á»ľNG
ĠH CV
ĠCh ang
Ġngh iáº¿n
ĠC ong
ĠT áº·c
f acebook
ĠS et
S O
re ct
ĠCol ombia
Ġng áºŃy
ĠN ATO
ĠD Ãłnh
ĠN Æ°Æ¡ng
ie p
ĠK araoke
Ġn áº¡c
ĠEd ge
ĠS kin
ĠM iáº¿u
Iá» ĦN
Ġdr iver
å ¥
ĠCS ÄĲT
M obile
C A
D áº¡
Ġnh áº±n
V Ã´
ĠG áº¡o
ĠN T
ĠÃĶ i
ÃĢ Y
Ġæĸ¼ Æ°
Ġn áº»o
ĠL O
ĠNg uyÃª
ĠB KS
Ġph á»ĵn
Ġhack er
Ġthu i
Ġsu Ã´ng
ĠV e
i que
ÄĲT B
ĠL AN
ist on
Ġkh Äĥng
Ġ11 2
Th áºŃm
k ey
Ġä ¿
ĠK u
Ãģ p
Ng á»įc
Ġch uá»ĳt
Ġm Ah
b Ãªn
t uy
áº¾ N
ĠdÃ¬ u
C K
el ly
Ġvi en
b á»ĩnh
ĠElect rolux
Ġg á»Ļp
ĠS Ã©c
Ġdi ch
s ky
ĠO h
Ġb eta
ĠL á»Ĺi
ĠçŁ¥ tri
Ġ á»ķng
ot hi
ĠSo ft
il y
Tr á»±c
Ġåįģ tháºŃp
Ġ20 25
22 6
Ġph áº£
S E
Ġr áº§y
Ġc uá»ĳc
Ġr Ã¬
ĠA U
ĠH A
il es
Ġnhu áº§n
R I
ãĥ ¼
ĠH K
ĠCh áº¡y
Ġå ķ
Ġb á»¡
Ãĵ A
ĠÄĲ áºłI
v ideo
Ġl áº©n
Ġhuy Ãª
ĠNg uyá»ĩn
B á»ĵ
ĠM ap
Ng oáº¡i
¥nh Æ°á»£c
ĠP E
ĠLÄĲ LÄĲ
ï ģ
Ġp re
M ar
Ġc Ã¹i
ĠCM ND
Ġv áº¡
Ġcho col
ĠD ur
ĠAmer ican
oc irc
Ġst udio
A m
c á»©
Ġ19 50
Ñ Ĩ
ĠPhÃª rÃ´
F I
U P
ĠV á»¹
Äĳ áº¿n
b Ãłi
Ġl Æ°Æ¡n
Ġr ock
á»£ m
ĠNg áº¡n
Ġlá» µ
Ġp allet
Ð¸ Ð
ĠÄĳ Ãºt
ĠNob el
) (
ĠV áº»
ĠJ am
Ġç Ļ
ĠB á»Ŀ
ĠY áº¿u
Ġkh áº¿
V iÃªn
Ġ order
Ġw orld
Ġs mart
yl on
c Ã¢y
å ľ
æ ĺ
b ia
2 30
ĠOs car
s á»ĳng
O n
ĠX IV
Ġbu á»ĵm
Ġèĩª tá»±
ng hi
Ch Ãºa
ĠASIA D
Ù Ī
ai s
C á»Ļng
ÄĲ á»©ng
Ġph at
Ð¾Ð ¼
ĠG er
ĠV Ã¢ng
Tr Æ°á»Łng
ĠTh Ã´n
Ġw ill
Ġh Ã³t
Th Æ°á»£ng
ĠColle ge
el ine
Ġkh áº£i
ĠL ot
t áº¯c
ĠD en
F or
C áºŃp
ĠSer ie
ul d
Ġn áº¥c
c are
ĠCA O
á»ģ m
ĠB lo
Ġkh Äĥ
3 65
Ġh áº¥t
ur al
T á»Ŀ
ĠGi áº£n
Ġ ì
h Ãłnh
Ġm otor
ĠN Ã´m
Tr Ãł
: "
ĠC á»ĳng
ĠM iÃªn
ch iáº¿m
ĠÄĲá»ĺ NG
X u
ĠDan iel
ĠDu áº©n
ĠB Ãºt
ĠV GA
ĠS áº§m
6 50
ĠD Æ°á»Ŀng
H a
Ġdo m
ĠB Ãºp
ol s
Ġsp am
t ed
Ġè §
om an
ĠL ÃĿ
Ð° Ð»
h Æ°á»Ľng
ĠX U
im ex
as k
ĠSh e
5 50
Ġl ive
2 10
B P
on ic
L INE
ĠM ail
G I
á»¤ NG
uy nh
S Ã¡ch
ĠD am
ĠL A
ĠÄĳÃ´ la
ng oáº¡i
ĠBr id
ch Æ°
Ġtiáº¿ u
Ġbu t
Ñ Ī
Ġr eg
Ġco ver
Ġv Ãºt
Ġc Ã¢m
y me
Ġb Ã¹a
d ung
ĠNGHIá»Ĩ P
ĠT Ã³m
ĠWilli am
ĠT axi
ĠHá»ĺ I
Ġth it
Ġm uá»ĳng
Ġm Æ°á»Ľp
ĠU td
ĠL á»ĵng
Ġchi en
Ġh Ã©o
b iá»ĩt
ĠD á»°
L O
n Ã³ng
Ġm áºŃu
ĠV IN
as p
Ġèĭ ¥nhÆ°á»£c
G b
ain a
Ch á»©c
Ġéģĵ Äĳáº¡o
å ¿
ĠD ar
app hire
ch uyá»ĩn
s ai
Ġ09 09
ĠHung ary
Ġd t
ar u
\ "
Ġt itan
Ð¾Ð ´
om o
Ù ħ
Ġbá»ĭ nh
Ġsal on
ĠÄĲ K
Ġvá» «ng
ac era
ĠChar les
ĠTr Ã¡c
ion al
ĠS áº¯p
ĠC ent
S a
v ed
ĠTh oa
it es
ĠdÃ¹ m
c ore
ĠN O
Ġs á»Łi
Ġm Æ°á»Ľn
iá»ĥ ng
st al
evel op
Äĳ á»Ļc
C uá»ĳn
H A
G V
Ðµ Ð»
â Ĩ
ĠJ ord
Ġchocol ate
Ġup load
ĠT Ãºc
Ġy Ãª
Ġcatalog ue
ec irc
ĠTr Ã¡ch
Ġg áº£
ĠVi os
ĠN TM
ing fa
ĠQua l
U á»ĳng
Ġau to
ĠL Æ°á»£t
Ġç ©
Ġm Ãºc
it z
Ġnh ÃŃch
Ġng Ã¹i
word s
Æ Ĵ
orn ing
eg as
Æ¯á»¢ NG
ĠHo us
ĠA ug
ig o
kh Ã³a
el d
ĠN ag
S Æ°
Ġgi áº±ng
ĠÄĲ áº¦U
ĠCh á»Ĺ
n á»¯
ĠI CO
Ġ10 4
Ġkáº» o
m Ah
ÃĶ I
ĠSt ud
zu ela
ĠR ay
d d
C E
th á»ĥ
ai t
ç ī
ĠC áº¥m
ĠTr ao
ĠCon an
ff ic
$ -
ĠVlad imir
ĠM I
ĠT á»Ļc
ĠF estival
h á»Ļi
ĠÃ ī
c áº§n
ĠR ai
Ġvá»¥ t
Ġnh áºŃm
ĠA th
x á»©
ĠC F
Ġph á»Ļng
ĠH on
ĠTh á»īnh
á» ¦y
ĠE v
B á»©c
ight s
m und
d ar
66 6
R C
Ġthá» ī
o is
ĠLux ury
Ġt ext
Ch Ãłng
ÄĲ áº¹p
ĠB á»ķn
ĠTH Ãģ
V TC
ch uyÃªn
Ġnho Ã¡ng
Ġç Ń
ĠOm ega
Ġd iá»ħu
? ".
ĠN LÄĲ
Ġå± ±
Ġmang a
M ai
ĠB Æ¡m
ĠD á»ĭ
ul f
tr Ã¡i
ĠAgr ibank
Ġm áº¡t
Ã Ĩ
Ġb r
t Æ°á»Ľng
ĠL ien
Ġco ok
Ġáº¨ m
ä ½
áº ª
ĠÄĲá» ĴNG
U T
Ġch á»ĵn
Ġchu Ã¢
V I
N inh
T áº¿t
ĠÄĲ BSCL
s y
Ġw hi
ĠThu áº§n
ĠC X
b áº¯t
ĠPal m
ĠTR UNG
Ġ( +
Ġn á»±c
ĠH TML
Ġngh Ã©n
Ġbá»ģ nh
c áº£m
Ġ ãĢ
' t
Ġt on
Ġ10 7
c áº£
Ġæ³ķ phÃ¡p
ĠSte ve
ho Ãłn
un er
v iÃªn
p m
Ġng Ã³t
ÄĲ á»ĭnh
AT A
Viet Q
ĠL otte
Ġng Æ°á»£ng
ĠW TO
al ign
ĠLum ia
Ġ: :
ĠV ista
Ġnam e
Ñ İ
ĠNgh iá»ĩm
ĠV á»¤
Ġ2 80
Ġh á»Ļc
sp ot
Ġd Äĥm
Ġn om
ĠÄĲ á»Ļt
ĠM ek
ĠGi Ãł
w on
ĠC á»ĳt
ĠT ÃĤM
Ġblu etooth
ĠIm plant
ĠB á»ĵn
ĠX P
ak h
Ġgi Ãª
Ġs ing
kh ai
ĠQ atar
ĠAT GT
ĠÄĲ iÃª
17 17
ĠR oll
UYá» ĤN
ĠVill age
ĠPr in
ĠV Æ°á»£t
ĠRed mi
Ġn okia
ÃĻ NG
au s
H iá»ĩu
Ġz alo
Ġé º
Ġáº¨ n
Iá»Ģ U
L ED
ĠA CB
Ġbá»ĭ ch
Ġtá»ĳ p
Ng Æ°á»£c
Ġp op
ÄĲ oáº¡n
n ik
E IC
å į
G a
Ġnh á»įt
Ġd Ã£n
it i
ĠP iano
": "
ĠÄĳá»į a
z one
Ġ10 6
Ġra dio
Ġ amp
L á»±c
kh áº£
áº¢ NG
ĠH Æ°
L áº¯p
ĠHan oi
r c
Ġ/ /
ĠPh iáº¿u
ĠF err
ĠNor th
Ġthu e
Ġng á»£p
G H
ĠM ass
l Ãªn
Ġb Ã¡ng
ch uyá»ĥn
áº¤ n
R Ãµ
ĠB ut
ig r
Ġng Æ°á»Ľc
µ ·
ĠV S
H ot
au x
Ġ áº¿
th áºŃt
ĠP or
Ġ2 60
Ġkho Ã©t
duc t
ÄĲ áº£ng
b iáº¿n
L Æ°á»£t
ĠEx pl
ĠN uÃ´i
c á»Ńa
? âĢĿ,
Ġd áº³ng
D Ã¢y
Æ¯á»ľ I
ĠHo ld
ĠÄĲá»¨ C
Ġph á»ī
st an
Ġtu áº¥n
Ð¸ ÑĤ
od a
ĠG ood
b at
c áºŃu
14 0
v ar
Ġl áº¡t
ĠTM ÄĲT
f ect
Ġd á»ĳt
uc t
Ġtr Ã´
á»± ng
Ġj ava
10 5
N LÄĲ
Ġv ersion
ĠChi le
Lu Ã´n
Ġv áº¿
Ġl ich
å Ń
ĠN C
ĠD ev
ĠC ab
c uá»Ļc
§ t
ĠL Å©
b u
ĠX ÃŃ
Ġw ork
ĠO N
Ġx áº©y
ĠM ix
ĠB all
Ġph Ãł
ĠT CT
ĠK at
Ġan ime
Ġp oster
Ġ áº£i
Ġtop ic
ĠFranc isco
Ġl uá»ĳng
âĢľ .
ĠI M
Ġ11 3
ĠAir ways
ĠK á»ĩ
ÃĤ U
id th
ĠH um
B iá»ĩt
Ġt en
Ġv Ã£i
v ers
00 1
** *
Ġè« ¸
ĠAn ton
ĠK Ãª
Ġl á»ĳt
ĠXS MB
ĠL á»Ńa
ĠNh Ã¢
ĠMel bourne
ĠM INH
Ġr á»§a
Ġr á»£n
Ġä¸ ĭ
ĠT iá»ĩp
Ġ organ
ĠPal est
ĠV T
Ġkh áº¥n
ĠF ood
H áºŃu
V á»ĳn
ĠN á»Ĺi
Ex press
23 6
ĠX Ãºc
Ġg á»Ŀ
ĠO x
Ġs y
l Ã½
ĠE p
ĠCh ic
Ġng áº£i
ĠPH áº¦N
ĥ §
ĠCh áº¿t
Ġg Æ°á»£ng
ĠTr u
h r
ĠM ot
Ġm iá»ĩn
ĠT Ãª
art ment
ĠB á»ĵi
Ġl áº¡ng
ĠThu á»Ļc
Ġè«¸ chÆ°
s us
ĠT Ã´m
ĠLÃĢ M
ĠM á»Ĺ
Ġqu áº·ng
ĠVene zuela
Ġr á»ĵ
ĠD ang
ĠNar uto
ĠV L
ĠL as
ĠX Æ°a
ed y
Ġnh Ãµm
ĠT A
Ġ á»£
qu áº£
ĠÃ Ģ
ĠEm p
or o
à ®
ĠB ÃģO
ĠNg Ãµ
ĠD á»¯
Ġc áº±n
ĠB á»Ļi
ĠM Ã¡u
ĠB á»¯a
ng Ã´n
ĠkÃ¬ a
Ġdo áº¡
f s
ĠCr ist
Ġx Ã³c
ent s
ĠT ÃŃ
Ġnh am
... âĢĿ
M V
t á»ķng
ĠHo áº±ng
Ġser um
ĠB ob
B enz
Pl us
ĠHy un
ĠKr Ã´ng
ĠD ep
UYá» ĦN
Iá»Ĥ M
ı váº¥n
Ġsc an
ĠÄĳ iá»ĥu
ĠCh á»©
Ġâ ĺ
Ġc Ãłn
ĠD y
t ail
ĠN Ã©
Ġ09 4
ĠchÃ³ p
AS A
Ġl Ã¹a
H Æ°Æ¡ng
T Ãºi
ĠA K
ĠTele com
ĠN K
Ġh ÃŃ
Ø ª
ĠGem ek
Ġl ist
id as
Äĳ á»Ļng
ff ord
ĠL ock
ĠT Ãį
Ġse arch
ĠV II
ig ue
Do wnload
S amsung
Ġpl ugin
Ġco s
l az
L iá»ĩu
å °
Th á»ĳng
v ille
11 9
Ġcá»ĳ m
ĠH á»Ľi
h at
ĠâĢ º
Ġdo i
ĠN ight
ÃĢ O
âĢĿ )
Tr Æ°Æ¡ng
ĠJ im
ĠC Æ¡n
ĠK az
ĠAl ibaba
lo v
c ode
Ġbá»ĭ a
an ol
á» ¢
ĠM oh
Ġso da
ol o
ed a
Ġl Ã³e
ogr aph
c us
Ġs áº¥m
L Ã£o
ĠB ac
ĠPH Ãį
Ġdes ign
V ui
ĠE V
Ġ3 80
ĠSP F
Äĳ Ã¢y
ĠÐ ¼
ib le
ĠD I
Ġg roup
ĠTr á»«
Ġå±± sÆ¡n
S K
ĠX E
º «
ĠHo ang
c ong
Ġch Ã³c
Ġg áº¯p
th Ã¹ng
Ġh igh
un ction
n á»Ļi
Ġcar b
Ġ900 1
Ġr Ã´n
Ġcomp osite
Ġ25 6
Ġä¸ĭ háº¡
ĻĤ thá»Ŀi
Th á»ĭt
Ù Ĭ
B e
Ġth Ã¬nh
m áº·t
ĠÐ¿ ÑĢ
m ang
l Æ°u
Ġgiá» Ł
Ġt áº§u
Ġtá» ģ
X Ã¡c
Ġåħ ¶
Ġ4 000
Ġbu ild
ĠC Ãº
ĠG un
Ġh áº±n
ĠRem ix
ĠPH áº¨M
A IDS
ĠAd min
Ġvá»ĩ t
ĠA DN
ãģ Ĺ
ĠTh uyá»ģn
Ġxu á»ĵng
Ġj ack
ĠS oo
ĠCo ffee
Ġt Ã©p
å¤ §
ĠTD TT
ĠHal loween
Ġç «
Ġb ro
ĠL ion
el en
ch ia
Ã ±
ĠHen ry
Ġ19 74
Ġto m
re al
Ġcá»ĳ p
G oogle
ĠQ ÄĲ
ĠC áº¡nh
Ġå º
Ġr á»Ĺ
Ġ10 9
Th áº©m
â Ħ¢
ĠP VN
t Ãłi
Ġæ Ħ
l iÃªn
ĠHo Ãłnh
Ġ19 84
ĠL ine
Ġch Ã¹ng
ĠN áº¡n
ĠVat ican
Ġthá»¥ t
V Å©ng
ĠTr áº¡ng
Gi Ãºp
ĠTr ade
dis play
m u
v v
L o
Chu áº©n
Ġkh Ã¢m
est a
Ġn áº»
ÄĲ Ãło
nh iÃªn
Ġè¡ Įh
ĠInn ova
ĠS I
ĠV is
ªth uyáº¿t
ĠG ui
ev a
Ġr Ã¬nh
Ġp c
ĠVC K
ĠS ab
Ġs hi
? )
th Æ°Æ¡ng
z en
Ġ ÃŃ
Ġs elfie
r ad
ĠO DA
Kh uyáº¿n
ĠCA ND
+ ,
on in
Ġban ner
ĠP ap
ĠTr á»Ļn
Ġèª ªthuyáº¿t
å ¼
c d
: -
ĠOs aka
Ġv oucher
W in
ĠSil icon
id es
ĠTy pe
T iáº¿t
ĠL oÃłi
ĠD á»¤NG
Ġåħ¶ ká»³
al in
ĠTO EIC
Ġh un
ĠC loud
ĠPhot oshop
Äĳ Æ¡n
âĢ¦âĢ¦âĢ¦âĢ¦âĢ¦âĢ¦âĢ¦âĢ¦ âĢ¦âĢ¦âĢ¦âĢ¦âĢ¦âĢ¦âĢ¦âĢ¦
Nh áº¥t
ĠQu á»³
T ay
ĠM att
Ġm ao
ac y
enc ia
T uyÃªn
Th o
do anh
ast ic
ĠLH Q
Ġh Ã¬
B á»ĳn
ĠKQ XS
al em
ĠHÄĲ XX
Ġqu oc
H áº¡t
âĢĿ ?
m ax
ĠV III
Â ©
ĠVietnam obile
ĠLin ux
ul ar
>> >
Ġl Ãºt
Ġto i
Ġ2 70
V ua
ĠC K
Ġmod ule
c ard
Ġc Ãºt
ĠSc ot
kh á»Łi
tr á»¥
ĠW ay
ĠPH P
ĠÂ ½
ug uay
ĠÄĲ á»ķ
ĠH il
ĠDu á»ĩ
T Ã´n
ĠJord an
Ġs ec
ĠB áº¢O
ĠéĿ ŀ
á» Ī
Ĩl ai
Ġab out
m Ã£
iz en
Ġåķ ıváº¥n
ĠN ÄĤM
ĠG áº¡ch
ÄĲ Ãłi
y dr
S ing
ĠK a
Ġ19 76
ĠPalest ine
og ba
Ġä¾ Ĩlai
" ),
Ġx y
Ng Ãłi
Ġå¤© å¤©
2 80
el y
c áº§u
Ġkh Ã¢
Ġ0 24
á»ĩ ch
om en
Ġsá»Ń ng
ĠR un
Ã Ī
ĠÄĳ ÃŃt
r or
Ġè ¬
ĠNh iá»ħm
................................ ................................
Ġtr á»įc
Ġc á»įng
s in
Ġh Äĥm
A E
ĠS to
ĠCh á»Ŀ
ĠEx c
Ġ19 73
t Ã´ng
Ġé Ĥ
z i
ĠB iá»ĩn
t á»·
l ie
ĠÄĳ iáº¿c
ĠP ot
ĠCam ry
ĠT ÄĲ
! .
ĠM á»ĭ
ĠE st
Ð½ Ð¾
ĠH Ãºt
Ø ¯
: âĢĿ
s á»Ń
ĠåĲ į
ĠÄĳ Ãºp
ĠHá» Ĵ
ĠHarv ard
Qu Ã¡n
ĠKh iáº¿t
kh am
gi an
el ess
v áºŃt
lo c
S L
ĠM O
ĠW ork
ĠK aw
ĠB XH
ĠB Ã²
ĠX Ãł
P R
ĠK ai
Ġd ua
ĠAn n
y u
ĠV á»Ģ
ĠFan page
ĠC áº¤P
ĠåŃ Ĳ
brid ge
B YT
Ġ- --
b us
k top
ĠB ÃĮNH
Q U
ĠE s
Ġæ ±
ĠV R
V Ãłi
ĠSH B
Ġx uyáº¿n
Ġp en
Ġ19 83
ĠViet lott
ĠïĢ ©
Ġæ ĭ
áºł NH
ĠSacom bank
Ġ ÑĢ
ĠéĿŀ phi
Ġkhu á»·
s ki
Ġqu áºŃy
Ġr am
ĠX D
M y
Ġnh á»¡
ĠMek ong
Ġp an
ĠT áº¯c
ĠNh at
Ġd áº«m
Ġs iÃªng
for um
Tr Ã¬nh
P re
Ġc Äĥ
Ġæ ĻĤthá»Ŀi
g g
ĠK Ã¬
ĠTp HCM
ere um
c ua
ĠCo in
ĠJ er
Kh á»Łi
ĠX ÃŃch
Ġr Æ°á»Ŀm
ĠVal entine
Ġn iÃª
N ew
t iÃªu
ir on
c es
ĠHD D
F ast
Äĳ á»ĵ
ĠT á»Ľ
ĠC all
Ġch áº¥u
V Ã¢ng
ors che
G Hz
Ġo anh
ĠOr gan
ĠTN CS
pp er
ĠTh Æ¡m
Ġé Ļ
ĠS in
Ġ11 8
O X
B iá»ĥu
Ì Ľ
ĠH inh
Ġi pad
ĠCost a
Ġph á»Ľt
Ãĥ ÆĴ
ĠC IA
ĠM áº¡t
Ġbu ffet
Ġth áº«m
at ic
ĠPh Ãºt
T Ãłu
ÃĢ NG
Ġb at
2 60
e i
Ġback link
Ġh Äĥ
col a
ĠPH Ãļ
ĠV es
Ġth áº¡nh
Ġcu áº£
v ui
C ar
ÃĶ N
Ġlog istics
or er
ou ter
ug h
Ġ13 6
" ]
h á»ĩ
ĠM ike
ĠH or
M o
c y
Ġ24 7
ĠD iÃªm
ĠCas ino
Ġg anh
th áº¥t
F L
Ġh as
laz ada
ĠPh áº«u
ĠNh Æ°á»£ng
ĠSqu are
ĠShow room
C ÃĶNG
v Ãło
Ġ19 78
ĠB h
nh iá»ģu
Ġ ass
b Ã¡o
Ġd er
o unce
Ġ á»ĳi
ĠåĲį danh
Ġs in
Ġr áºŃn
ĠH ino
ĠP K
Ġd iá»ħm
Ġb Æ°Æ¡
ĠL ev
Ġhá» Ń
m áº¹
ĠSp ec
g ov
ĠContin ue
um ber
Ġv al
h Æ¡n
Ġnh á»£t
Ġs kin
ĠC Æ¡m
ia t
Ġr Ã¡ng
ĠTh á»Ŀ
Ġb oy
Ġ09 17
ĠGi Ã¢y
ub le
Ġgi Äĥng
L Ã¡
B NN
ĠFlor ida
78 9
Ð° ÑĢ
oster one
Ġâ ī
Ġai r
Ġnh ac
Ġ09 02
ĠVKS ND
ĠR ose
Ġv áº¹o
E NT
Ġth read
ĠÄĲ áº©y
ĠB oy
ĠEd ition
ĠÄĲ Æ°
ĠG Hz
Ġn á»¡
á»Ĳ NG
ĠL td
to ur
n c
v u
Ġngá»¥ m
v ious
ĠF ox
ĠG á»ĵm
Ġå Ĭ
P I
S oi
ĠE pson
ĠvÃ© n
L áº¡y
ĠL á»įc
17 0
Ġb ac
Ġlá» ıi
and y
w i
ĠO xy
ĠP oint
26 4
Äĳ áº³ng
ĠmÃ´ t
ĠAt l
Ġè ı
Ġgi Ã¹m
ĠB á»ĺ
ĠTh ung
¿ t
ĠGi Ãłu
12 8
k Ã½
ĠTh S
Äĳ oáº¡n
ĠNh iáº¿p
F O
Ġkhuá»· u
Ġr áº§u
Nh á»Ľ
ĠX o
ĠKhu Ã´n
Ġu áº¿
s ize
ĠVir gin
im g
ĠG Æ°Æ¡m
ĠNov aland
b ach
t an
Ġ? ??
Ġr ec
ĠM Ã¢n
k bps
Ġkh Ã©t
ĠTC VN
= '
Ġli u
tr ÃŃ
Ġd áº¥m
B B
Ġr á»Ļp
ĠTR ONG
Ġ17 5
if er
w rit
us tr
ard o
Ġ? ?
B GDÄĲT
Ġg out
ĠNH ÃĤN
ĠÄĲ á»ķng
ĠG Ã£
ĠNh áº¥n
ĠI X
" ...
Ġenz yme
áº¸ P
ĠC are
ĠD áº«u
ĠUr uguay
ĠB A
X uÃ¢n
Ġl áº³ng
Ġ ÑĤ
Ġwin dows
ĠÄĲ Ã¡n
ĠC ode
ĠKh Ã¡i
ĠN inja
ĥ§ TÄĥng
ĠTr á»¯
V inh
Ġgi Ã´ng
TN MT
ĠP ogba
Ġtrá»« u
Ġch áº»
ĠArab ia
ĠQu ÃŃ
Ch uyáº¿n
ĠL eo
Ġhand made
ĠSh are
ĠCh ip
Ġæ ·
ĠV ar
Ġvir ut
c áºŃp
r ent
ng he
Ġm il
Th áº£o
Ġtu c
B N
ĠBlo om
Ġb á»¥c
ester n
Ġ, ...
Ġtab let
ĠAc er
ic ester
ĠJohn son
Ġ áº£m
ĠS áº¯t
á»ģ u
ag ement
m á»Ł
ĠC á»Ļt
ĠÃ °
Ġho p
11 5
* )
if lex
ĠL iá»ģn
ĠL Æ°á»Ľi
ĠGi áº¥c
f i
Ġng Ãºt
Ġb á»Ŀi
Iá»Ĩ T
Ġ( -
Ġå ł
ĠK n
ent ial
L á»¥c
ĠGi o
ĠD al
Ġvá»ı n
Ġtu oi
Ġn ong
ĠSec ret
Ġbá»ĭ p
ĠN ike
Ġyá»ĥ m
Ġth Ã³c
Ġam idan
ĠVin ac
d ia
ĠTr á»ĵng
as ma
ort mund
Ġt uyá»ģn
ĠAl bum
ĠBu ff
ĠåŃĲ tá»Ń
ĠSl im
Ġl á»ĭ
Ġ0 88
ĠMar io
k el
Ġl em
Ġå ĭ
ĠAc id
ĠDie go
Ġn ÃŃt
Ġf ilm
T our
D ung
ĠMan ager
Iáº¾ N
Ġch á»Ļi
ĠP om
ĠHN X
ĠCN N
âĸ º
Ġg ao
ry lic
T áº¥m
ĠJ our
ĠMac Book
Ġtr á»Ĺi
F T
Ġc áº¡p
23 7
Ġnat ri
Ġg Æ°Æ¡m
ĠTH I
Ġéº ¼
Ġh Ã²ng
ĠvÃŃ u
ĠTay lor
t ext
Ġåī ĩ
ear s
Ġng ai
Ġcom bo
ĠX áº¿p
ĠIn c
199 8
Ġch au
Ġéº¼ ma
im er
7 20
ĠK Ã©o
Ġ19 65
Ġc ent
Ġ19 63
r t
19 99
nh anh
Ġph áº£ng
ĠN eo
ir us
ĠE a
ĠTh á»£
as aki
ĠFort uner
Ġg oi
Æ¯á»¢ C
V Ã¢n
Ġåīĩ táº¯c
Ġnh áº¿ch
Ġqu áº»
Ġch Æ¡n
ĠM iáº¿n
b org
Ch Ã¡u
ĠN ick
on ia
ĠPr ime
Nh iá»ĩm
Ġb in
Ġ15 5
b oy
ĠA NH
M áºŃt
z er
Ġc p
ĠÆ¯ Æ¡ng
ĠçĽ¸ tÆ°Æ¡ng
3 88
ĠT Ã¡i
ĠNg á»§
Ġ0 28
ĠNg Äĥn
Ġth au
m et
ç ½
Ġsho phouse
il ia
Ġau dio
Ġåĩ º
ĠM áº¹o
Ġg Ã¹
V Ä©nh
x anh
C á»ķ
ab i
ĠNS Æ¯T
Ġg á»ĵ
Ġm eg
ĠN ic
ĠH uyÃªn
ĠK á»µ
Ġtr on
Ġ11 4
Ġc all
Ġmel anin
M od
Ġcho i
un es
S Ã¢n
ok a
ĠAngel a
o le
Ġx á»ı
Ġj av
Ġè¡Įh Ãłnh
Ġ ag
ĠB I
i Phone
Ġv oan
Ġk Ã¬nh
Ġqu Ã¡ng
ĠR io
ĠAward s
ĠNG UYá»ĦN
ĠH Ã£n
as u
Ġè ĥ½
Ġho me
Ġt áºŃu
ho c
ĠTh Ãª
Ġç ¦
Ġå ½
V Ã¹ng
Ġm ot
âĢ¦ ),
ĠX L
ua la
ir d
Ġc ort
ĠTag s
Ġch á»ĵi
ĠB et
H á»Ļp
H I
Ġä» Ĭ
ĠN iger
Ch Ã¹a
ĠLH PN
ĠKang aroo
199 2
ng u
ĠB Ã¹
áº® C
ĠP ent
Ġv Ã¯
ĠM arket
Ġé ļ
ĠD ia
ĠNg ang
e ing
ĠTh Ã¢m
ÄĲ K
ĠNh áº«n
01 0
ĠCh Æ¡n
ĠChá»ĭ u
Ph an
Ġch Ã´ng
Ġdu á»ĩ
n u
ĠK l
B Ã³ng
ĠSo und
ĠPHÃģ P
ĠB ul
n ame
Äĳ Ãł
O M
Ġcu oi
ĠNg o
ĠÃ ĩ
å ¸
b log
ĠR A
Kh Ã¡m
ĠCh á»¥p
ĠMax mobile
iv ate
10 8
ĠTra fford
g n
Ġph p
Ġ12 6
Ã ¥
( )
Ġr Ãª
d Ã¹ng
ĠF it
ell i
Th Ã´i
Ġad d
Ġh Ãº
Ġr Æ°ng
ĠN áº¯ng
Ġçľ ¾
ĠN TK
Ġèĥ½ nÄĥng
O r
T Q
ĠUE FA
ĠF ly
ĠShar p
Ġd ÃŃ
Ġp as
Ð ³
Ġåĩº xuáº¥t
Ġngu Ã´
ĠC Ãłn
Ġtr á»ĵ
ĠAF P
Ġch á»Ńa
S ai
ĠH ÄĲT
Ġåľ ¨
Ġth eme
ĠChic ago
t ic
ĠTTT M
ĠP G
3 70
Å ¨
áº« ng
k ip
d Ã¹
Ð¾Ð ³
ĠQ C
Ġb áº·m
Ġçľ¾ chÃºng
: :
ĠF DA
C ap
L Ãªn
Ġn ÃŃn
ĠDai kin
n Æ¡i
ĠBro wn
ĠEng ine
l acera
Ġi f
Ġ áº¯p
f ont
ig an
Ġå ĥ§TÄĥng
ĠEuro pa
è ®
Ġ9 99
Ġph uc
Ġch áº§m
, ....
Ġç ¥
o acute
r em
Ġl evel
Ãµ a
Cl ass
Ġåľ °
ph at
¡ t
ent o
Ġl Ã¡o
n Ã³
av en
Ġch á»«a
ĠM Ã¢u
Hu áº¿
ĠÄĳá»ģ m
ĠT Ã¡nh
Ġr Ã¨
Ġv Ã¡t
ĠÄĲá»Ĭ NH
Ł m
Ġ19 20
Ġ= ))
ĠAd obe
d iv
n an
m áºŃt
Ġj ust
Ġ8 50
ĠCrist iano
ĠT á»Ķ
ann el
ĠÄĲ em
ĠC iv
ph am
ç İ
Ġæ ¬
Äĳ ang
m Ãłu
N áº¯m
TT H
Ð¸ Ð½
ĠÄĲ áº¸P
Ġso cola
ĠC our
Ġæ Ļ
ä¸ Ģ
Ġvn Äĳ
V iew
Qu ang
Ġn ude
C Ã¡m
Ġm iáº¿n
Ġlo ad
Ġ19 69
ĠC re
ĠMU A
ĠG ot
ĠÄĲ á»ĭch
Ġch Æ°á»Ŀm
ĠG ates
Ġch Ãły
Ġf pt
ĠBar ack
l Ãºc
10 2
ĠèĻ ķ
19 0
ĠÃĲ áº¡o
Ġk iá»ĩu
ĠV D
p ar
ï¼ ®
ĠD ol
g irl
N C
Ġt Ãºm
ac irc
Ġ09 13
ĠSe a
Ġ4 80
G Ã³i
ĠT iger
ï¼® ï¼
Ġh ero
ĠBr it
ĠCh an
Ġnh Ã¨
ĠT iÃª
Ġç ¶
Ġnh á»«
ak ing
Ġo ver
Ġk iáº¿t
ĠP orsche
b Ã¡t
ĠBlock chain
b ÃŃ
ĠLa w
ĠD ortmund
Ġph Ã¬nh
==== ====
art a
Äĳ iá»ĩn
il ity
ĠC á»ĵn
6 99
ĠC U
! ".
ĠK ur
ĠD áº¡ng
Ġlo ck
Ġh ere
Ġé ¡
ĠRob ot
gi Ãºp
ĠTO ÃĢN
S I
Ġtá» ĥ
ĠNG Æ¯á»ľI
au t
ĠH Æ°á»Ŀng
on i
ĠvÃŃ a
ÄĲTB XH
s ang
v Ãłng
uk a
ĠW enger
d á»¥ng
? ,
ĠC Å©
ĠÃĲ Ã´ng
ĠId ol
ng uyen
Ġc áº³ng
e f
Ġ oli
ĠÆł n
Ġ á»Ńng
Ġch Ã²i
ĠD at
Ġv Æ°Æ¡
Ġ11 7
ĠFed er
ĠHÃĢ NH
Ġè º«
V áºŃt
Ġsil ic
omb ie
d or
Ġs ale
ĠKh Ã¢m
ĠÄĲB QH
v at
Ġgam es
Ġse e
ĠA qu
ÄĲ á»Ŀi
ĠN ational
ĠNh Ã´m
ĠD Ãłn
al t
Ġv ol
Ġnh Ã³i
AM A
ĠLe icester
ĠDN A
ĠAc ad
ãģ «
ng oÃłi
Ġch áº§u
s how
ĠB ush
Ġtu á»ĵng
ĠW ith
P od
Ġhá» Ŀi
æĹ ¶
ĠSm ith
ĠH á»·
ĠTag ged
e nh
C r
ĠH TV
ĠBol ero
M icro
Ġ19 81
ĠB TV
ĠM H
ĠT áº©y
ĠB áº¥y
Ġnh Ãºt
ĠÄĲ ai
Ġ19 30
ĠB om
ĠN ad
G r
ĠSec urity
E B
ĠB uá»ĵn
ch inh
cont ent
ĠG all
ĠB ody
15 4
11 6
Ġng áº§u
C á»±u
ump ur
ĠBr and
ĠC op
ãģ §
Ġæ³ķ PhÃ¡p
Ġth em
ĠN P
Ġkh áº£m
Ġoli u
ĠL AO
ĠVig lacera
Ġlo Ã¡ng
ĠC Æł
ĠL ÃŃ
Ġni u
ĠGi u
ĠCh áº£i
App le
ï¼®ï¼ ¡
ĠK iáº¿p
âĢĿ (
Ġæ °
ĠQual comm
ĠM assage
ÄĲ Ã´
b s
Ġbá»ī m
ĠÄĳ áº£nh
ĠG et
Th Ã¬
enc es
C áº¥u
em b
á»ĺ T
iz ation
em en
ĠVo ice
nh áºŃn
Gi Ãły
ĠStand ard
ĠB Ãłu
ĠF i
Ġ ë
ĠChá»ī nh
R Æ°á»£u
æ Ī
Ġng á»į
Ġä½ ľ
ĠTh Ã¡o
T iá»ĩn
il i
ĠB á»Ĺng
ch á»ĳng
p ut
æ ī
eo ple
Ġä»Ĭ kim
Ġur ic
ĠÄĲ á»£i
Ġnh á»į
Ġ11 9
2 70
ĠMoh am
8 50
Ġl Ã©p
ĠT ÃĢI
ĠViet sub
ĠCH I
ĠMc C
che z
Ġth Ã²
ĠK áº¾
ĠE D
doc ument
ĠK DC
ĠKh Ã´n
ĠFor bes
b all
NH NN
NLÄĲ O
ch áº¿t
ĠI b
ĠU Ã´ng
Ġèº« thÃ¢n
---------------- ----------------
X P
Ġ3 30
ĠL Å©ng
ĠèĻķ xá»©
N o
Ġåľ¨ táº¡i
ĠExpl orer
ph Ãª
K á»·
ĠB á»ĳi
r in
ĠK Ã¨m
j ob
ĠN ang
ĠD á»ĬCH
Ġxu Ã´
Ġb á»Ł
Ãµ n
Ġvá»ĭ n
áº¢ M
ĠHe alth
ĠSo fa
ĠC os
Ġg áº¥c
ĠY e
ĠV á»±c
Ġty pe
Äĳ áº¡t
ĠD Ã¢u
r Ãª
Ġh ong
us ic
Ġe ng
} .
ĠViet Nam
ĠQue en
z b
to y
L Æ°Æ¡ng
Ġ16 5
ĠO ri
ĠKho Ã¡ng
f ul
ĠVÄĲ QG
ĠHit achi
Ġ12 2
Ġn áº¹p
ĠGD ÄĲT
ĠQu i
ĠVina Phone
ĠTr Æ°Æ¡
ĠTH Æ¯ÆłNG
r ise
Ġä½ľ tÃ¡c
M ax
Ġnh Ã£o
ĠLeg end
Ġb á»įng
áºł T
ĠN Æ¯á»ļC
Kh Ã¡nh
m áº¥t
Ġ19 67
ĠJ ustin
ĠM ul
ĠTo áº£n
ho g
» kh
Ġgiá» ¡n
ĠçĦ ¶
ĠCh áº£
Ġf ax
N O
Ġkh áº¥t
Ġ ed
UYá» Ĩ
ĠTh áºŃn
ĠE ar
Ãģ NH
ĠE M
ev in
ĠJ av
uc ation
ï ĥ
2 90
Ġu á»ķng
Ġs áºŃm
ĠM ill
á» İ
O ne
10 3
l la
top ic
ĠT ony
ĠSport s
Ġng Ã¡c
ĠT I
ĠN ou
ĠK uala
ĠMar y
Ġláº» o
ON E
Ġs ter
C loud
f ood
ĠH áº¡c
ĠM ain
ĠF ab
ĠI BM
ust a
Ð¾ ÑĤ
ĠD U
É ĳ
ĠB áºŃt
ĠMan ila
Y Ãªn
ĠL umpur
33 3
Ġ( âĢľ
ok er
ĠA y
ĠL es
Ġ09 07
Ġc Ã²ng
ĠÄĲ Ãłng
ĠB und
Ġng Ã²
ĠL ady
om i
ĠÃģ N
Ġdo c
ĠT á»ª
t iáº¿p
Ġå ¥
ĠlÃł o
or ation
ĠçĦ¶ nhiÃªn
ĠL ake
l Ãª
Ġl Æ°á»£m
H Q
ĠQ uyáº¿n
ĠR og
Ġng Ã³c
ĠCh Ã³
ĠHous ton
Ġlo ang
ĠA L
ĠA ction
tr ic
Ġ09 7
Ġch ong
ĠD iá»ĩt
ĠA o
ĠH Æ°á»Łng
ĠK D
ĠDH A
nh an
ĠW ood
M e
t iá»ĥu
ĠN á»¥
ĀĀĀĀĀĀĀĀĀĀĀĀĀĀĀĀĀĀĀĀĀĀĀĀĀĀĀĀĀĀĀĀĀĀĀĀĀĀĀĀĀĀĀĀĀĀĀĀĀĀĀĀĀĀĀĀĀĀĀĀĀĀĀĀĀĀĀĀĀĀĀĀĀĀĀĀĀĀĀĀĀĀĀĀĀĀĀĀĀĀĀĀĀĀĀĀĀĀĀĀĀĀĀĀĀĀĀĀĀĀĀĀĀĀĀĀĀĀĀĀĀĀĀĀĀĀĀĀĀĀĀĀĀĀĀĀĀĀĀĀĀĀĀĀĀĀĀĀĀĀĀĀĀĀĀĀĀĀĀĀĀĀĀĀĀĀĀĀĀĀĀĀĀĀĀĀĀĀĀĀĀĀĀĀĀĀĀĀĀĀĀĀĀĀĀĀĀĀĀĀĀĀĀĀĀĀĀĀĀĀĀĀĀĀĀĀĀĀĀĀĀĀĀĀĀĀĀĀĀĀĀĀĀĀĀĀĀĀĀĀĀĀĀĀĀĀĀĀĀĀĀĀĀĀĀĀĀĀĀĀĀĀĀĀĀĀĀĀĀĀĀĀĀĀĀĀĀĀĀĀĀĀĀĀĀĀĀĀĀĀĀĀĀĀĀĀĀĀĀĀĀĀĀĀĀĀĀĀĀĀĀĀĀĀĀĀĀĀĀĀĀĀĀĀĀĀĀĀĀĀĀĀĀĀĀĀĀĀĀĀĀĀĀĀĀĀĀĀĀĀĀĀĀĀĀĀĀĀĀĀĀĀĀĀĀĀĀĀĀĀĀĀĀĀĀĀĀĀĀĀĀĀĀĀĀĀĀĀĀĀĀĀĀĀĀĀĀĀĀĀĀĀĀĀĀĀĀĀĀĀĀĀĀĀĀĀĀĀĀĀĀĀĀĀĀĀĀĀĀĀĀĀĀĀĀĀĀĀĀĀĀĀĀĀĀĀĀĀĀĀĀĀĀĀĀĀĀĀĀĀĀĀĀĀĀĀĀĀĀĀĀĀĀĀĀĀĀĀĀĀĀĀĀĀĀĀĀĀĀĀĀĀĀĀĀĀĀĀĀĀĀĀĀĀĀĀĀĀĀĀĀĀĀĀĀĀĀĀĀĀĀĀĀĀĀĀĀĀĀĀĀĀĀĀĀĀĀĀĀĀĀĀĀĀĀĀĀĀĀĀĀĀĀĀĀĀĀĀĀĀĀĀĀĀĀĀĀĀĀĀĀĀĀĀĀĀĀĀĀĀĀĀĀĀĀĀĀĀĀĀĀĀĀĀĀĀĀĀĀĀĀĀĀĀĀĀĀĀĀĀĀĀĀĀĀĀĀĀĀĀĀĀĀĀĀĀĀĀĀĀĀĀĀĀĀĀĀĀĀĀĀĀĀĀĀĀĀĀĀĀĀĀĀĀĀĀĀĀĀĀĀĀĀĀĀĀĀĀĀĀĀĀĀĀĀĀĀĀĀĀĀĀĀĀĀĀĀĀĀĀĀĀĀĀĀĀĀĀĀĀĀĀĀĀĀĀĀĀĀĀĀĀĀĀĀĀĀĀĀĀĀĀĀĀĀĀĀĀĀĀĀĀĀĀĀĀĀĀĀĀĀĀĀĀĀĀĀĀĀĀĀĀĀĀĀĀĀĀĀĀĀĀĀĀĀĀĀĀĀĀĀĀĀĀĀĀĀĀĀĀĀĀĀĀĀĀĀĀĀĀĀĀĀĀĀĀĀĀĀĀĀĀĀĀĀĀĀĀĀĀĀĀĀĀĀĀĀĀĀĀĀĀĀĀĀĀĀĀĀĀĀĀĀĀĀĀĀĀĀĀĀĀĀĀĀĀĀĀĀĀĀĀĀĀĀĀĀĀĀĀĀĀĀĀĀĀĀĀĀĀĀĀĀĀĀĀĀĀĀĀĀĀĀĀĀĀĀĀĀĀĀĀĀĀĀĀĀĀĀĀĀĀĀĀĀĀĀĀĀĀĀĀĀĀĀĀĀĀĀĀĀĀĀĀĀĀĀĀĀĀĀĀĀĀĀĀĀĀĀĀĀĀĀĀĀĀĀĀĀĀĀĀĀĀĀĀĀĀĀĀĀĀĀĀĀĀĀĀĀĀĀĀĀĀĀĀĀĀĀĀĀĀĀĀĀĀĀĀĀĀĀĀĀĀĀĀĀĀĀĀĀĀĀĀĀĀĀĀĀĀĀĀĀĀĀĀĀĀĀĀĀĀĀĀ ĀĀĀĀĀĀĀĀĀĀĀĀĀĀĀĀĀĀĀĀĀĀĀĀĀĀĀĀĀĀĀĀĀĀĀĀĀĀĀĀĀĀĀĀĀĀĀĀĀĀĀĀĀĀĀĀĀĀĀĀĀĀĀĀĀĀĀĀĀĀĀĀĀĀĀĀĀĀĀĀĀĀĀĀĀĀĀĀĀĀĀĀĀĀĀĀĀĀĀĀĀĀĀĀĀĀĀĀĀĀĀĀĀĀĀĀĀĀĀĀĀĀĀĀĀĀĀĀĀĀĀĀĀĀĀĀĀĀĀĀĀĀĀĀĀĀĀĀĀĀĀĀĀĀĀĀĀĀĀĀĀĀĀĀĀĀĀĀĀĀĀĀĀĀĀĀĀĀĀĀĀĀĀĀĀĀĀĀĀĀĀĀĀĀĀĀĀĀĀĀĀĀĀĀĀĀĀĀĀĀĀĀĀĀĀĀĀĀĀĀĀĀĀĀĀĀĀĀĀĀĀĀĀĀĀĀĀĀĀĀĀĀĀĀĀĀĀĀĀĀĀĀĀĀĀĀĀĀĀĀĀĀĀĀĀĀĀĀĀĀĀĀĀĀĀĀĀĀĀĀĀĀĀĀĀĀĀĀĀĀĀĀĀĀĀĀĀĀĀĀĀĀĀĀĀĀĀĀĀĀĀĀĀĀĀĀĀĀĀĀĀĀĀĀĀĀĀĀĀĀĀĀĀĀĀĀĀĀĀĀĀĀĀĀĀĀĀĀĀĀĀĀĀĀĀĀĀĀĀĀĀĀĀĀĀĀĀĀĀĀĀĀĀĀĀĀĀĀĀĀĀĀĀĀĀĀĀĀĀĀĀĀĀĀĀĀĀĀĀĀĀĀĀĀĀĀĀĀĀĀĀĀĀĀĀĀĀĀĀĀĀĀĀĀĀĀĀĀĀĀĀĀĀĀĀĀĀĀĀĀĀĀĀĀĀĀĀĀĀĀĀĀĀĀĀĀĀĀĀĀĀĀĀĀĀĀĀĀĀĀĀĀĀĀĀĀĀĀĀĀĀĀĀĀĀĀĀĀĀĀĀĀĀĀĀĀĀĀĀĀĀĀĀĀĀĀĀĀĀĀĀĀĀĀĀĀĀĀĀĀĀĀĀĀĀĀĀĀĀĀĀĀĀĀĀĀĀĀĀĀĀĀĀĀĀĀĀĀĀĀĀĀĀĀĀĀĀĀĀĀĀĀĀĀĀĀĀĀĀĀĀĀĀĀĀĀĀĀĀĀĀĀĀĀĀĀĀĀĀĀĀĀĀĀĀĀĀĀĀĀĀĀĀĀĀĀĀĀĀĀĀĀĀĀĀĀĀĀĀĀĀĀĀĀĀĀĀĀĀĀĀĀĀĀĀĀĀĀĀĀĀĀĀĀĀĀĀĀĀĀĀĀĀĀĀĀĀĀĀĀĀĀĀĀĀĀĀĀĀĀĀĀĀĀĀĀĀĀĀĀĀĀĀĀĀĀĀĀĀĀĀĀĀĀĀĀĀĀĀĀĀĀĀĀĀĀĀĀĀĀĀĀĀĀĀĀĀĀĀĀĀĀĀĀĀĀĀĀĀĀĀĀĀĀĀĀĀĀĀĀĀĀĀĀĀĀĀĀĀĀĀĀĀĀĀĀĀĀĀĀĀĀĀĀĀĀĀĀĀĀĀĀĀĀĀĀĀĀĀĀĀĀĀĀĀĀĀĀĀĀĀĀĀĀĀĀĀĀĀĀĀĀĀĀĀĀĀĀĀĀĀĀĀĀĀĀĀĀĀĀĀĀĀĀĀĀĀĀĀĀĀĀĀĀĀĀĀĀĀĀĀĀĀĀĀĀĀĀĀĀĀĀĀĀĀĀĀĀĀĀĀĀĀĀĀĀĀĀĀĀĀĀĀĀĀĀĀĀĀĀĀĀĀĀĀĀĀĀĀĀĀĀĀĀĀĀĀĀĀĀĀĀĀĀĀĀĀĀĀĀĀĀĀĀĀĀĀĀĀĀĀĀĀĀĀĀĀĀĀĀĀĀĀĀĀĀĀĀĀĀĀĀĀĀĀĀĀĀĀĀĀĀĀĀĀĀĀĀĀĀĀĀĀĀĀĀĀĀĀĀĀĀĀĀĀĀĀĀĀĀĀĀĀĀĀĀĀĀĀĀĀĀĀĀĀĀĀĀĀĀĀĀĀĀĀĀĀĀĀĀĀĀĀĀĀĀĀĀĀĀĀĀĀĀ
¥nh áºŃt
ĠCH á»¦
do or
25 5
ĠS earch
Ġè¨ Ģ
¯ ng
ĠF ar
Co in
Ġg Ã£i
v Ã¹ng
ĠL M
Ġd iáº¿p
ĠTa e
t á»ĳi
ĠF ashion
E V
ĠG L
ĠE ss
j an
Ġb ig
Ġl á»±
ĠVi p
Ġxo an
ĠB áº¥m
ĠG as
d ien
f ox
ant a
Ġäº ¦
B á»įn
ĠR over
å¹ ´
Ġba by
á»ĺ C
d iá»ĩc
ĠBos ton
ĠæĹ ¥nháºŃt
ĠL ar
Ġs ch
w agen
ĠL á»ĳi
Ġd iá»ĩp
Ġl Ãºm
ĠR F
p ot
v et
Ġ12 7
U I
Ð¾ Ð½
Ġk et
ÄĲ en
k áº»
Ġx áº»o
ĠB ag
ĠS ett
g Ã¢y
ĠChu á»Ļt
web site
i ro
ĠRo oney
Ġs m
Ġp p
G o
ĠPh Ã¢
ĠR ic
Ġl ap
ĠC Æ°á»Ľi
ĠB io
ĠÄĲ á»£t
ĠA sh
Ġth Ã¢y
11 1
Ġäº¦ diá»ĩc
ew oo
ĠTr á»įn
Web site
y outube
0 90
we et
Ġcho n
Ġco ck
Ġdom ain
ai i
Ġr iáº¿t
ĠW oo
ch an
Ð¸ Ñı
B r
w ap
w ich
Ġg alaxy
ĠKh inh
ĠNiger ia
Ġ Ã©
Ġth Æ¡i
19 79
em ail
âĢĿ !
Ġvinh omes
Ġn áº§n
d inh
Ġh áº¡c
ĠUkr aina
ĠCh Ã¡y
ĠÆ¯ ng
at ure
v as
t áº¡o
à ¦
Ġx áº¯t
âĢ ³
az er
l em
ĠPer u
ĠM Ãły
16 8
ĠN á»ĵi
P GS
ĠL ittle
Ġchu á»ĵn
Ġx Ã¢u
á»± t
" ;
ok u
ç½ ĳ
ãģ ª
Ã ¸
m ai
ĠG or
ES T
ĠM orning
CN V
Ġth inh
Ch Ã¢u
m á»Ľi
ch ÃŃ
m iá»ħn
ĠÄĲ CS
ĠTT HC
T ech
Ġra dar
lo p
ĠNS NN
Ġè¨Ģ ngÃ´n
T áº§ng
11 2
ch iáº¿c
M Ã´i
id ae
Ġso c
d á»¯
C Ãłng
ĠG Ã¢y
Ġ Ã³i
PP O
c Ã¢u
b á»ı
Ī h
Ġu Ã´
ĠT áº£o
Ġcá»ı i
ĠÄĲ á»©a
ĠH R
ĠM á»ı
k aku
Ġh Ã¹m
ĠÃģ c
ĠR ome
ĠXH CN
Ġs Ã¡
ĠN á»ĳi
ĠWal es
Ġh Ãłu
Ġ14 5
ĠTT XVN
Ġch iÃªng
m ond
Ġr an
ĠM á»ļI
Ġn Ãºp
ĠM Ã¡
Ġä¸ ĸ
ĠT CN
d t
nh a
ĠH az
ĠMar ina
ĠTh áº£m
Ã ķ
ãģ ¦
ĠKh uáº¥t
Ġm á»Ńa
v iá»ĩc
Ġl áº©m
Ġ09 06
ĠVI ÃĬN
W orld
h ome
ĠçŃ ī
Ġåı ¯
ĠX Ãª
ĠHar i
col or
K A
Ä ±
ĠÄĳ áº£n
Ġg ara
Ġc s
ĠTH ANH
el lo
ĠO P
ĠMen u
ĠB and
á»Ĳ T
es l
ĠAn na
f it
ĠAs ian
m ed
f riday
Ù ĩ
ĠP RO
P in
S e
3 30
en ue
ãĥ ³
Ġç© º
ond er
ĠLot us
} }
ĠæĪ Ĳ
b en
p to
Ġre ading
V itamin
ĠXII I
ĠJ obs
Ġå Į
Ġ19 66
ĠNg Æ°ng
ĠPro ject
r um
C u
UYá» ĢN
ĠLe on
old er
Ġç İ
t ing
Ġkh Æ°u
ks wagen
ĠåĽ ł
ĠÄĳ iáº¿m
Ġcont ent
Ġh Ã¡ng
Ġk iáº¿ng
3 80
ĠG ai
t ime
Ġch ÃŃt
10 4
ÄĲ Æ°Æ¡ng
ng ay
Ġcá»į p
j in
B y
± t
th ÃŃch
oo p
S port
B iÃªn
äº º
ĠAr ena
L D
ĠT iá»ĩm
10 6
Ġti en
ĠPh iÃªu
c Ã¡nh
ch áº¡y
ĠEth ereum
ĠHS SV
23 2
i ola
ĠIn verter
le an
Ã §
iz ed
Ġl Ã³ng
ĠRo ad
ĠSL NA
J et
el n
to Ãłn
Ġh er
j e
Ġb iáº¿c
è µ
Em dep
ĠB enz
tain ment
ÃĶ i
ch ar
l Äĥng
ĠX NK
Ġng á»£m
ĠM Ã¡t
Ch á»£
13 5
on to
11 8
ĠVH TT
N á»ķi
ĠPH ÃĴNG
CC I
ĠKh e
V iáº¿t
ĠBo eing
ra w
ĠGi Æ°á»Ŀng
ĠÃ´ xy
ĠC Æ°á»Ŀi
eth yl
Ġ12 1
Ġhi u
ik ip
D Ä©
att an
G á»Ńi
á»¬ A
Ġlip id
Ġ* **
Ġs n
ĠK INH
Ġåı¯ kháº£
ĠJ ones
s im
b or
Ġm obi
ĠZ id
ĠTh iá»ģu
Ġm aster
Ġr á»¥t
l áº¡c
ĠH ÃĮNH
Kh ai
ãĤ ĭ
b ang
Ġx Ã¨o
ĠKH CN
Ġï £
ie v
Ġp ark
ĠN ot
ãģ Ł
Ġc ry
Ġå¤© thiÃªn
Ġd et
R au
ĠPl an
ĠE B
I t
ĠTho Ã¡t
h ini
Ġr el
ĠE b
P oint
ect a
ĠkhÃ³ m
ĠFor um
ĠE va
ĠOnline friday
ĠDr ive
ĠG ab
ĠlÃŃ u
ĠAd am
ĠK ids
Ġç©º khÃ´ng
ĠP ic
ĠO ng
Ġg ly
im bank
Ġngu Ã´i
Ġs at
ND N
ĠQ uáº¥t
Ġ: ))
Ġx iáº¿c
V Ãµ
er to
B ar
Ġnh áº¡o
Tr Ã²
n ews
Ġb Æ°
Ġ09 01
C áº·p
Ng Ã´
11 3
á»¡ i
M ac
Ġtr Ã³t
Ġs áº¥p
ĠJ on
AN TD
S uá»ĳt
w ang
p oint
ĠTr áº£ng
ĠTech combank
am ic
T oy
ĠCar ol
ä ¼
Ġ19 64
Ġhom estay
ĠT áº¡m
ch á»©ng
c s
Ġn á»ĭnh
įt iá»ģn
Ġ13 2
ĠZ in
ĠB DS
Ġmá»ģ n
r ick
ĠB áº¯n
Ġtu r
ĠScot land
ĠH iÃª
Ġæ Ŀ
Ġch Ã£i
E l
Ġfol ic
h Ã³a
I CO
Qu áº¡t
l á»¥c
OS E
ĠKho an
ĠCam bridge
Ġvá»© c
Ġs Ã¡n
ĠSan chez
ew ay
Ġqu áº¹t
ĠV áº½
ĠVin Fast
ĠLo go
ĠW ell
x b
ĠS Ã´
ĠM Ã£n
V L
Ġb ot
B XD
ch áº³ng
ĠL et
Ġtr en
ĠJe ff
ab eth
Ġh uyá»ħn
ĠTr á»©ng
Ġç ¨
77 9
ĠW estern
Ġlives how
ĠæĪĲ thÃłnh
f ol
M bps
Ġngo ai
ÄĲ á»ķi
S áº¯c
ĠC á»Ķ
ãģ Ļ
ï Ĥ
ĠIn vest
Ġ19 71
ĠS om
B iá»ĥn
m áº·c
ĠåĽł nhÃ¢n
s ex
Th á»«a
as ka
Æł I
S on
ĠL á»«ng
9 50
Ġ um
Ġ Ã²a
S uc
Ġl áº¡p
it ies
up load
Ġt áº¯p
hi ng
Ġgluc ose
ĠÄĲ ÃŃnh
ĠCon nect
Ġåī įtiá»ģn
ĠTh y
c á»¥
ch Ãº
ĠS ÄĲT
Ã įt
ĠV egas
ĠHy e
t iáº¿n
ĠD K
ĠL Ãłn
ĠD á»«a
ĠS áº¡c
Ñ Ħ
ĠAmer ica
ĠNg on
Th á»Ń
c ell
ĠçŃī Äĳáº³ng
ĠBS T
Ġnh áº·n
ĠB our
L an
Gi ang
S uy
k k
ĠR y
ĠFor ex
B G
ĠBlu es
ĠKore a
Ġ01 212
Ġl and
H Ã³a
åı ĳ
f ess
T áº§n
th or
ĠCHÃļ A
Ġtr á»©
ĠQ UY
ĠZen fone
Ġ13 8
Ġ19 77
d Æ°á»Ľi
ĠS Ã¹ng
ĠU s
Ġkh Ãłn
ĠCH áº¤T
as cript
ĠI R
Ġm Ã³
áºł CH
ĠHo áº¯c
T im
Ġvá» ĵng
ĠT en
ol in
ä¸Ń å½©ç¥¨
au r
ĠTr ip
ĠY our
Ġngu á»Ŀi
Ġâ Ŀ
å Ĭ
A F
ib e
amp ton
ĠF ast
ĠK ir
Ġåľ° Äĳá»ĭa
are z
ĠEver est
G C
ĠÄĲ áº§y
t áº¡m
ĠCry stal
ĠJ ess
ar in
Ġtho áº¡t
Ġn áº¥p
Ġth Ãły
l en
Ġd áº¥p
ĠâĢ ŀ
M U
Ġg áº¥m
ĠXI X
Ð ·
Ġá» ·
oh ydr
p es
M art
tr uyá»ģn
Pl ay
ĠM em
Ġ: )
el in
ĠH ee
ĠN Ã©t
ĠM N
ikip edia
ĠS or
Â µ
Tr á»įng
k t
ĠØ§ ÙĦ
s Ã¡ng
ĠL or
qu Ã¡n
Ġb as
v á»«a
ien d
ĠSw an
and o
Ġnh Ã²a
10 7
ĠTH Iáº¾T
m oi
ĠF irst
ĠR áºº
Ġ edit
ĠT phcm
in son
Ġthá» ĩ
ĠX ingfa
ph Ã¡
ĠB Äĥ
Ġâ Ī
357 357
Ġtá» Łm
ĠM p
Ġ01212 357357
Ġl Ã¹m
ĠIn f
Ġb et
ĠR an
s áº¯c
ĠUn der
Ġn ua
22 7
ra ham
Äĳ Ã´
Ġ12 4
ĠS Ãło
19 69
å º
ĠnhÃł u
ĠHost ing
Ġç ī
Ġ ol
Ġb áº¿t
Ġs ur
Â ¡
ĠÂ °
Ch Æ¡i
Ãĵ NG
ĠQ Q
ĠC Q
ãģ ¨
199 7
Ġv at
M r
l á»Ľp
Ġcac bon
ĠÄĳ Ã¯
ĠEr ic
ĠBr ight
Ġd Ã¡t
ĠH ÃĵA
ĠFerr ari
ĠT es
Ġgi Ã´
Ġl Ã¬nh
Ĥ ¬
ĳng Ã£
ĠTh Ã¹
s ol
M edia
Ġel ec
âĢ İ
Ġz oom
ĠDo wn
ĠF uk
n n
F acebook
es a
4 90
19 87
Äĳ Ã³
ĠT áº¯m
or p
Ġt ieng
ĠB Æ°á»Łi
ĠE C
Ġkh Æ¡
s hip
h ar
ĠTh áº¯m
Ġnguy en
Ġc ell
ĠThu á»µ
âĢĶâĢĶ âĢĶâĢĶ
B ay
one x
ch im
ok o
h á»ĵ
Ġn áº·c
Ġd iÃªm
ĠK enn
ĠMon aco
Ġgh im
ĠF ant
Ġep oxy
ĠFu ji
i j
ĠG ang
h á»Ĺ
ar io
n ic
ĠH and
Ġp izza
ĠgiÃª ng
at hi
Ġphot oshop
Æ¯á»ļ NG
c áº£nh
ĠVal encia
19 95
Pre vious
ĠC ell
ĠPh áº¡t
ĠL ite
ag i
Ġtru ong
ĠSe ason
ĠN ep
ĠB ab
Ìĥ .
Ġtr á»Ľ
ĠK áº¾T
Ġ19 46
ĠL T
ĠGuard iola
N áº¥m
Ġl áº£
g b
ĠN á»£
ĠA qua
ĠPh áº£
ĠY oo
Ġ13 3
ĠMag ic
ĠColor ado
Ġbi en
ĠZid ane
ĠH Æ°u
is tr
ĠhÃ£ n
Ġph áº¿t
Ġs áº³n
m áº«u
Ĥ vá»ĭ
or th
Ġá»Ĳ p
Ng á»ĵi
ĠM áº¡n
ĠTR ANG
L ai
Ġ8 88
Ġc á»¯
ĠH ero
Ġng á»Ľ
ĠI ll
ĠD Ã£
F S
ĠæĪ ĳngÃ£
ad i
r ie
m b
4 80
Ġmod em
ĠM and
ĠRub y
p in
ph p
Ġ19 62
ĠAv enue
âľ ħ
ĠÄĲ V
Â §
Ġ ×
Ġtr Ã¡o
L Æ°á»£ng
B á»Ļt
ĠQU AN
ĠAct ive
ai re
ĠM W
ĠR Ã´
Ġc á»Ļm
ĠM DF
R eal
ĠD uyá»ĩt
ĠVI ET
Ġac t
ĠSp eed
ĠHun ter
Lu áºŃn
ĠEver ton
Ġè¬ Ĥvá»ĭ
G áº·p
Ġr Ã´m
§t Ã¡nh
Ġç ¬
ĠÄĲ á»ĵi
ĠSho phouse
Ġgh áº»
b ie
ĠÃĲ Ã³
s Ã¡t
âľ Ķ
ĠæĢ §tÃ¡nh
Ġdu c
ĠGr an
Ġr Ã¬a
ĠÄĲá» Ģ
ĠTR ÃĮNH
ĠR ain
vic es
ĠP ier
ot al
Ġd á»Ĺi
âĢĿ ...
ÄĲ Ã¡
ĠT G
Äĳ á»ĩ
ĠEU RO
d iá»ĩn
ted othi
Ð¾Ð ¹
i os
Ġv áº§ng
ĠF ound
ĠTur bo
ĠIn t
! )
O W
ath an
ĠEd ucation
ĠC áº¥n
ĠT Ãłng
ĠRad io
ĠBrid ge
ĠKh as
Ġstart ed
Ġso Ã¡i
Ġ2 90
ĠP ad
U ng
Ġ19 56
Ã ľ
Ġâ ŀ
Th á»§y
Ġk it
TT LT
Th is
Ġ2 25
ĠK am
Ġg áº·m
3 01
ĠS Ãºng
S Ãłi
ĠÄĳu á»£c
Ġ20 22
Ġqu Ãłng
Ġ16 8
ĠS B
ir eless
â ĪĴ
ĠÄ ©
ĠSil ver
Ġgold mark
ĠTHU áº¬T
Ġnh oi
Ġg ran
v id
ĠT Æ°á»Ľc
Ġ09 04
Ġ19 58
g hi
Ġng Æ°u
B u
ãģ ¾
ph áº£n
ĠM Iá»ĦN
Ġto ol
Ġnh á»īnh
ĠD ual
ĠN ÄĲT
up e
U M
E d
ĠL ike
Ġä ¼
Ġæ ŀ
ĠNG AY
cel and
HÄĲ ND
p df
Ngh Ä©
Ġl Ã¨o
d iá»ħn
th áºŃm
ĠBud d
ĠL ay
van ced
ĠL Æ°á»£c
ĠJack son
Ch á»¯a
ĠT Ã¢
L Ã¢u
IC E
ĠRod r
L Ãłng
r ed
kh Ã³
ĠNG ÃĢY
ĠOr ig
ĠB áºłN
ĠFu j
E n
A X
ĠN áº¥u
Ġ icon
V á»ĩ
Ġp a
ĠSer vice
b ong
ĠN áºŃm
Ngh Ä©a
ak es
ĠChu á»Ĺi
ĠL áº·c
Ch Äĥm
th Ã¡nh
Giá» įng
ĠChrist ian
ĠJour nal
Ġgi Æ°Æ¡ng
hog gi
ĠL Ã£i
ant s
ĠV ision
ĠAl i
h á»į
k em
G roup
th áº£
ace ae
nh at
D uy
Ġnh áº¥m
ĠD iÃªu
Å į
Ġd it
Ġ áº©u
ĠV ay
ĠT E
Q S
ĠÐ ±
ĠG an
ĠT Ã²ng
é ĩ
Con t
Ġvi lla
ĠD Ã¬
Ġp ower
Ġå İ
å ·
ph Ã¹
ĠIm peria
ĠÐ½ Ð°
Ġkh iÃªn
ĠHP V
Toy ota
Äĳ Æ°Æ¡ng
Ġv acc
ĠG Ã³p
ĠthÃ¹ y
ĠCol umb
Ľt á»©
ĠB ai
ĠN áº¡p
ĠX oÃłi
Ġst and
ĠB QT
ĠH I
23 5
ĠD á»±c
Ġm edia
ES S
Ġxo ong
d á»ħ
ĠOr ch
p ost
ĠM D
ĠPh Ã©p
S G
ĠX ong
ho use
N ay
d á»ĭ
ER S
ĠF M
ĠI PS
Ġn Ã´m
Ġlá» £
Ġt Ã¡p
ĠO LED
m as
B CT
dro p
ĠCh ai
Ġçľ Ł
d ai
ĠC oi
ĠKhas hoggi
ut nik
Ġl eg
rol l
K á»ĩ
4 40
ĠmÃ£ o
eth er
borg hini
ÐµÐ ¼
Ch apter
ĠAm i
Ġd á»ım
g ing
Ġg Ãłi
Äĳá»ģ u
Ġæ Ĥ
ĠV Æ¡
ĠEnter tainment
ĠBe at
N á»ģn
v c
at ive
ĠCro ss
Ġl á»©t
Ġl Ã¡c
esl iga
ÄĲ B
ĠO z
Ġd áº·t
ĠS áº¡n
ĠC ua
ĠGen eral
å ¾
ĠK á»ĭch
ĠL ac
T e
... ).
ĠV it
ĠM b
G Ã²
al se
ĠV PS
l áº¥y
Ġi p
Ġviet nam
ĠR el
77 7
Ġh ard
ut a
D es
ĠS ri
er on
id get
r ich
T uyá»ĩt
ĠL oc
Ġ15 2
Ġtr Äĥ
Ġbo ot
Ġch Ã´m
ĠKing dom
ĠB oo
Ġd ell
Ġl ife
t á»ĳt
Ġm ol
ur ai
ĠåĽ Ľtá»©
ter n
ĠF ocus
ĠVol kswagen
ia s
ĠR Ã¨m
S ub
Ġx Ãºi
Ġé «
Ġr Æ°
ĠG mail
Ġ20 3
Ġtr Ã£i
ĠF ax
24 9
ĠD or
áº¶ C
ĠTÃį N
ĠE ther
tr act
ĠTechn ology
Ġk iá»ĥng
ĠB K
pl ate
ĠNh áº¯c
10 9
á» ĮC
et el
áº °
Ġca ffe
T áº¡p
AR T
Ġ end
Ġ4 20
ĠTO ÃģN
Ġchá»ī n
n om
uc ci
Gi áº£
quy á»ģn
Ġlu n
¥nh áºŃp
ĠB áºŃc
ĠT Æ¡
ĠJ Ãª
Ġr et
ĠO PPO
Ġh Ãºng
æ ¸
ok e
ĠI a
ĠG on
ĠC av
Ġ Ã©o
te k
pl i
ĠEl iz
ĠK M
ĠV el
em an
ff ect
Ġn it
tr anh
Ġcont rol
ĠP ers
Ġb á»£
ing o
gi Ã¡c
ster dam
ĠM iÃªu
ĠPC I
ir i
K áº»
Ġlu á»¹
S áº¯p
Äĳ Ãª
Ġè ¿
ac le
66 8
Ġäº ĭ
f ia
ç »
Ġthu ong
Ġ80 2
b á»ķn
ĠCoc a
ĠF ri
F E
20 5
Ġen try
Ġb á»±
Ġ. "
al an
ĠC Ã¢
Ġ" .
Ġåħ ¥nháºŃp
ĠF U
Kinh tedothi
æ Ŀ
Ġl á»ĳ
ĠTS CÄĲ
ĠLam borghini
ĠO ver
l on
ĠCHá» Ī
c áº¥p
Ġst atus
B á»¯a
Ġéĸ Ģ
Ġs áº©y
b un
Ġl Ã¢ng
- >
ĠNS ND
) /
ĠH áº¹n
l it
ĠÄĳo áº£n
ĠWh it
Ġamp ly
Äĳ Ã³ng
ĠNap oli
d in
Ġtr ui
on o
d uyÃªn
ĠTr á»ĳng
Ġd áºŃt
Ġto t
Ġæľ ª
0 28
ĠClass ic
Ġ09 88
Ġé ¦
11 7
Ġæĸ ¹
ĠLu is
Äĳ Ãłn
ĠHaw aii
writ eln
ĠC in
g am
22 2
ĠH all
T áº·ng
Ġkh anh
ĠK evin
"," ",
é Ģ
Ġl act
Link F
3 90
ĠPh oto
display LinkF
" ).
ol and
ĠV oi
Y áº¿u
Ġk aki
ĠB Ã£o
C X
ĠÄĳ uá»ĳc
ĠT ung
20 21
ĠSt yle
ĠVietin Bank
ĠG áº¥u
iz u
ĠXS MN
ĠBloom berg
ĠA le
ur l
ĠG A
ĠL Æ¯á»¢NG
ĠV áº£
Ġg ood
ĠWi Fi
Ġ12 9
IT E
Ġph ÃŃch
áºª N
Ġç ļ
Ġtr Å©ng
ĠEmp ire
ĠN ail
Ġus b
Ġh ecta
Ġäºĭ sá»±
Ġnh en
ad or
t ien
M L
gi Ãł
D P
ĠB il
Iá»Ĥ N
Tr á»ĭ
Ġn Ãµn
B á»ķ
Īh á»±u
Ġx Ã³i
Tr ÃŃch
Ġb Æ°á»Ľng
ĠAb e
ĠK os
ĠMua Ban
Ġ09 08
.... ...
ĠF ut
tr iá»ĩu
ĠDi rect
Ġm Æ¡n
Ġnu ong
ĠExc iter
Ph á»ĳ
ĠUn i
Ġè ¶
Äĳ Ãºng
ĠM Ã¹
Qu ay
Ġg á»£n
17 5
ĠW ed
ĠEx imbank
2 65
ĠI celand
ĠCh anh
g oo
æ ³
Ġæľª vá»ĭ
Th áº±ng
ĠNH TM
Ġrem ote
Ġx áº¹p
Ġvis it
ļ I
Ġl áº±n
Ġ13 9
Ġprotect ed
B O
C áº£i
Ġso lo
com e
Ġtrá»¥ i
ĠtrÄ© u
m aster
k ong
Ġtr ade
ĠAd d
ĠC ON
Ġnh Ã¡c
Ġgi ay
ĠQ G
ĠI l
Ġ3 16
Ãģ T
ĠIn fin
h Ã¡n
m Ã´
Ġtag ged
form ation
m od
ĠAlex ander
v ay
Ġs áº£i
23 3
B KH
ĠN ak
55 5
Ġpoly p
ĠMotor ola
ĠB áº¢N
19 83
Ġ( #
Ġa e
Ġb oss
ĠPT NT
ag u
T á»ĳc
ĠTor onto
ĠQ uyá»ĥn
d Ãłi
Ġáº¤ p
ĠK ate
Ġb á»ĩt
ĠU PS
m un
æ °
per t
I R
Ġæľ ¬
h l
f ree
Ġn áº¿t
ĠM oto
ĠR on
Nh áºŃp
ĠB Æ¡
âĻ ¦
4 10
L Ãło
Ch á»ĵng
AS T
3 40
ĠNg Ã¢m
ĠT iÃªm
ĠJ ak
Ġmac book
ĠC AM
G á»įi
Ġd em
us se
ĠÄĲ ua
Ġtu Ã´ng
b Ã¡c
Ġæ Į
ĠCr uz
ĠTo day
ĠNep al
Î ±
f ull
ĠÃ ¯
ch Ã¡nh
ĠN Ã³ng
ĠS á»°
Ġm iáº¿t
Ġç ı
Ġh iflex
ib o
4 20
Ġh áº«ng
l áºŃp
ĠLo ai
ĠPh á»ī
ĠDa ewoo
á»Ŀ n
3 68
ĠAn th
C á»ķng
Ġæ ģ
Ġ Ã¹a
V ND
? ...
Ġs tream
nh o
Ġd Æ¡i
Ð¸ Ðº
ĠR Ã¹a
B K
ĠCan xi
ä¸ ī
Ġ under
ĠJose ph
ĠT GÄĲ
n m
ĠKh uynh
Ġkh á»ĳ
ĠV NG
ĠÄĳ Ã©o
ĠS á»£
Ġn Ãłi
id el
Ġs he
ĠM á»¸
ĠÄĳo Ã¡i
ed er
Ġ16 00
B áº¿n
ĠTr iá»ĩt
ĠSp ace
30 4
ĠèĪ ĩ
ins tein
H e
ĠA sp
M al
t iÃªn
Ä «
f u
ĠMod e
Ġhá» Ľ
13 9
ĠK IM
uck er
Ġtrai ler
à¹ ĳ
Ġ19 59
Ġht ml
D ONG
ĠBund esliga
ĠAcad emy
M u
è ¿
ĠSun rise
B i
ĠÂ ®
V Æ°á»Ŀn
ĠG ate
ĠJo e
Ġ\ (
Ġmeg apixel
Ġ15 6
le ar
Ġm etro
ĠSh er
ĠB á»į
ĠK Ã¬nh
ĠÃĲ Ã¢y
ĠFire fox
ĠS apphire
ĠMe an
do wn
Ġm Ãłnh
Æ°á»£ i
d ao
ħ u
VN ÄĲ
Ġç ´
ĠAnton io
ĠnhÃ¬ u
ĠåĪ ĩ
Ġç¶ ĵ
Ġn ote
ĠC E
2 888
Ġp ort
ĠB ent
ĠTh Ã¢
Y M
Ph áº«u
uy a
p en
t Ã¹ng
Ġ14 4
ĠJ BL
ĠÄĳ anh
M á»ĳi
ĠVes pa
ĠèĪĩ dá»¯
le ng
m ien
ĠR in
ĠTh Æ°á»Ľc
Ġåı Īhá»±u
ĠCom bo
w ah
Ġcon cept
ĠDH L
ĠTh Äĥm
ĠCiv ic
ĠB ale
ĠHá» ¢
ĠPok emon
ust ic
ĠTh is
Ġqu á»ī
p os
Ġg et
á» Ĥ
ph er
,âĢ¦ )
ĠB á»ĵng
Ġæ ħ
Ġtá» £n
Kh ung
Ġl á»ķ
ĠB ali
ĠHá» Ĩ
Th Æ¡
ĠR Ãºt
h n
ĠRom an
v ision
lad esh
v ien
Ġch áºŃn
11 4
Ġnh Ãº
ĠNGH á»Ĩ
ĠG H
ĠT áº¬P
ĠQu Ã¡i
Ġf ake
: âĢľ
Ġn en
Ġk V
Ġb áº¹p
ĠSev illa
ĠNg Ãłn
ĠH áº»m
á»Ķ I
ĠJ oh
~ ~
ĠAc cess
Ġc á»£t
Ġsho pping
qu Ã½
ch Æ¡i
ĠXV I
Ð°Ð ¼
ĠFeder er
ĠP etro
ĠHill s
ĠÄĲT QG
ho u
Kh á»ĳi
ĠR áº«y
Ġre al
ĠVirgin ia
æľ Ī
ĠÄĲHQG HN
Ġkh Æ°
ĠL áº¡y
om et
p ly
Ġnh á»ĳi
ĠÄĲ ao
ĠHOT LINE
ĠD á»¥
ĠTr o
ĠY ong
ĠL áº½
TT T
Ġ Ã¡ng
Ġ ebook
ĠT NDN
Ġm un
ĠP y
ĠC over
Ġnh áº£m
Ġr Æ°á»£t
ĠÐ ·
Ġnh Ã²e
Ġæĸ¹ phÆ°Æ¡ng
ĠåĲ Į
igr ave
ĠV OV
S Æ¡
Sing apore
Ġh uyÃªn
h Ã£y
al ur
ĠPhil ip
c n
ĠC opy
ĠOff ic
ĠPr es
ĠEl ite
S how
Ġng á»Ľt
x Ã¢y
ĠM á»ĺT
Ãģ I
Æ¯ NG
ĠAm sterdam
Ġá» ¨
ĠMess enger
ÃĴ A
Ġm al
R T
Įh áºŃu
Ġ09 03
ĠSim on
Ġk Wh
Ġw ho
ph iÃªn
ol as
L Ã´
ĠT NG
ĠL á»ļ
ĠÄĳá» ±
Ġ3 40
s ong
Ġus er
ĠMo z
ĠèŃ ĺ
Ġç¾ ©
Ġ13 4
Äĳ Ãªm
v Æ°Æ¡ng
Ġgiá» ħu
ig e
Ġbl ack
Ġph am
Ġun lock
ĠInd ex
ĠåĪ Ĩ
l ai
th á»§y
ĠCo ol
Ġr áº·ng
cast le
ĠB eta
ĠH V
Ġh p
Ø ³
25 6
B iáº¿n
Ġå¾ ĮháºŃu
ĠðŁ ĻĤ
ĠSc ott
Ġx á»Ľi
Ġmá» Ĺ
ĠC ad
ĠV ersion
ĠH á»§y
Ġkh Ã²
v á»£
er ing
Ġx Ã©o
ĠL ist
ĠG ÃŃa
ĠTH á»°C
Ġg ene
ãģ ¯
ĠCon te
ĠJÃª sus
A U
m ad
fe ng
Ġhá» ¯ng
ĠW W
ĠMan agement
ĠM ade
Ġ19 61
Ñ ĸ
ĠK id
ĠCh anel
Ġchá»Ŀ n
ĠæŃ £
Ġgiá» Ŀi
G u
Ġbuild ing
æ Ģ
ĠT Iá»ĢN
ãģ Į
K iáº¿m
St ar
Ġkh á»Ŀ
ĠÄĲ áº¶T
Ġf irst
ĠThu Ã½
t om
ĠD ark
ĠL áº¡
Ġl Ã¯
cá»© u
Ġç ·
Ġng an
ĠQu ick
w ar
Ġh áº¹
13 8
ĠD un
Ġe kip
Ġl Ã³
á»¥ a
tr ans
Ġs ky
ĠD et
ĠB U
Ġrem ix
30 5
Ġæ ²
im i
Ġt v
ĠP ixel
ip e
Ġç µ
Ġb est
ĠT Æ°Æ¡i
ro i
ĠS ize
0 50
Ġ19 55
ĠO il
ÄĲ Æ°a
ĠAd idas
ĠX Äĥng
ph ia
ĠD iá»ĩc
Ch á»ĳng
Ġ< <
ĠA TP
l Ã£o
ĠK al
ĠH Ãºc
is k
Ġ Ã¬
m á»¥c
ĠTN CN
Ġwin dow
es p
14 5
Ġv it
Ġæľ¬ bá»ķn
Ġs Ãªn
3 10
ou gh
m edia
nh e
á»ĺ NG
Ġtest osterone
Ġn áº©y
ivers id
ĠéĸĢ mÃ´n
Ġhá» ±c
ĠB N
ĠâĢľ .
B TNMT
M áº¡ng
Ġd Æ°á»£ng
Ġå Ĵ
Ġnh Ãºc
off ice
ÐµÐ ´
ÄĲ Ã¡m
Ġv er
12 9
Ġkh Ã¹ng
ĠD Ä©nh
ĠG R
ĠPro tein
N a
ĠTH á»¦
con om
ĠMa ch
ot in
Ġ14 1
ÄĲ áº£m
Ġlo t
Ð° Ñı
ĠGÄĲ PT
Ġg á»ĵng
k av
Ġo ur
ĠåĲĮ Äĳá»ĵng
chu áº©n
ĠChá»§ ng
ĠSett ings
ĠN oi
ĠÄĲ áº¤T
Ġ) #
ĠF us
se ido
Ġ13 1
ĠTh á»±
ĠLAO DONG
ch á»įn
rol imex
ĠMaster i
Ġg á»įng
L y
ÄĲ á»Ļc
t xt
ĠGl ass
ĠĠĠĠĠĠĠĠĠĠĠĠĠĠĠĠ ĠĠĠĠĠĠĠĠĠĠĠĠĠĠĠĠ
ĠDis play
Ġhorm on
B I
Ġh uÃ¢n
ĠH p
ĠD ak
Ġtru á»ĵng
ĠComm un
ĠT un
an na
ĠåĪĩ thiáº¿t
ĠåĪ ¥
ĠK eo
Ġmá»ī a
à ¥
Kh Ã³
ite ch
ĠFran ce
ch at
our ce
Ġgi Å©
ĠG á»ĳc
Ġcock tail
ĠV á»ļI
45 6
Ð° Ðº
Ġnh Ã¡p
l ip
Ġp ic
Ġta l
ĠG ro
ĠN D
n ie
Ġmag ie
c p
le ft
B á»ı
Ġè Ĳ
ifi ed
ĠP au
ÄĲ áº£o
ĠK ane
Ġg Ãłu
68 5
199 4
C áº¯t
Ġ6 000
ĠR M
Tr Æ°a
Ġth áº£nh
Ġpro file
ct or
Ġn itr
ĠTH A
ĠA TTP
âĢ ²
ap er
ĠâĢĶ âĢĶ
ĠTh ink
do ch
tr á»ĭ
id i
ĠÂ» .
16 5
ĠCB CNV
ĠTr Ã¢u
IC A
th á»į
ç¥ ŀ
ĠTH á»¨C
áºł C
qu oc
w h
ph y
ĠHá»¢ P
X i
Ġæ ĩ
ĠS ign
ĠPlay er
h ong
Ġph ay
Ġ25 00
ĠT áºłO
M á»¥n
ĠOx ford
D áº¥u
c ord
th ong
t Ã¬m
ok ovic
b iáº¿t
ĠJ ol
Ãģ NG
ĠW ang
F ile
ĠAt t
Ġg ar
G L
ĠCO D
ĠSky pe
Ġlo c
ĠUS S
EL L
ĠH Ãª
log an
Ġoff set
c ert
Ġt ong
ym er
Ġ9 50
um an
ĠUp date
ĠM áº¶T
Ġä¸ĸ tháº¿
Ġch áºµn
ia tion
ĠåĪ¥ biá»ĩt
W D
Ġi T
Giá» ¯
âĢ¦ ;
ĠHD R
ĠBook ing
ĠLib ya
M i
ĠAn ti
ãĤ Ĵ
35 5
ĠGP U
ss on
Ġthu c
ĠBr ad
it ch
Ð°Ð ²
H onda
Ġl Ãªnh
Ġ.. ...
Ġl Ã²i
Ġdi e
ĠX iá»ĥn
ĠP ur
Tr Ã¡nh
Ġd ia
ĠBang ladesh
Ġg arden
ĠT áº¾
N AM
ĠV áº¤N
ĠK oh
ĠKh ay
Ġthá» Ľ
Ġn Ã²i
3 99
ĠSw ift
ĠB ong
Ġ09 1
Ġr á»ı
Ġd z
ĠEd ward
Ġph áº§m
Ġ5 12
Ġc enter
å Į
ĠN oo
C áº¥p
b ac
n t
ĠA lo
ĠmÃ£ ng
Ġ18 5
G O
ĠÂ ©
ĠK iÃª
ĠEliz abeth
á»ĩ p
it su
ĠÄĳá»ĥ u
ĠAp artment
T Æ°á»Łng
s Ã¢n
ĠC lo
á»ŀ NG
ĠÄĲ á»ĩm
Ġc áºŃt
Ġl áº¥m
Ġnghi ep
15 5
f an
w alk
ĠR oss
Ġh Ã³ng
ĠGIÃģ O
ĠV A
l ook
Â ª
Ġæ Ķ
Ġh Ã³i
Ġtá»Ń u
ngh iá»ĩp
Ġr om
ĠDO ANH
ĠÄĥ ng
zb ek
ĠSc an
Ġc á»±a
Ġå ĳ
ĠL ONG
ĠF ul
Nh iá»ĩt
C Ã¡nh
ī ²
ak ia
TH ÃĶNG
r ome
ĠS ay
al ia
EF L
el ect
ĠF ind
ĠV ivo
ir in
Ġho áº±ng
áº® T
T uyáº¿n
ĠTCT D
m x
36 9
ĠSp ir
v Å©
ĠCÃģ CH
Ġx iÃªm
Ġcook ie
en ix
ĠR est
H U
g s
Ph áº£n
ĠEn d
ĠCH UYÃĬN
Ķng Å©
ĠK G
ĠWilli ams
ĠF ern
I s
ĠW eek
M Æ°á»Ŀi
Ġst ar
ch áº¯c
ĠC ath
Ġ19 40
?? ??
ĠB ell
ĠÄĲ Ä©a
Ġdi g
ĠTTC K
X T
ĠL áºŃy
m ec
Ġhe ad
ĠFB I
U p
au d
ĩ Ĵ
n áº±m
Ġs á»©t
ĠSav ills
ĠS ud
ĠF el
Ġch á»ĩch
co ver
ĠèŃĺ thá»©c
Ã Ł
ĠNg Ãł
ĠÄĲ I
Ġ ak
ĠT w
L áº¡c
Ġh áº¿n
S un
ĠN ova
ĠNat ure
ĠCh arm
ĠVI E
l áº¡i
ĠH áº¡m
ĠC ali
ĠD DR
ĠAlex and
ĠComp any
á»® NG
id d
Ġthi en
12 6
ĠVal ley
th uá»ĳc
Ġtuy en
Ġv eo
alog en
æ Ĭ
AR E
ĠD evelop
ĠBl ade
Ġenz ym
Ġk now
tr á»įng
Ġá» ª
V H
Ġ09 89
US B
ĠM t
ĠTes la
è ¯
ĠÃ Ĺ
ĠNh á»±t
C Ã¢n
V an
ĠI v
ĠTr Ã´ng
ĠT á»ĲT
ĠM uá»ĳi
Ng hi
Ġx sm
Ġr á»¥i
TT XVN
ĠM ic
ĠCh eng
ĠMos kva
13 3
ateg ory
qu Ã¢n
Ġç¾© nghÄ©a
, [
st yle
ĠHaz ard
H áº¡nh
% -
l ay
Ġph iáº¿m
ĠSer bia
ĠAndre w
48 5
ĠHel lo
ĠRo lex
Ð°Ð ·
Tr iá»ģu
Ġ! !
ĠE RP
ĠN ÄĲ
ĠKh Ã´
Ġäº ĶngÅ©
UYá»Ĩ N
ĠP ack
ĠPer fect
giá» ĳng
Ġt uáº¥t
12 00
Ġhá» «
ĠS ad
c Æ¡n
Ġt Ã²ng
ĠÄĲ un
tin ental
f ore
Ġr iverside
H en
Ġd emo
ĠVict or
18 5
s Ãª
nh Ã¬n
M D
Äĳ áº¹p
R em
ĠH áº§m
ĠLÃªn in
ĠC Ã´i
ĠTr eo
á» ¶
ĠSt ate
Ġr á»£
X á»Ń
d uy
Ġ19 2
ĠNg á»įn
ĠS ale
Ġcarb ohydr
Ġæ ¥
Ñ ī
ĠKH ÃģCH
ĠMo unt
**** ****
PT PP
ĠXS MT
k or
ãģ ĭ
T G
ol ic
t Ã¢n
b ai
Ġæ ¯
D iá»ĩp
ut t
f ix
Ġn Ã©p
ĠL TE
h ad
b inh
Ġm ust
ĠM Å©
eo t
ĠBre xit
Ġgi áº§u
Ġr Æ°á»£i
ĠL á»ĬCH
om on
m at
Ġm asc
Ġr áº¡c
Ġh el
á»¥ m
5 20
ĠAS US
Ġsup er
68 6
ĠKh Äĥn
ĠK P
ĠCN VC
Ġng á»Ĺng
ĠV Ã¡ch
ĠPar ad
ĠH eo
Ġáº¤ m
ois ong
tr á»±c
ĠVn Express
æĺ ¯
è ½
o T
iv ing
Ph Ãºc
b á»ĳ
Ġå¤©å¤© ä¸Ńå½©ç¥¨
ĠB á»īnh
ĠLan ka
199 6
ĠT Ãły
ç ł
Ġs te
Ġtho m
Ġt ar
Ġc lo
] ;
ĠChu Ã´ng
zbek istan
Ġf re
Ġå ¢
ĠNh áº£y
Ġz ip
ĠG ard
AN O
y áº¿u
' :
ĠS Ã¢u
Ġhu ong
ĠæĦ ı
ĠM á»¥n
v Ã©
ĠkhiÃª ng
V áº»
ĠZ e
TP HCM
h d
ĠSp ark
ĠIr is
I m
40 4
ĠF o
ĠCS S
F TA
Ġè ĳ
ĠÄĲ áº£n
ĠS uk
Ġa xÃŃt
B Ã£i
co py
ĠS AO
Ġèĩ ³
TT TT
au ty
Ġg Æ°
ĠÄĲ áº¡m
B Äĥng
ĠB ou
Ġl es
r d
ĠL IÃĬN
ĠNew castle
ĠA pr
c in
Ġæĸ ĩ
Ph Ãºt
ĠPh áºŃn
æ Ń
ĠN DT
ĠDe f
ĠB á»Ĭ
ĠÄĲ iá»ģm
¿t iá»ĩn
ad ow
ĠDN NN
Ġn á»įc
Ġçķ Į
è ¡
ĠMar x
Ġä¾ ¿tiá»ĩn
ĠÄĳ Æ°á»£m
ĠH E
ĠNh ai
ĠVietin bank
v á»¥
Ġc ase
Ġn á»Ļm
ĠNg Æ°Æ¡
ĠD á»ĩt
ĠKho ai
ĠSu arez
ĠHy dro
ĠTR á»Ĭ
ab ase
ĠSer um
amin ate
ĠTr á»¥c
Ġword press
Ġ3 70
ot er
Ġ09 33
Ġk n
R oy
ĠTr áº¯c
01 9
enn a
ung e
Ġv Äĥ
im b
ĠT á»°
ĠT á»¬
2 99
ĠGal a
ĠCle an
Ġex cel
t uyá»ĩt
ĠVIá»Ĩ C
g ate
Ġ19 57
ĠN á»Ńa
ub lish
ĠW HO
ĠSo áº¡n
ç Ľ
t n
ĠXU áº¤T
Ġh áº»o
AS S
ĠCh at
Ġtá»§ a
âĸ ª
an th
L Ã²ng
Ġm Ãºn
Ãĥ I
Ġx xx
ĠDj okovic
J I
c á»±c
ĠL ew
Ġwh at
M en
Ġec op
ĠH ans
PL O
Ġ Ã³
u ise
Ġn Ã¡
Äĳ á»Ļi
ĠM AC
k áº¿
ĠR á»ĳi
Ġc Ãµng
C Æ¡n
Ġp orn
ĠElec tron
ĠæĦı Ã½
ĠT iá»ĩc
25 3
ĠGam uda
2 19
Ġkh am
ĠCh oi
D Æ°
Ġbi et
ĠChi ang
g es
Ġ Ñĥ
c at
ĠE L
22 8
H áº¡n
Ġv ao
im et
th ouse
âĢĿ ).
Ġá» ¦
ĠK in
Qu á»³nh
c ut
ÃĬ M
nh ouse
app e
ĠP LC
ĠK ent
ĠGi l
low er
ĠVP Bank
R ob
Æ¡ c
áº¤ U
ust om
crip tion
Ġsu Ã¢
Ġn á»Ľt
ĠÄĲ Ã³n
ĠDu c
ĠN CT
kho a
ĠB ot
ĠB áº¡t
b Ã¡nh
$ .
ir ates
ĠS ap
st ant
ed oisong
Iá»Ĥ U
Ġèĩ³ chÃŃ
Ġ09 36
å Ĩ
Ġs ieu
ĠSte phen
ĠT áº£n
ĠC ort
ĠÄĲ á»§
ck y
ĠCon s
Ġan alog
b iá»ĥu
Ġm ob
ĠNg á»±a
18 9
ĠcÃº n
Ġm áº£
19 54
ĠW olf
ĠHá»Ĺ n
aly t
y es
ĠB Ã´i
ĠW ild
ĠçľŁ chÃ¢n
ī é
Â ¸
á»Ĳ ng
7 68
Äĳ áº·t
uts al
Ġb iáº¿m
ĠE sp
h h
ĠM á»ģm
ĠM iáº¿ng
Th ang
Ġi Cloud
ĠGi Ã´
ĠLim ited
H áº±ng
cm s
ĠCh iÃªn
C Ã¡p
ĠTh aco
4 60
Ġv Ã³n
Ġthá»ī u
ĠR ating
ĠE P
Ġn á»©ng
áº½ m
H Ãłm
Ġph Ã²
Ø ¨
Ġ ãĥ
ĠKh Ã¡
pl us
Ġs ulf
Z U
Ġcu á»ĵn
ĠÃļ y
ĠH ub
Ġr Äĥm
en o
et ho
Ġno el
Ġr inh
ch á»ĵng
ĠLion el
Ġl ien
Ġl Ã³a
ac et
ĠCr ime
Ġr ub
ĠCA D
Ġto ken
ĠN L
Ġhá» ¡i
th iá»ĩn
ĠO g
Ġc or
An d
Ġ er
Ph Ã¹
ver t
è Ĥ
Ġac count
el o
3 15
30 9
13 6
Ġp anel
ĠS AM
ico id
g em
ĠB ull
ĠF OR
Ġdi eu
áºµ m
ab o
Ŀ nh
áº° NG
Ġ á»«
Ġ14 7
ĠC áº¡p
ĠSur face
Ġl at
ĠR áº¡ng
K iÃªn
kin s
v áº¡n
24 2
29 4
ĠE T
V ai
Th Ã¹ng
H uyá»ģn
14 9
ĠD ÃĤN
c anh
ch á»§ng
ĠPh áº¡n
d iá»ĩt
ĠÄĲ ÃĤY
Ġfe et
ĠTr Ã¡ng
h á»ĵi
Ġtr ader
ĠSal ah
av i
ĠTr an
ĠRep ort
ĠB D
In ter
6 60
Ġl ight
ĠN iÃª
Ġr ed
ĠIn sp
M t
ĠÄĳ áº§n
ĠCh Ã¨
Æ¯ á»Ľc
Ġl Ã²a
ĠG reat
it hi
l á»±c
Ġi Pod
Ġph om
re f
ĠN ev
ĠL á»©c
ut en
A ir
ĠCH DC
ateg ories
Ġ14 8
ĠT á»ĵn
ĠS ter
Ġelec tron
ĠFound ation
ĠD er
ĠNG UYÃĬN
ĠAP I
ĠV ic
ç ľ
ur r
ĠHold ings
Ġf ace
ĠQ R
ĠI mp
ĠHill ary
å İ
nghi ep
M Ã¡i
uck s
ĠN ow
ro ad
ĠN ASA
ÄĲ N
V á»ı
to ck
ĠAl an
ua ge
ch áº¿
ĠC áº¦N
" ><
une i
t ÃŃch
ĠPh nom
Ġn ylon
ĠE vent
Ġlá»ĭ m
Ġk il
X Æ°á»Łng
ĠD D
ĠA xit
ĠHe art
k ov
Ġm Ã³m
Ġng á»ķn
nh Ã³m
ĠTr ue
ĠColumb ia
n á»ģn
tr uyen
5 70
ro g
Ġæ ł
13 4
199 3
ĠR yan
ĠNg oa
m á»įi
' m
ĠNh áºŃm
ul es
14 8
88 0
ag an
Ġan y
ĠU zbekistan
Ð¸ Ðµ
12 7
TE CH
ĠL C
ĠR iversid
ĠEU R
ĠAl aska
kh ÃŃ
T iÃªn
Ġsy stem
l á»Ļ
Ġth áº·ng
ent e
m Ãª
Ġgi Ã£y
ĠLu kaku
ĠAM D
ucker berg
Ġh em
Äĳ Ã¡
Ġw a
os ph
Ġå ¼
ig u
ĠC oll
l ar
ĠMar ie
6 90
Ġ č
ĠTar ot
Ġh ien
ame x
Ġlives tream
ĠÂ ±
Äĳ á»įc
ĠDN S
2 15
ĠE ner
p et
n s
Ġ2 15
Ġsl ot
ĠSi em
Ġc ream
kho edoisong
qu es
Ġkh Æ°á»Ľc
ro ugh
Ġng Äĥ
Cl ip
m ing
ĠÃģ ng
t á»ĭnh
Ġ-- >
Ġr á»©t
od o
Ġson y
g us
r Ãºt
tr áº§n
ĠAl tis
Ġv Ã¡i
ch iá»ģu
Al bum
ĠR á»Ļng
iac ute
ep p
24 5
ãģ Ĩ
å ĩ
ĠH anh
ĠÄĳ Ã¹m
ĠN xb
Ġlá»¥ i
Ġl Ãµng
Ġr Ã´ng
Ġd áº¹t
Ġs s
Kh ÃŃ
ĠC ay
tr l
ĠF amily
ĠNH áº¬T
ĠB urn
ĠCast ro
ĠHá»į p
ĠLib er
Ġ Æ
Ġ09 16
Ġ14 2
Ġæ »
è §
Ġå £
ĠKy oto
ĠD Æ¯ÆłNG
... âĢĿ.
ĠNh au
ĠJenn ifer
r ac
ĠMetro pol
ipp o
ĠCh Ãł
Ġngo áº·c
D e
Äĳ á»©ng
av es
ĠÐ ¡
eth anol
Ġ à¤
Ġthá»ı m
t ot
ĠP enn
win dow
ĠPh un
ĠTR Ãį
Ġr áº¯m
ĠVP F
rus h
ĠGr aph
d at
Ġg áº«y
ĠA re
Ġs ushi
ĠA Z
ch Ã¢u
ĠL atin
ĠD im
ĠNad al
ol et
Ġtr á»ģ
¶ ÄĳÆ°Æ¡ng
Ġt uá»ĳt
ĠGI áº¢I
ĠG iáº¿t
ÄĲ Ãª
ĠTIáº¾ T
= âĢĿ
ol ution
Ġèı ©
á» ĸ
Ġgh áº¹
Ð¸Ð ¹
ho i
ĠEd en
Ġr Ãº
g roup
b Ãºt
Ġ14 9
M áº¯t
Le ave
ĠD áºªN
23 8
ĠHo áº¡ch
å ±
Ġthu oc
ĠOpt ion
Ġc re
ĠAl t
D Æ°á»Ŀng
14 4
22 9
W S
ĠTo ol
ĠT ÃĤN
nh Ã£n
Ġc á»Ĺi
ĠP B
k ÃŃp
6 80
Ġhy undai
3 75
ĠD ien
! ?
c Æ°á»Ŀi
ĠKh iáº¿n
X anh
Ġin d
Ġ3 10
ĠCorp oration
6 20
/ -
Ġcar ot
Ġc á»Ł
ĠT UYá»ĤN
Ġr Æ°á»Ľi
Ġtu á»Ļc
áº® NG
Ġ Ãºc
Ġd á»ģn
â Ĺı
Ġw ax
X L
ĠK N
Ġgh á»ģnh
am ford
ĠD Æ°a
Ð ¹
ĠU AE
ĠCh uá»ĳi
30 8
N ext
Ġnh Ã¡o
Äĳ á»©c
ĠSh ang
Â ¶
Ġn eed
Ġx Ã¹m
Qu á»¹
ĠÄĲ Äĥ
T Ã³c
19 5
Ġr áº£
ĠL áº¯c
Ġ09 12
. ]
ĠÄĳ Ãªn
ĠC Ã²
Ġlo Ã¡t
ĠN y
ĠF ur
K L
ĠNh am
Ġw c
col n
ly cer
ĠKh Ã¢u
Ġu á»ĥ
h cm
A ll
th áº¯ng
R Äĥng
CH C
ĠT iáº¿c
ĠHe ad
Ġ3 01
ĠR ON
Ġin t
ĠK um
or ama
ĠGam ing
Ġ und
int age
Ġx Ã©n
16 9
Ġal u
Ġçķ ¶ÄĳÆ°Æ¡ng
ĠÄĳ áº±m
l t
Th áº¥t
ord s
Ġw idth
n ien
Ġpro ject
Ġr uá»ĳc
ĠN est
asp ers
p or
ĠSun wah
Ca fe
S cript
av on
w c
th Ã¡i
ĠL K
Ġåħ Ń
ĠMa j
S c
ĠTh Ã¡ch
ch ure
at eway
Ġ14 3
ĠGIá» ļI
ĠRoll s
ĠCh en
Ġl ag
ĠB ir
10 80
ĠthÃŃ a
v áº«n
ĠKh Ã¡n
Ġd Ã´
Ð¾ Ñģ
Ġh ist
Ġ13 7
Ġav atar
BH XH
m ore
ĠCoun ty
l as
ĠCh Æ°á»Łng
ĠF al
ĠJ ay
ind ex
Ġï ¼
ĠN Ãºt
es ar
Ġ15 8
l im
ĠK om
ĠK á»¸
ĠP OS
25 65
Ġr áº¡
ĠCH U
F r
Ġp oker
L c
O B
U y
Ġtho ang
Ġt Ãłnh
Ġr á»£p
Äĳ un
M áº¥t
ĠLu Ã´ng
Ġh ieu
7 90
ĠAmi A
ĠE c
ĠCle ar
Ch á»¯
Ġè ĸ
Bl ack
gi Ã¢y
f urt
ĠI van
D ÄĲ
Ġres et
f unction
ĠKh en
Ġo x
ĠT Ã¡n
L ife
ĠB ÃĢI
ĠL Ã´ng
19 88
Ġgi oi
Ġtu ong
ĠLan e
Ġèı© Bá»ĵ
Ġm ov
z an
C ard
w orld
Ġ19 8
Ġ3 90
k V
ĠH ak
ĠÄĲ O
ĠÄĲ Æ¯á»¢C
ĠS ent
dr ess
G Æ°Æ¡ng
ĠI NT
ĠF ans
XH CN
Ġph iá»ĩn
ĠA G
Ġtu Ã¢
Ġc Æ°u
8 90
ĠH ab
Ġo b
ĠRO M
ĠZ uckerberg
ĠH ard
ĠPan ama
ĠSoft ware
ĠK L
ot ic
ĠK et
Ġ| |
ĠE un
Ġr outer
ĠLand mark
Ã© e
ĠGen eva
R ao
ĠY ÃĬU
Ġs it
Ġ4 30
ĠB oss
Ġus d
ĠV Ã¡n
Ġtr end
sen se
Ġlu m
Ġhero in
C Ã¡n
h á»Ļp
qu áº£ng
Ng Å©
N Äĥng
ĠÄĳá»Ŀ n
Ġg áº¡c
23 9
ĠPr ess
ĠSaf ari
ÄĲ áºŃu
Ġhe he
Ġser vice
Ġæ ¸
ĠMi ura
Ġt ip
ĠAd words
ĠJol ie
ĠC CB
ĠK pop
ĠdÃ¹ i
omat ic
n os
á»ĥ nh
Ġx iÃªu
14 55
ĠJack pot
ĠTr ÃŃch
ĠæŃ£ chÃ¡nh
ex press
14 3
ĠH ÃĴA
á»ħ u
7 60
28 5
»kh á»©
Suc khoedoisong
ĠmÃ´ tÃ´
ĠLip o
ĠM is
ĠV áº¿t
ĠJ ane
Ġvá» ĵ
ĠS F
ĠD Ã¡n
17 9
h p
Ġ14 6
7 80
ĠQu oc
Ġgu á»ĵng
ĠRead ing
Ġnháº½ o
O K
Ġ Å
ĠS lov
Ġéł Ń
ĠM áºłI
p ark
ĠB alo
ĠS ens
Ġeng ine
ĠV G
ĠÄĲ Ãºc
4 70
ĠM ik
ĠMer kel
ĠL N
Ġåİ »khá»©
6 29
ĠKH O
ĠK iÃªu
Th áº£m
Ä© u
A sia
p al
Ġs á»§i
ÃĥÆĴ ÃĨ
Ġæ ¨
ĠJ ust
0 80
c enter
ĠHo p
ĠLy on
19 90
D á»ħ
ĠC áº¦U
ĠH in
ĠT áº§u
d uong
ĠP CT
th ÃŃ
ĠN A
un o
ĠÄĳ Ã¡t
C ol
ĠA j
Ġ15 3
al d
Ġæ ı
. </
Ġt iá»ģu
ĠH á»ģ
12 4
Ġh is
ye ong
ĠA IDS
ĠBr unei
ĠTNG T
ĠÄĲ iÃªu
ĠthÃº y
AT E
av y
ĠJak arta
Ġho k
ĠLU áº¬T
ĠTO EFL
ĠLa z
nh áº¡c
ĠchÃŃ p
Ġå ¡
Ġt Ã¢u
Ġre ad
oc o
c ute
Qu á»·
Ġhá» Ľn
tr áº£
T Ã¡t
tr á»£
l us
Äĳ au
k ÃŃch
N Ã´ng
ĠPh Ã¡n
Ġ17 8
Ġn Ã¡u
ann y
Ġmod e
V Æ¡
t Ã´n
20 8
ĠChap ter
Ġvacc ine
th an
che on
Ġæ ¼
ĠD eb
Ġn Ã¢
ĠHO A
ĠB kav
ing ham
b ul
Ġc ross
ĠG CN
Ġ16 7
âĢľ ,
ĠV Ãłm
ĠéłŃ Äĳáº§u
Ġgr and
4 30
ĠEther net
ĠB QL
[ ...]
5 60
il ter
h iá»ĩu
ĠV Ã¢
ĠLo w
Ġhá» «ng
ĠBec kham
ĠT iki
Ġba king
co u
Ġhi hi
ĠM Äĥng
G old
Thu Ãª
Ġ Ãº
ar us
ĠW ave
ĠâĢľ âĢ¦
lo pp
ĠUV B
ĠR eb
ĠSh im
ĠAd vanced
Ġc c
Æ°á»Ľ m
ĠP att
ĠGr am
å¼ Ģ
ind er
ĠP ink
á¹ Ń
ie z
B et
ĠC Ãły
B áº¥m
ĠM Æ°u
Ph a
th uc
Ð» Ñı
ĠR h
ol ate
. âĢĭ
Ġhá» Ľt
19 30
ĠB á»¥t
ĠX ÃĤY
Ġgi Ã²ng
ĠH ik
ĠC isco
ĠJun ior
ĠTIáº¾ P
in ner
S te
ĠtÃ¹ m
ĠJe ju
Ġb áºŃp
EW S
n iá»ĩm
V Æ°á»£t
ĠFant asy
ĠGi ov
Ġ09 37
ott i
ĠÃĲ á»ĵng
Ngh á»ģ
ĠManh attan
Ġv áº¹t
K E
ĠJ ar
ĠJ P
Ġ ang
Ġh áº¥n
ĠTR á»Į
ĠDy nam
ĠH ad
ĠNgh Ã©
ab e
Äĳ t
Ġv Ã¹
Ġ( "
H Æ°ng
ng á»Ļ
ĠVÃĢ O
Th á»©c
us alem
T áº¡m
ĠS Ãª
Ġsu ong
Ġp atin
ch ange
N iá»ģm
S u
UB G
Ġso ur
alur onic
Ġs áº¯ng
. âĢĻ
p ic
l ao
ĠBank ing
lo y
B R
T I
ĠNg áº¡o
ĠW ikipedia
ĠX EM
ĠV ers
ĠP IN
ĠéĢ ļ
h á»Ļ
lu áºŃn
7 70
Ġnh Ã²m
ĠM ult
ĠNG O
ĠÄĳ t
Ġf uck
ĠB ad
å¥ ĸ
m icro
Ġs áº¡p
Ġro om
6 88
ĠM X
tr áº»
B áº¥y
ĠE ast
2 75
ro v
ĠNam e
G Ãł
Ġ19 47
ĠL Ã¡t
Ġph Äĥng
ä¸ į
it ude
Ġla v
Ġb al
ĠD z
ĠBL HS
ĠiT unes
ine a
ĠH Iá»ĨU
Ġå Ģ
ĠHD PE
le ep
ĠM BA
ĠF ilm
Ġ15 1
Ġ19 49
ho ang
L H
ĠP av
Ġçļ Ĩ
K Ã½
v ua
Ġth iáº¿c
Ġph in
ĠP os
ĠTh iá»ĩp
ĠK oi
2 18
to wn
ĠT ia
ĠNH áº¬N
ĠLog istics
Iá»Ĩ M
d Æ°Æ¡ng
33 9
ĠD Ã¡ng
ĠÃĲ áº£ng
OT O
ĠX s
ĠR Ã´m
se arch
ĠD R
f ort
ĠCHDC ND
Ġqu áº¡
ĠHo w
xx x
Ġtr áº«m
c ac
ĠSun ny
Ġb ÃŃnh
Ġb s
Ġth iá»ĥn
Äĳ en
ï¿½ ?
ĠComp uter
ĠJu an
Ġth Æ°á»Ľt
Ġç· £
B us
ĠS witch
ÄĲ á»£t
ĠMcC ain
ĠS QL
Ġp e
ĠP ul
D áº¡y
66 9
ĠD áº£i
ĠX Ã³m
Ġn á»©a
Ġç¬ ¬
Ġtá» ħ
ĠAb d
ĠParad ise
c ia
l at
p n
ĠOp era
ĠT otal
Ġç¨ ®
up er
Ġso t
Ġ5 20
ĠKho Ã¡i
ĠC Äĥng
ĠS hip
S al
ick s
ĠC au
C Æ°
Æ¯ U
åĽ ¾
ĠçļĨ giai
ĠTu á»³
Ġc nc
Ġ19 53
B ET
ĠV iv
c or
å ¯
b b
ĠS us
Ġ17 6
h m
Ġn anh
Ph Ã³ng
Ġdá»¥ m
19 8
ĠFranc is
2 16
th Æ°
Ġg Ã¡p
ĠIn ax
ĠH Y
Ġb áº¹
Ġè¦ º
Ġsk ill
ĠChar lie
s un
ĠnhÅ© n
Ġb ol
Ġmua ban
ĠB á»¥i
ĠAd vent
Ġw ay
ĠHO ÃĢNG
Ġcol or
ĠAl bert
Ġx á»ĳt
ĠM Ãłng
ĠF idel
ur ch
ĠA er
ĠResid ences
ĠI g
ĠY áº¿t
Ġch á»Ľm
Ġop en
â Ī
Ġd Ãł
T á»©
ĠSp r
M á»Ļc
2 68
Ġqu áº·c
ĠL ak
ĠTr á»©
ĠNik on
M aster
an et
ĠSc ar
ÃĴ N
Ġch áº¡c
ĠÄĳ Äĥm
Ġ6 60
Ġwh ite
M M
ux e
ĠMax Mobile
aspers ky
nh áº±m
20 3
ĠPet rolimex
Ġsup port
l ib
ĠAnd y
Ġ Æ°Æ¡
KV ÄĲ
B o
amb oo
Í ģ
ĠReview ed
giá» ¯
ð Ŀ
ĠN ÄĤNG
ĠH á»±u
ĠR C
\ )
ĠF at
Ġb reak
ĠLin coln
s á»©c
v Ã²ng
ĠL iá»ģu
ri er
im age
á»£ ng
00 2
ĠÄĲ á»ĳt
Ġst ud
d á»¥c
ĠHit ler
ÄĲ inh
D á»ĭp
ĠÐ ļ
ĠÐ Ł
Ġ. âĢĿ
ĠD ANH
g Ã²n
ĠP ure
ai se
ÄĲ S
S mart
ox ide
ĠKH U
ĠKore an
Ġng Ã¢
ĠÄĲ Æ¯á»ľNG
ĠM E
Äĳ Ã´i
27 9
Ġtr an
ĠM á»ĭch
Ġnh ieu
ĠMb appe
ic ation
24 6
ĠT á»ĳn
Ġsilic one
ĠTe en
car at
ĠA ff
ng Ã´i
Ġw on
ob ay
s Ã´
ĠTR áº¦N
ĠPro duc
Ġac c
is try
ĠTá»Ķ NG
m al
ĠCarl os
Ġd iáº¿t
Ġmag iÃª
( '
Ġgh á»ģ
eb er
ĠV B
l Ã¢m
66 5
l á»Ŀi
ĠthÃŃ m
thi s
Ġas p
Ġch ar
13 7
v ip
ĠL áº·p
T Ã¡i
Ï Ģ
ĠT F
Ð¸ Ð¼
ĠHu Ãª
Ġph áº©y
ĠBH TN
ŀ tÃ¹ng
art z
Ġdes ktop
ĠLat inh
th y
Kh áº£o
ĠTr Ãło
Ġ18 9
Ġcl ub
30 3
ĠLÃ£ m
Ġèģ ŀ
Ġm á»ĳng
an te
Ã© s
ite ct
4 01
³ t
á» ²
Ã¨ ng
Ġmasc ara
ĠL is
ĠÄĲ Iá»ĢU
ĠK ay
Äĳ Ãło
B log
ng on
qu ot
H an
k an
ĠDe ad
ðŁ Ĵ
ĠTh er
ip an
Ġt Äĥn
eb ra
ib ar
as ia
v á»įng
Ġ15 4
ÄĲ Ã³ng
Ð ¶
Ph á»¥c
Ġm arket
ĠâĻ ¥
G á»Ĺ
g oogle
Ġso l
26 7
ĠDi esel
ĠTH E
ĠM K
28 9
ãĤ Ĭ
\ /
ĠðŁ Ĵ
ĠE N
com p
Ġf un
ĠAb b
: ...
s l
Ç İ
r Æ¡
Ġl áº£ng
ĠS em
Ġk á»īnh
ãĤ ĵ
Nh Ã£n
k it
Ph ÃŃ
Ġç¨® chá»§ng
Th áº¡ch
38 6
áºł M
Ġè µ·
F e
in am
c umin
Ġtr Ã¡t
Ġl á»įi
ĠNh á»ĭp
ĠMar vel
Ġwhi ch
ĠCrime a
ĠCh áºŃu
us a
Ġd v
ĠK Ä©
ĠE instein
45 5
Ġlay er
ĠTH áº¾
9 60
H áº¿t
N á»ĵi
L G
áºł NG
H uy
act or
r ist
ent a
% );
Ġn inja
z he
Ġ2 75
k et
Ġl á»¯ng
17 8
n á»ķi
ĠU K
Äĳ á»ķi
ch Æ°Æ¡ng
ĠB G
y pe
ĠR onald
Ġac et
T á»Ľ
13 2
ĠAss oc
ĠAnth ony
Ġl á»įn
ĠS ÃģCH
ãĥ¼ ãĥ
B ox
ĠBul g
ĠB Ã©o
Thu áºŃn
Ġv áº±ng
Ch áº¡y
Ġwh en
Ġin fo
Ġçı ¾
V S
v ÃŃt
Ġ att
n ia
Ġn á»ĭt
Ġå¾ ŀtÃ¹ng
Ġç Ī
ĠM om
ĠR um
W A
6 40
ho Ãłng
ĠB O
Ġc áº§y
ĠGI AO
N m
ÄĲ á»Ĺ
ĠCr edit
eral d
ĠHi ro
ĠB á»ģn
Ġhá»į at
ĠÙ ħ
Ġchu Ã´
ĠGi Ãłng
iz er
p eo
Ġr áº¯t
ĠB Ãºn
Ġ19 5
0 24
ĠCh ay
C R
ĠU Y
ĠG ear
19 70
13 1
ĠC and
ĠBro ther
RO UP
it as
od er
K N
20 2
Ġå· ²
ĠTH IÃĬN
i y
Ġsing le
Ġev ery
ĠJer usalem
ĠL X
ĠKy o
UY áº¾N
Dr ive
Ġ19 48
ut an
Ġch á»±c
t áº¿
Ġ20 5
ĠAV G
M iá»ħn
ĠMul ti
Ġb low
Ġin dex
ath on
ĠW onder
p ing
Ġèµ· khá»Łi
ĠTH á»ľI
Ġi u
E VN
Ġb Ã¢ng
ĠéĢļ thÃ´ng
ĠEm irates
â Ĺ
rah im
kho e
tr Æ°á»Łng
ĥn Ã£i
20 4
op hi
u f
Å «
ì Ŀ
Ġn Ã¡y
ĠG in
ĠÄĲ ÃĶNG
Ġ09 78
ĠAN TT
Ġ2 12
5 01
ĭ th
ĠL Iá»ĨU
Ġin st
ĠS á»ĳt
26 9
ĠO t
oy a
sh are
az ine
O ff
T L
16 6
ĠÐ ³
F ord
Ġtho áº¯t
ĠG Ã¬
ĠDr iver
ĠSouth ampton
ãĤ ¹
Ġä¹ ĥnÃ£i
and ah
Ġb ill
Th uá»Ļc
T áºŃn
Ġká»ģ m
ĠÄĲ KVÄĲ
ĠJ ang
ÃĶ n
é ģ
S tr
Ġæ µ
19 63
t es
ĠCH XHCN
Q P
iz z
anc y
Ġå·² dÄ©
ĠRog er
ĠC ot
Ġ2 19
Ġcat walk
U E
Ġprotect ion
20 9
ho ck
Ġph áº©n
ĠH áº¥p
fess ional
p an
Ġv intage
ĠCH LB
ĠQU áº¬N
ĠD E
Ġv áº±n
ĠÄĳá» ħ
ĠL igue
ĠCan nes
! âĢĿ,
Ġx á»ĳi
ĠSt amford
ĠK ÃĿ
Ġlu ong
02 1455
Ġhá»Ł i
Hy undai
Ġth iá»ģu
ĠC Æ¯
ĠA A
ĠÄĲá» Ĥ
w p
ĠSt alin
¢ ¨
b reak
ĠæĻ º
ĠmÃ¹ n
en do
ĠDec al
Ġco ffee
ĠF L
ĠL E
ob a
Ġ0917 021455
ick er
h en
ĠCP I
Ä¨ A
ĠK elly
Ġm atch
il k
ines e
I X
ĠE PS
ĠRang e
n iÃªn
ĠC ash
ĠV ong
Ġç·£ duyÃªn
25 8
ent ai
ĠB attle
ĠFrank furt
Ġq Ãºy
Ġl áº·t
TT O
B NV
ĠÄĲ S
en tral
âĢ¦ âĢĿ,
Ġg on
ĠN ations
00 5
ĠE conom
Ġngh Ãªu
ĠW ireless
M Æ¡
1717 17
Ġgiá» ±t
Ðµ Ðº
ĠMart ial
Ġ20 2
D Ãłnh
ĠCh al
ĠT ÃįNH
Æ¯ á»ŀNG
ĠRes earch
Ġ0907 171717
ĠD áº¡o
G AP
Ġ: âĢĿ
Ġm Ã©
Ġtr áº¥u
ĠK lopp
n ers
Ġho use
ĠH áº³n
ĠN á»ĩm
ĠTh á»ı
ĠCh am
f ps
ast in
Ġsl ide
ĠSe ung
Ġy en
ðŁ ĺ
ĠPH Æ¯ÆłNG
( (
v ang
Ġlo ok
ĠÄĲ Iá»ĤM
ĠOpt im
ur u
3 000
r á»ĵi
v áºŃn
uk et
ĠPier re
g as
d au
Ġpass word
ect ion
ĠNH M
ĠK iss
Ġca che
ĠB Ã¬
cou ver
ĠSlov akia
Ġ16 4
Ð¸ Ð»
p ick
L Äĥng
Ġm á»įn
ĠPr ivate
ĠX Ãĥ
ng á»¯
C are
Tag ged
ĠS áº¡ch
ÄĲ áº§m
ng á»¥
Ġtr Ã¢m
ĠB P
al ty
ĠR ac
ĠInst it
ĠDel hi
S S
Ġthu at
68 9
ĠTr Ã¢
AM C
ĠCB RE
ĠLe ad
Ġn Ã¯
ĠK iev
ĠM á»¤C
kh á»ķ
ĠMus k
Ã© r
Ġ09 75
Ð¾Ð ±
n on
ach us
uá»ĳ m
Tr ÃŃ
Äĳ Ã´ng
Ġs ap
P ay
TH PT
Phi l
ĠPho enix
. /
ĠCh áº©n
Ġp Ã´
am an
25 9
Ġcomp act
30 6
t iáº¿t
ĠL Äĥk
in ter
is ia
Tr áº¯ng
og o
Ġä½ ı
ĠDi or
ĠâĢ¦ ..
Ġdig ital
Ġb áº·t
cap tion
thanh nien
P al
Ġm ade
ien ds
ĠLU áº¬N
l ia
G alaxy
ĠTr ail
G áº¡ch
ĠMar c
th ai
u u
ĠKH OA
Ġçı¾ hiá»ĩn
ĠSil va
Ġth Ã³t
L Ãłn
199 1
Ġè ²
Ġchu n
et ti
Ġto áº¡i
st one
y ahoo
Ġki em
ĠM F
ĠI pad
ĠX iÃªm
á¹ ĩ
ens ion
ĠA TV
Ġdu oc
ou ch
ĠÄĲ Ã¨o
ĠNh áº¹
L am
ĠGuard ian
AR D
ĠSe attle
ch Ãło
ĠR E
Ġ16 6
Ġk ien
ĠAsia d
ĠS W
ame work
ĠGiá» ĵng
u tra
Ġè§ Ģ
ĠB ass
ĠV Ã£n
ĠG á»ĳi
28 6
Ġin verter
Ġh Ã¡ch
ĠShop ee
ĠðŁĺ Ģ
ch ai
ĠT ext
ĠF all
M er
R Ã¨m
ĠC Æ°á»Ľp
ons ai
Ch á»¥p
ĠKenn edy
D onald
ĠB ak
ex e
ĠMuaBan Nhanh
Ġl et
Ġr im
ĠTH á»Ĥ
Ġcu on
ĠF oot
Ġb ec
ĠNh áº¡
M on
ĠG áº¯n
IT Y
ĠÄĳ Ã¹n
ĠAir bus
Ġph Ã¹ng
os o
Ġtu m
Ser ies
On line
ĠO c
Ġtra ffic
ĠB Æ¡i
Î ¿
Ġd ance
19 68
el low
Ph á»ĳi
" -
ĠÄĲ TC
ĠH á»Ľn
ĠTR á»°C
Ġso p
ĠÃĲ Ãł
C ty
l ang
T ÃŃch
Ġchu m
th iáº¿u
ĠSc ience
ĠCit izen
ĠPok er
å¿ «
Ġa f
ĠGer man
ĠCar n
18 6
Ãĵ C
Ġreg ister
Ġc ore
æ ķ
Ġsp ort
K ey
ä ¿
Ġv ina
ac ter
l Ã¡
un ch
ÄĲ á»ģn
ĠS ÆłN
Ġè¦º giÃ¡c
Q uyá»ĥn
v ia
ĠKh iáº¿u
Ġè £
ĠH av
Ġb á»Ľ
f ig
ĠC MT
ĠGa al
ĠTh anks
Ġv Ã¡nh
im ages
od ia
Ġ17 7
ĠI ron
ach e
D áº¡o
Ġvi ec
Ġbl ue
Ġhá» īnh
Ġm Æ°á»Ŀng
ĠSt one
Ġæĸĩ vÄĥn
ĠF ai
ÄĲ á»Ļt
Ġcarbohydr ate
w all
ĠçĶ ¨
Tr á»ĭnh
Ġæ İ
d Æ°
Ġno Ã£n
Ġ24 5
b ut
ĠCar bon
Th á»¥y
8 60
Ġg ui
Ġon ly
ĠP UBG
ash in
âĨ Ĵ
ĠCH Ãį
ĠVi rus
ĠCH UNG
Ġq á»§a
y to
Ġ Ã¡y
Ġt er
ĠÃĲ iá»ģu
T Æ°á»£ng
m Ã¹a
Ġd Ã³
ĠK iá»ĩm
Ġ09 34
ĳ ī
ĠAug ust
W B
Ġkho m
il o
Ġs and
ĠA H
F M
l ich
Ġs logan
ĠW el
Ġtr ack
ĠP ET
Ġåĸ Ħ
Ġ16 2
Ġ17 4
ĠC á»ĺNG
ĠCM C
ĠN á»ĳt
ĠBern ab
s ec
é Ļ
20 6
è Ģ
ĠC out
ĠK V
Ġcu rc
Ġview s
ĠM Ã¢m
ĠIm age
ĠPan el
S hi
P D
zhe imer
Ġgi áº«m
Ġra p
D ec
Ġ2 17
à¸ ²
Ġh iep
) {
et ts
ĠNh ÃŃ
Ġ15 9
x cÆ¡
kh Ã¡c
...... ...
h Æ°Æ¡ng
ho áº¡t
ĠâĢ İ
ĠT ed
ĠTIáº¾ NG
atch back
ĠSoc ial
Ġm om
gi ay
Ġf ans
ĠSp e
iag gio
Ġb áº¹n
ĠF S
b el
ĠN as
ĠK er
3 45
ĠM Ã¬
il lo
c raft
ĠS R
ĠåħŃ lá»¥c
m es
ĠF X
ĠT á»ıi
çĶ Ł
U RL
G on
ul ina
IS T
Ġr est
C I
ĠAc rylic
h Æ°
ĠX box
Ġhá» £t
29 5
88 9
Win dows
T Æ°á»Ľng
ĠU t
ĠComp osite
ĠÄĲ ÄĤNG
ĠTh or
at on
t ao
ĠH ey
) âĢĿ
Ġchu ong
b id
' '.
14 7
nh áºŃp
ĠTh áº¥u
G Ã³c
ĠMot ors
ĠSm ile
... ".
Ġç ¤
Ġé »
ĠDá»° NG
ĠEar th
l á»ĭch
th áº§y
ĠCS DL
| |
Ġtá» Ŀi
ĠT Ãºy
ĠKh á»§ng
qu est
Ġgh áº¹o
B Ã¡t
ĠTo ken
le g
ĠTÃŃ m
ĠNh áº¡n
áº¤ Y
ĠOlymp ia
ĠB Iá»ĨT
Ġth á»ĳ
Ġk q
h áº¡t
Ġd Ã²m
ĠW hi
C áº©m
Ġg Ã´n
van ia
ĠKh áº¥u
ĠRic oh
so le
ļ t
ĠTo k
D D
v áºŃy
Ġac er
01 5
ĠTe a
Ġpost ed
au se
ĠU BM
Ġf in
ĠAl ice
15 9
c áº£i
ĠHong kong
ĠAn alyt
Gi áº¥c
A ng
Ġback ground
ĠTh Ã³i
ĠT áº¯t
ĠPN J
ĠA FC
k iá»ĥm
ĠPh ill
ĠçĶ¨ dá»¥ng
ĠEr ik
Ġc rom
ĠCH Æ¯ÆłNG
AC K
Ġopt ion
Ã »
N Ãª
Ġch Ä©a
Äĳ Ã¨n
ĠG á»ĳm
Ġthe y
ix on
Ġhá»ķ n
ãģ £
Ġ5 40
Äĳ Ã¡ng
ĠhÆ¡ p
âĢĭâĢĭ âĢĭâĢĭ
ĠE sc
Ġb áº¥p
ĠTo a
Ġcomp uter
Ñģ Ñı
áº¶ NG
Ġl ast
ĠKS ND
m ong
Ġb Ã©t
ĠElec tric
ĠCarol ina
m elen
Ġsu Ã´
Ġho tel
ĠGe a
Ġåł Ĥ
ĠPe nh
ĠAn to
M Æ°a
. :
ĠLight ning
melen ki
ph e
D áº«u
ol la
A c
ĠPh á»Ł
ĠF riday
ĠLu cky
ĠM iá»ĩng
ĠVinac onex
å Ŀ
ĠF ish
ĠWay ne
Ġs Ãł
ĠS á»£i
rit ing
k ÃŃnh
Ġal pha
ĠV M
ai d
Ġlá»į ai
gi áº¥y
b á»Łi
ĠL ad
ãĢ Ģ
Ġqu Ã¡ch
Ġæ ®
60 3
ĠBernab eu
x o
Ġmake up
Ġs á»ģn
Ġè ±
ĠI oT
ĠMun chen
Ġ09 83
n Ã¢ng
ĠÄĲ ak
ÑģÑĤ Ð²
is to
Ġ17 1
ers ey
gr aph
s w
L Ã²
ĠC AS
ĠtrÃ¬ u
ĠTh iá»ĩt
Ġthe ir
K iá»ģu
r ap
Ġn Ã¡i
Ġno w
ĠAn a
ĠH iá»ĥm
G en
V Ãłng
u ke
Ġt et
th ur
Mod el
au n
38 5
ĠQU áº¢
s á»ķ
ĠA eon
ĠR oland
Ġg áº¡
ĠTh iÃª
Ġ15 7
) ?
ĠP ed
ĠLu ang
6 78
ĠÐ Ĵ
ĠçķĮ giá»Ľi
Ġsex toy
k á»·
Ġå ģ
IS A
ĠåłĤ ÄĳÆ°á»Ŀng
2 17
19 46
se ille
ĠN ich
Ġt Ã¯
Ġ ot
Ð° Ñģ
ĠRob erto
Ġqu Æ¡
ĠL ast
Ġkhu Ã¢n
________ ________
F PT
Ġq Ãºa
k á»¹
y ang
15 8
ĠDel ta
R es
Ġæł ¹
s cr
ĠVÃĢ NG
R ec
v á»ĳn
ithi um
Ġ ic
bour g
Ġco up
ĠP ow
ĠRÃ´m a
ĠCh ao
Ġso a
ĠAm en
ĠC áº¢
en ko
ĠGi ft
ĠXV III
Ġgá»Ŀ m
as il
M Ã´n
ÄĲ áº©y
Ġtr Ãª
Ġho áº¯c
ĠD ance
as ha
ch á»¯
ĠN áº¡i
Ġt Æ°Æ¡m
Ġsour ce
Ġ áº¯ng
Ġs ome
Tr á»©ng
20 7
qu Ãł
ĠD B
Ġc er
ĠK CB
c á»Ńu
ĠT iá»ħn
Ġchá»ĭ t
s ide
ĠPr im
Ãļ C
ĠÄĳá» ī
ĠMat th
ĠÄĲ Ãģ
ĠC PTPP
8 40
B Æ¡m
Ġform at
ĠL evel
Th iá»ģn
r ack
N á»Ĺi
G reen
Ġm ed
44 4
Ġm usic
ien co
v it
Ġb all
Ġngh ÃŃa
M c
t ag
Ġp oint
................ ........
Micro soft
ĠN exus
ĠSum mer
âĢ¦âĢ¦ .
Ġbo ard
Ġvan i
ail s
. <
Ġxu Ã½t
ep ub
ĠL ung
Ġph Ãºng
Ġr áº§n
ĠBrit ish
ĠGP MB
et on
ĠNgh Ãª
Ġs ne
Ġkh Ãª
L R
Ġæł¹ cÄĥn
19 89
U K
Ġè ³
ĠAv atar
ĠÄĲ Ã¢
all as
ĠB ella
5 40
Ġto c
Ġå ½©
Ġvá» ±
ĠV CB
Ã ¦
Ġd Ã¬m
Vn Media
t uá»ķi
Ġs Ãº
ÐµÐ ¹
Ġ18 4
Ãį CH
Ġ ãģ
tr Ãº
th ers
g reen
ĠDe ep
ľ ¸
ĠSp utnik
Â ³
ĠSn ow
ĠOr ange
Ġç ħ
ĠKho ang
VN CH
lu áºŃt
Ġp iston
ĠM ake
BG TVT
eb le
Ġsho ck
ĠVen ice
16 7
Ġ09 66
ER A
A g
Ġyá»ĥ u
Ġtrá»ĭ a
ĠYo on
5 90
33 8
6 30
ER T
ĠGab ri
ĠS ON
ĠHu go
3 35
C LB
ĠY emen
ĠCo ast
çł ģ
12 2
t áº§m
Ġz ombie
m uá»ĳn
Ġso ft
ĠW B
r as
Ġngh áº¿ch
ak ura
h áº¿t
Ġc Ãĥ
n in
he ng
v Æ°á»£t
24 8
Ġáº¢ o
il de
Ġs andal
ĠN á»Ļp
kh a
ĠSh ark
Ġ23 5
9 80
pr c
ĠTh áº¥m
Ġ16 3
gus on
Ġ6 40
ĠLH P
ĠPet ers
S QL
Â ´
Ġg Äĥm
id ent
Ġ17 9
Ġg Ã³a
ĠT ÃģC
ĠH ist
am oto
ĠSer vices
m ap
ĠH OSE
ig ar
Ġ09 18
X ung
m áº¡ng
Ġä½ı trá»¥
SD ÄĲ
ĠPent ax
ĠBec amex
ĠChris to
Ġb Ã´n
ĠBar b
iag ra
Ġfol low
ĠKr em
H H
T áº§m
è ¦
15 6
ĠCh annel
Ġ16 9
ĠK Ã©t
Ġtr uc
ĠKh ong
ĠHai r
ĠCa fÃ©
iet y
MA X
ĠÄĲ oa
l ake
m Ã³n
Ġm á»ĭch
ĠTr end
ĠS Äĥn
ĠE asy
ĠG host
14 6
ĠLÄĲ BÄĲ
] :
5 80
D M
ĠK X
b Ãª
ĠO tt
ĠThu á»³
if a
Ġw ar
Ġ2 99
Ġsch ool
ĠS áº»
ĠX áº¡
AN K
b ot
ĠOri ent
38 9
Ġgran ite
Ġç¶ĵ kinh
ĠUBM TTQ
Ġb el
th áº£o
2 11
ind s
d ang
achus etts
h uy
Ġw o
Ġngo áº£nh
ĠSer gio
ĠVan couver
b ucks
Ġth uyÃª
Ġnh áº©m
Ġ16 1
ĠOut look
ĠB áº¡o
ĠL h
ĠC reat
BL ÄĲTBXH
ĠG ucci
Ġdo ll
ĠÄĲá»ģ u
b om
ĠJ azz
M in
Ġtr uáº¥t
Ġtr Ã¹n
ons top
M ess
Ġim age
ĠI U
L aptop
Ġx Ã³
75 5
ĠTr ain
ĠMeg apixel
ĠTh uyÃªn
T BTC
e h
ĠH M
T i
Ġd áºŃu
p us
Ġvá» ĥ
Äĳ o
C Ãłi
Ġèģŀ vÄĥn
ĠV á»Ĭ
ff er
TC T
H ar
Ġh ut
ĠN áº¯p
Ġ9 90
5 000
Ġ* *
ĠF air
g Ãł
Ġl áº¿t
ĠL D
es co
th á»«a
ĠM á»¥
ĠB phone
Th iá»ĩn
ĠTu c
h áºŃu
for man
Ġng Ã´ng
ĠV OA
Ġç¬¬ Äĳá»ĩ
ĠJess ica
qu in
Ġmu c
Ġâ Ĺı
27 8
ĠbÃ¬ u
Ġå¤§ åıĳ
le v
ĠJo on
ĠC Æ°á»Ľc
ĠT iá»ģm
ĠE ye
ĠVe am
Ġ09 68
66 7
Gi Æ°á»Ŀng
tho Ã¡t
ua cute
ĠSt ory
ĠSpec ial
ĠL áºłNH
Ġcurc umin
ph ÃŃa
ĠNg áº¯m
anc ial
ĠCh áº¡p
Ġ ................................................................
Ġv Ã¨o
Ġd ate
Ġâľ ĵ
Kho áº£n
Ġï »¿
n ang
Ġng áº¥y
ĠV id
Ġsal es
ç «
Y áº¿n
Ġch iá»ģn
Ġt Ã³t
tr Ã¹ng
h áº£i
In d
ĠSS L
ĠC trl
ch in
ĠPr int
Vinh omes
ĠNH ANH
Ġt Ãło
P ark
b iÃªn
fer ence
l ike
Ġ Ãºa
ĠW ol
copy right
Ġç Ĳ
ĠY an
ĠH á»§
. +
ip utra
16 4
ÐµÐ ²
sch ool
á»Ī NH
Ġv Ã¨
Ġ18 1
atin um
ĠBV TV
ĠHo áº£
ĠR T
Ġdi em
Ġser i
ĠShi seido
Ġb á»īnh
Ġw ant
Ġset up
á»Ĳ p
L i
ĠGeor gia
Ġkh ach
tr Ã¬nh
ĠLÅ© y
ĠCh eck
tr ib
Ġbá»ĳ t
ĠIb rahim
ĠP it
t c
ngh á»ĩ
Ġb enz
iss ion
Ġ09 86
Ġro ot
ĠY ok
ĠPh uket
æ ŀ
th ang
In ternet
ĠMas k
Ãĵ I
ĠG O
65 5
al es
ĠM G
ng uá»ĵn
A s
Ġ20 50
ĠAM G
ĠåĲ ĳ
f ast
ĳ c
ĠæĻº trÃŃ
Ġthá»ķ n
Ġt itle
x Ãª
ĠK un
ĠèĢ ģ
ĠS ER
n em
s Äĥn
ĠA ston
ĠVP N
Ġr iá»ģng
ĠtÃ² an
x ml
Ġm am
yl and
Ġæ° ´
ĠCh Ã¢m
ĠÄĲ ÃĢO
é Ľ
ĠB ow
ĠM M
ĠL Æ°á»¡i
Ġc ast
Ġtr á»ĵi
ĠQ T
ĠP ere
ng uyá»ĩt
Ġngh en
ĠSer ge
Ġbá»ĭ u
ĠKh uyáº¿t
IM G
c á»Ń
Ġcu á»Ļi
Ġ17 2
o ung
ĠNH á»®NG
Ġgi áº£o
Ġth ere
Ġ09 69
Ġâľ Ķ
ĠKh Ã¡t
Ġ2 18
J ohn
Nh áº¥n
ĠÄĲ áºŃp
Y O
ĠF E
Ġ> >>
äº ¬
ĠH UY
Ph Æ°á»Ŀng
27 4
Ġæĩ ī
m or
Ġc Ã²m
Ġ9 11
á»į p
ad d
ĠM iller
ĠF ore
Ġd á»ģ
ĠJava Script
L á»Ĺi
Ġte ch
ĠBo ot
ĠÄĲ Ã©c
yl vania
bur y
Ġart icle
ĠN Ã£o
t á»Ļi
ĠTHÃģ NG
Ġhá»Ń ng
Ġth Ãºng
Ġph Å©
er i
ĠR ica
14 1
ĠFer guson
ng Ã¢n
ĠS ite
IN A
Ġb il
c áº¯t
at su
ĠAl zheimer
ai g
Äĳ áº£o
ĠSaf ira
25 4
ĠMak ita
Ġs ms
ĠS Ã³i
Ġè ©
Äĳ Ã¡p
Ġh Ã¹
R á»ĳi
Ġxá»ķ m
ĠChe fs
ut ta
Ġ22 2
s ha
ĠPro gram
ĳ t
ut i
Ø ©
Ġk á»ģn
Khu Ã´n
b áº£ng
Ġv Ã´ng
17 6
Ġæķ Ļ
as m
Ġl Æ¡i
c á»Ļng
Ġ5 70
Ġè ī²
ĠB áº°NG
un k
u it
ĠI CT
ĠD Å©
ĠM g
Ġn s
åľ ¨
Ġinch es
Ã¨ re
ãĤ ¤
Ġæľ Ī
ĠVI B
pr ice
Ġæ· ¨
ia go
es is
Ġo ther
nh Ã£
ĠV Ã¡y
ol t
ĠSte ven
ĠT á»¥
Ã ĸ
ĠAr c
ĠMan or
12 1
Ðµ Ñģ
ĠPom peo
f ly
ĠCM OS
ĠBlog ger
ĠView s
it ime
la w
Ġta ke
ĠSp am
Ġho oc
att i
L X
Nh Æ°á»£c
anc er
s Ä©
ĠA ve
ĠÐ °
ĠMay a
BÄĲ S
agu ar
7 30
Ġthi u
Ġ19 52
14 2
t Ã¡i
Ġlo anh
Ġcl ient
K g
ĠX Ã³a
Ġâĸ º
ĠCh ol
5 10
Ġhu áº¿
ĠHS G
ite x
l Æ°á»£t
ĠZ ika
V D
ar ma
38 3
ĠGl uc
IN K
ĠR oc
uk u
Ġlu an
ĠE CO
Ġ20 8
15 3
s ing
ãĤ Ĥ
Ġm áº£y
Ġsop cast
W HO
ĠS áºµn
ĠWil son
M Ãły
Ġm Ã³i
ĠE OS
ĠåĲĳ hÆ°á»Ľng
Â ¬
Ġæ» ħ
if ul
ens is
l á»ħ
ĠPot ter
urr ency
49 5
ï¼ ¥
ĠCle ans
7 01
l Æ°Æ¡ng
15 2
ÄĲ áº¥y
B Ã¹i
ĠS á»¬
ĠF ac
áº¨ N
Ġpart y
Ġ19 3
iz on
m á»©c
Ġxu á»ĥ
$ /
Ġåľ ĵ
am aha
pl it
ĠCen tre
Ġin box
f en
av an
ĠH ind
igh ter
ĠVin mec
Ġç ®
Ġé £
Ġqu áº·n
Ġ2 16
L AND
å ½
D oc
am ol
eb u
Ch iáº¿t
ĠY eon
ï¼ °
äº īé
ĠO hi
ĠSc r
avon oid
iez mann
19 4
ĠV ent
ox in
ĠVHTT DL
ĠG reg
h al
l ive
+ )
T á»Ļi
ĠN it
ĠÄĲ Ã¡y
7 40
Ġph iá»ĩt
ter te
ĠMar seille
orm al
ĠG AS
ĠPro tect
h ung
ĠGi g
ĠT ÃĮNH
ĠK or
Ġt au
Ġnet work
et ta
ĠBro ad
t ual
B áº¡c
per ty
7 99
e a
Ġh Ã³m
ĠTu áº¿
ĠBro ok
ĠMass achusetts
ĠM ath
ĠD ul
L ao
Ġphá»§ i
Ġå »
ĠC CHC
à ¯
Ġch rome
ĠF our
Ġregister ed
ol lo
ĠVer andah
ĠF ED
Ġbe en
äºīé ľ¸
Ġtrá»¥ y
Ġngo c
ï¼° ï¼¥
M áº¡nh
ĠTH áº¤T
á»Ĩ NH
s elf
Ġ08 68
ï¼°ï¼¥ ï¼®ï¼¡
ĠH L
Ġmon th
oo c
Ġ23 4
á»ĭ u
Ġho w
ĠC áº¡n
ĠE o
Ġhá»¥ i
ĠSal on
p toc
ĠMer c
ak o
Ð¾Ð º
ĠRet ina
ĠR á»ĳt
d al
Ġnh Ãºm
RE A
ĠH z
Ġsá»± c
co idan
h Ãłm
iv ia
Ġæ·¨ tá»ĭnh
Ġ9 60
Tu áº¥n
19 72
Ġc á»Ļc
e er
ster y
Ġd áº«y
ĠVin City
ĠBuff ett
ĠVI C
Ġæ»ħ diá»ĩt
Ġf older
ĠâĢĿ .
B TTTT
S Ã´ng
eg r
ĠT á»±a
ĠK aspersky
Ġnhu á»ĩ
Ġsun shine
ĠM ond
Ġ6 30
Ġæ ĵ
6 70
! ).
ĠCh in
t áº§ng
Ġg áº«m
Ch Ã¡nh
Ġ17 3
ĠL em
ack er
ĠÃĲ oÃłn
æľ ī
en ch
ĠL oi
ĠZ oom
[ âĢ¦]
M áº¹o
it on
19 2
... ),
ĠBus an
ĠK O
ãĥ Ī
ĠR ong
igue z
Ð¾Ð³ Ð¾
Ġlá» ĥ
22 1
c Æ°
ĠCoc o
Ġam pli
ĠFans ipan
ĠS á»ī
ĠTitan ium
Ġl iáº¿ng
ĠlÃ² e
Ġt ich
ĠcÃ³ p
Ġl ua
Ġ4 40
ĠR ak
ĠMac ron
ĠCV T
ä¹ Ī
ĠL il
Ġxu áº©n
hi eu
t ÃŃn
ĠD W
n Ãª
sk t
Ġph ung
ĠN Ãªu
Ġt Ã©t
Ġs w
ĠJ r
Ġ20 4
ĠJo ong
Ġnh Äĥng
ĠD TS
Ch á»Ŀ
ĠK ag
Ġto uch
IS ION
Ġquy á»ĩt
ĠTe h
ĠAdvent ure
Ġè§Ģ quÃ¡n
Ġr iÃªu
TT S
ĠM áºŃp
ĠRam os
L á»Ļ
Ġm ÃŃch
ĠR X
Ġå Ĩ
ĠÄĲ N
U L
Ġt áº¹o
è ´
ĠNg oan
d iá»ĩu
ĠS ag
ĠL ing
ĠY i
ĠSar ah
p ons
P VC
ĠG TX
ock et
ĠTrans it
Ġchi u
ov ery
ĠSV ÄĲ
Ġèĸ ©
um er
Ġ3 33
Ġå¸ ¸
ĠT win
nd ai
Ġè§ £
Įh Ã²a
ĠCur cumin
Ġc ang
Ġå¹ ´
ĠTo w
ĠSte el
ĠCont ent
ĠæķĻ giÃ¡o
th áº¥y
Cl ick
b á»ī
ĠM ig
Ġmá» £
ĠA DS
Tr uy
ĠD up
en ic
D an
Ġpas tel
Ġèī² sáº¯c
Äĳ á»ķ
ĠWar s
z ech
Ġch uá»ĳc
ĠB un
ĠG aza
d áº«n
ĠåĴ ĮhÃ²a
Ġcan vas
ĠOr der
Ġ2 88
á»¨ NG
ĠMed ic
ĠÃ ĵ
ĠL Æ°ng
ĠR ou
Ġ0 76
Ġph Ãłng
18 3
ĠDu terte
Ġnh om
Ġp o
ĠH ann
Ġè ¼
ain s
Ð¾ ÑģÑĤ
ĠCA TP
ĠTN XP
å ĵ
TBTC O
ĠÄĳá»ī a
âĢ¦âĢ¦ âĢ¦
ĠB Ãło
Qu Ãł
78 5
ĠWh at
Ġcan on
ĠMA X
em ia
ĠL I
à¸ Ļ
ĠT ong
im o
Ø ¹
28 7
ĠInsp iron
× Ļ
ĠN Q
D áº«n
Kh Ã¡i
ĠåĪ Ŀ
Ġsp ec
Ġ30 5
ĠUn it
ĠF TA
Ġkh Ã¯
Ġ3 75
av id
Ãļ c
Can ada
Ġ- ----
á»Ĳ N
tr áº¯ng
id ay
¡t áºŃn
ÄĲ o
ĠÐ¾ Ð±
Ġton er
Ġngo Ã¡y
t á»§
Ġp eople
ĠCl ark
Ġcu c
ĠL P
6 10
ĠG á»«ng
ĠGi áº·t
Cá»¥ m
li u
ĠD h
forman ce
C á»§
u an
ĠNC KH
Ġl uyÃª
Ġç §
á ĥ
l ot
8 70
ĠÃ ģm
ãĤ ī
ĠçĽ ¡táºŃn
Ġc Å©i
ĠSh ell
ĠMod ric
ch t
ĠV CCI
Ġâī ¥
Ġ7 000
ak y
ĠM ica
xcÆ¡ va
ĠF arm
ĠTh iá»ĥn
nh Ä©
Ġçľ ¼
ĠAb u
ĠÄĳ áº©u
Ġc á»¯u
Ġng Äĥm
Ġçİ ĭ
Ġ á»Ľn
ĠS und
ĠQu Ãªn
Ġh Ã²i
ĠDis cover
ĠAnto ine
Ġho en
Ġ os
T Ã¡o
ĠBr uss
Ġf ashion
ch á»©
Ġm eo
17 7
l uat
Ġ19 51
âĻ ¥
H g
ĠLe ar
f ire
4 99
ĠTh ong
25 2
á»ī a
Ġ4 60
oc olate
et ic
48 9
Ġfl ag
ian t
ĠMi y
ĠKaw asaki
D Ãłn
re w
d B
H Ãºt
ĠS ig
3 79
Ġ19 41
19 73
ĠNGH Ä¨A
d ata
Ġl á»įng
Ġde al
L ock
ĠÄĲ áº¾N
ho d
uz u
Ġf b
l ife
30 2
Î ¹
ĠX Z
ĠHÄĲ H
al aya
as i
ç¥ŀ äºīéľ¸
Ġbu n
ap y
ĠviÃª c
ĠVen us
Ġå® ļ
g t
ut ions
ĠDo c
Ġ09 32
Ġnh Ã³t
at ra
F l
Th áºŃp
ĠMar cel
6 01
ĠCT Y
ĠWin dow
Ġgi áº»
ou k
Ġmang an
ĠJ oy
ĠS ams
ĠO ct
stan bul
Roy ce
Ġph á»Ľi
ist ar
w idth
ĠLu ca
Ġecop ark
Ġ Ñĩ
ĠA ge
ĠSu ite
Ġå¯ ¦
Ġ09 15
Ġé ¢¨
æ ł
ĠB amboo
ĠK ao
í ķ
Ġt ieu
ian e
S ch
ĠG ol
ÃĢ U
ĠBr om
3 21
ĠXV II
ĠC orn
AS H
ĠGar eth
am o
ĠåĸĦ thiá»ĩn
Ġthá» «
ĠB áº¡
Ñ į
ĠÄĲ u
Ġ25 5
. âĢ¦
qu áº£n
Ġnew s
Ġcaffe ine
ĠM Ãºa
Ġcu oc
iá»ħ ng
ĠB Ã¢n
ĠY a
ĠUn lock
OS T
Ġå¸¸ thÆ°á»Ŀng
q lo
ib bon
ot un
se an
G áº¡o
av er
39 4
ï¼°ï¼¥ï¼®ï¼¡ ï¼®ï¼¡
od es
ĠKar l
ĠB ung
Ġç ¿
Ġæ ¶
ªth iá»ģn
el ts
Ġta c
ian ce
Ġ20 23
un i
ĠH áº¢I
esp ace
ĠH em
ific ation
Â ł
OL ED
Ġ18 3
ad min
26 3
S ony
ĠÄĳ Ä©
ĠG ateway
ĠPat rick
ĠL B
Ġ7 77
ĠSt ation
+ .
U ND
Ġçľ¼ nhÃ£n
ĠÄĲ áº©u
Ġr á»¯a
Ġláº» n
ĠS co
ĠNgh iÃªu
Äĳ á»«ng
ilia te
Ġn uc
ĠF ive
k Wh
45 4
con s
ie f
G E
ĠX Ã³t
Ġç¦ ªthiá»ģn
Ġv áº³ng
ĠM á»¡
ph in
33 7
ĠÏ Ģ
Ġl Ã¡y
ĠGard ens
ĠGr iezmann
Ġbo ong
ĠV est
lo or
ĠDo uble
Ġ ................................
88 5
nh ap
ĠM ia
ĠH uá»ĳng
ĠD á»įc
ĠY ear
ict ion
á¹ ĥ
18 4
Ġxu ong
For ce
ĠLo áº¡n
27 3
Ġå¿ µ
ĠBu ffet
27 7
ÃĤ u
V áº¡n
ĠStan ford
35 9
ĠPower Point
8 01
ĠK B
Ġå¯¦ tháºŃt
á» ĢN
Tp HCM
ĠTM V
Ġèĸ© TÃ¡t
ĠG re
ang nam
Ġ9 000
17 4
ĠMu á»Ļi
Ġki wi
I E
15 7
ĠSO FL
ĠClin ics
h Ã¡t
âĢĿ [
ĠKh á»ī
ĠRa j
et ty
To Ã¡n
33 6
Ġchi ps
Ġqu áº¡nh
Ġcáº£ o
ĠM áº¿n
ç º
ĠGi uá»Ļc
Ġè§£ giáº£i
b Ã³ng
Ŀnh á»¯
ĠC irc
ĠTr ading
tr Ãł
ĠHS K
A ss
ĠL ex
Ġback drop
S y
ic es
Ðº Ð¸
ĠmÄ© m
Th á»ķ
D H
Ġcáº£ u
Ġkh Ã¨
ĠA ur
ĠQue ens
yl ic
W ork
ĠTR ÃĬN
ĠCNVC LÄĲ
Ġ á»¥
ĠPhilipp e
ĠTe ka
R onaldo
im es
ĠJ ur
ĠE F
ĠTr á»Ĺi
ÄĲ iá»ĥn
Ġ? âĢĿ
Ph u
ĠWar ren
ous ine
R o
77 8
Ġru á»ķi
Ġn ic
ĠH Iá»ĨN
ĠK IA
Ġ á»Ŀ
Ġch á»ĵm
ĠH oney
BC K
Ġæ°´ thá»§y
V Ã¡ch
Ġph áºŃp
ĠMar co
G l
Ġ3 25
Ġr Æ°Æ¡
Ġéĩ ĳ
ĠY un
ĠQC VN
ĠæľĪ nguyá»ĩt
ĠBent ley
ĠT NT
ĠChar l
p k
C amp
H oÃłi
ĠStar bucks
m áº¯t
Tr ans
W e
ĠB Ãłnh
Ġ25 8
ri que
áº¦ M
ĠA E
ĠTh áº¥p
on n
ĠHy per
Ġd á»Ļng
Ġx Ã¢
Ġhot girl
39 8
ow ski
quy áº¿t
ĠH erm
Ġn iÃªu
ĠQU ANG
ĠQU áº¢N
ĠÄĲV TN
Ġn Ãºc
ic y
ĠVai o
5 30
ĠFut ure
ĠCit i
ĠNg áº¡c
ĠCam b
" ?
ĠG áº¥p
in ing
Ð°Ð ¹
Ġlu c
44 9
± th
16 3
D B
Ġl Ã¡n
ķ ·
Ġhon da
m t
Ġb oi
AN A
25 7
ĠStart up
Ġ ......
ĠBa hr
pt ion
Ġä¾ Ŀ
uc tion
ĠI E
Ġster oid
ĠTK V
X K
ĠH Ãĥ
19 60
Ġng Æ°á»Łng
ĠCoun try
c Ã²
ĠÃĶ tÃ´
Ð¸ Ñĩ
ĠRom ania
ĠH as
Ġåħ «
ĠPatt aya
ĠP iaggio
ĠBulg aria
c ium
ĠP ra
ĠK le
Ġban d
Ġo xit
© phá»¥c
min ster
Ġph á»ħu
8 10
et ing
ĠZ ero
ĠMir ror
Ġcort icoid
Ġh Ã©c
ĠPh am
ç ¾
Ġcar o
t Æ¡
40 6
ĠPh Ã¨o
tr Ã¬
ç Ļ
ĠN umber
âĸ Ī
ĠN M
ĠVá»ĭ t
Ġc áº¡m
ĠÃ Ħ
Ġth Æ°á»£c
ĠBel arus
Ġp al
ĠçĶ ļ
ĠM FC
ĠcÃ³ i
9 20
he ad
mien phi
ĠèĢģ lÃ£o
eg al
Ġch áº¡nh
ch am
th Ã´n
B Ãºt
Ġn Å©ng
Ġh entai
ĠG y
ĠAn ime
Äĳ áº¿
Ġs Äĥm
ĠSI ÃĬU
ÃĤ n
ĠVietnam ese
F an
Ġ use
Ð°Ð ´
T ÃŃn
b ro
ĠH B
x á»Ń
ĠTh erm
ĠM áº¡
Ð¸ ÑĢ
Bus iness
ĠPHÃļ C
Ġæ± Ŀnhá»¯
Ġå¿µ niá»ĩm
ĠCh á»Ľ
Ġhe art
ĠJ oo
Ġåı Ĺ
Ġé¢¨ phong
ĠCh áº¥m
ĠSo ul
ĠçĶļ tháºŃm
Th Ã¡p
Tr á»ĵng
Ġ20 9
ĠJ SC
S an
Ġcac ao
ĠD Ãª
T Æ°á»Ŀng
Ġs apphire
ĠP il
ĠÄĲT DÄĲ
âĺ ħ
Ł ³
Ġ100 00
ĠÙ Ī
? ",
r ix
Ar t
le c
20 22
ĠVN M
om y
ĠG MT
Ġ8 20
giá» ¯a
Ġ09 85
ãģ ı
ĠT á»ĪNH
ĠN ice
ut hi
Ġ19 39
19 47
ĠKrem lin
ar on
ĸ thá»§
ĠCl au
Ng Ã´n
19 82
Ġ18 7
Ġä¾Ŀ y
89 5
e ic
Ġg reen
ĠO M
Ġ á»Ľ
Ġd iÃªn
ĠrÃ¬ u
19 3
ĠPl ace
L ive
r ong
ĠMS I
á»Į I
Ġr á»ĩp
Ġch á»Ļp
em ay
Ġ4 10
uch i
ĠSX KD
xt gem
ĠMar ch
ĠE ra
Ġå¤ ĸ
Ġéĸ ĭ
U V
Ġ14 00
C ong
à¸ £
u lo
ĠArch itect
l ab
land er
ĠH ao
ĠX ay
ĠAng kor
áº½ o
29 7
Ġæ ©
ĠØ ¨
Ġ2 11
Ġgames how
tr avel
ĠChampions hip
Ġl ac
r áºŃp
ĠFr ont
ĠThu áº¥n
ĠI sa
45 9
Ġd ev
Ġp df
U C
I B
Ġt Ã³e
Ġkhuy Ãª
Ġ09 11
ãĥ »
ĠR áº¯n
ãĤ Į
Ġbe nh
2 14
ĠNh iÃªu
Ġcá»© a
ĠP PP
C TC
19 6
ĠInstit ute
Ġin f
) âĢĿ.
Ġm áº§n
Ġ( *)
ĠR uss
ĠE qu
Ð¸ Ð²
æĹ ¥
ĠNP K
Ġc Ã¹a
im ax
77 6
b lock
Ġch Æ°á»Ŀng
ĠÄĲá» Ĵ
ĠÄĳÃª nh
00 7
Ġfor ex
ĠI f
ĠUnivers e
ĠT á»ĭ
Ġjav ascript
Ġs g
th uy
Ġnh áº±ng
Ġnh Æ°á»¡ng
h and
Ġv Ã³i
15 1
TV QH
ĠVi ber
ĠåĮ Ĺ
Ġå¤ ļ
Ġoff ic
ĠSp ring
ĠT as
ĠS eb
ĠTun isia
Ġch Ã¹n
thi ng
ĠS ATA
66 4
Ġmob ifone
ter y
ĠBahr ain
B á»Ĺng
Ġ ul
et y
Ġf unction
m Ãłn
Ġtr Ã©t
Ġh Ã¡m
ĠL Ãºa
Ġbol ero
d it
OT A
ĠSe iko
ĠD allas
Ġå®ļ Äĳá»ĭnh
ł ´
ĠN Ã³n
ĠâĢ¦ )
N okia
37 4
Ġn ight
W N
ĠIn doch
ĠMay o
ĠHum an
ç Ĳ
Ġn á»ĩn
ĠSu nhouse
ĠÄĲ iáº¿u
Ġåį ĥ
ĠYang on
Ġä» ĸ
Ġgi Ã£i
ement s
Ġlo ai
Ġsi ro
G Ã£
Ġl in
ĠO R
chá»ĭ u
ĠN Äĥ
Ġ13 00
ĠGiov ani
E Y
n Ãłng
ch iÃªu
ĠS uáº¥t
46 7
Ġp ay
ĠéĽ ¢
åĽ ½
ch y
Ġf t
65 6
Ġx á»ĳc
ĠMap s
Ġnh ao
ĠÐ ľ
ĠCr uise
Ġ áº¥t
Ġb áº±m
Ġg uá»ĳc
AC E
Ġåħ ī
Ġlog ged
t itle
ĠD oll
Ġ5 60
Ġb á»§a
M á»Ļ
ĠX en
b áº¡ch
Ġs ide
Ġ8 000
æī ĭ
Ġkho áº£i
l Ã£nh
ak s
ĠM es
L M
ĠD ut
ãĢ į
ĠåıĹ thá»į
b ok
ĠIP O
Ġng Ã¡p
K G
ĠTr ust
Ġ20 6
gi es
ĠSp ot
48 6
ar en
ĠD X
E book
N Ãºi
ĠCH ÃĤU
ĠHy brid
28 2
vn Äĳ
ĠUB KT
ĠA ND
ĠInfin ity
v iv
Ġ Ì£
T ao
ĠN Ã¹ng
AR K
h Ã²a
v á»ĩ
ĠB is
88 6
qu Ãª
am en
N ews
Ġm it
48 4
Ġal o
ĠÃī p
ĠèĲ ¬
t uc
Ġnguy Ãª
ĠS á»ŀ
Ġtu áº¿
ĠH ir
ĠPH á»¤
Ġsá»© a
ĠCor olla
ĠMov ie
Ġåľĵ viÃªn
Tr i
Ġå° ļ
ĠI stanbul
t ung
ĠBro w
Ġban k
18 7
19 7
S et
iz ona
ĠWhit ening
ĠC ÄĤN
ĠF ont
30 7
° Äĳ
ĠR ick
V al
ĠNg á»¥c
h er
Ġl á»§ng
Ġh Ãºc
29 6
ĠD ora
ĠC áº©u
âĨ Ĳ
st ore
Ġæľ ĥ
ĠV AMC
ĠR áº¡p
ĠInd ia
tim ate
ĠC ustom
ĠMar sh
Ġal t
Ġvideo s
ĠSH OP
Ġng áº¡n
ĠåĪĿ sÆ¡
act ion
áº¨ m
k w
ÄĲ áº¯k
ĠCy ber
Ġå® ¶
ĠHD Bank
ĠPeters burg
ĠÄĲ ÃĢ
ib an
Ġå¹´ niÃªn
Ġm Ã¡nh
Ġtr c
Ã¡ Âº
Ġ5 55
ĠT ÃĶ
ĠPh áº¿
ĠOp al
ĠPH áºłM
ĠG ary
Ġd eb
Q Ãºy
ĠG X
èĤ ĸ
car bon
C EO
T áº©y
Ġm áº¡p
Ġlo p
ĠR iv
M á»±c
ĠAc count
tr Ãºc
d Ã¢y
ĠSÃłi gÃ²n
Ġ09 44
ä¸ Ĭ
ä¼ ļ
sh ima
Ġl ens
27 6
ĠB ug
i ed
Ġå¦Ĥ NhÆ°
38 4
tr áºŃn
? âĢ¦
ĠW an
Ð¸ Ð¸
ĠG áº¡c
ick ey
ov ich
ĠDu ong
Ġå Ķ
Ġc rop
Ġr on
ĠB le
ĠM oney
ĠBr ian
/ ?
ment s
Ġblog spot
ĠÄĲ oÃłi
ĠéĽ ²
ĠMal d
Ġcu t
K Ãªnh
b uild
ĠL ÃĬ
Ġde f
gi are
ĠComp act
ĠKur d
G R
ĠGi Ã³ng
0 70
oo s
c áº§m
ĠN Æ°á»Ľng
ĠD iv
Ġå½ ¼
r ang
P ower
ĠL á»«a
k ara
Ġy ear
Ġ6 20
ĠGall ery
M Ã£i
ĠT BT
ĠBruss els
ĠEuro window
n en
ĠRodr iguez
tr ai
Ġéĸĭ khai
ç §
r el
Ġamin o
: âľħ
é Ŀ
qu o
Ġc are
5 99
C anh
C al
Ġ19 7
Ġin to
ĠR ing
ĠFlor ence
Ġa x
to ber
ĠNew ton
Hot line
Äĳ áº£m
ĠéĽ¢ ly
ĠNhu áº¿
ĠFor ce
nh á»ı
36 4
æĹ¶ å½©
Ġv ac
ĠT á»¨C
ÄĲ áº¿
Ġ inh
ĠK iá»ģn
Ġ3 89
ĠJohn ny
R eu
ĠÎ ±
V Ã¡y
lu Ã´n
ĠTHÃģ I
Ġå°ļ thÆ°á»£ng
c ab
Ġtag s
Ġlá» ³
n oi
ĠV Æ°Æ¡n
Ġback up
Ġid ol
ĠH Æ¯á»ļNG
S am
2 23
Ġl iá»ģm
is ol
Ġsa ch
ï»¿ ï»¿
h Ãºt
Th áº¯ng
asc us
Ġæľĥ há»Ļi
Ġ19 1
Ph Ã¡
ï¿½ï¿½ ï¿½
Â £
k ien
he an
j amin
pro p
Ġc áº¡c
ĠLá»ļ P
ĠKh an
ĠSil k
s ylvania
ĠN ixon
Ġvá»± a
Ġg ÃŃa
ĠJ os
Ġé ¤
ĠSal es
00 4
18 1
r ite
Ġd im
ĠAr iston
ĠUnivers al
Ġ09 84
ĠSab eco
ĠHS BC
ĠVin al
ĠC ass
ĠR ank
ĠGi Ãłn
Ġn áº¥ng
01 6
ĠJ aguar
Ġä¿ ®
Ġ á»©a
Ġl á»īnh
ah n
ĠN á»Ł
ĠPr om
Ġbas ed
ĠA st
g est
ail and
ĠEd it
T á»©c
ĠT ÃĶI
ĠQu á»Ľi
ĀĀĀĀĀĀĀĀĀĀĀĀĀĀĀĀĀĀĀĀĀĀĀĀĀĀĀĀĀĀĀĀĀĀĀĀĀĀĀĀĀĀĀĀĀĀĀĀĀĀĀĀĀĀĀĀĀĀĀĀĀĀĀĀĀĀĀĀĀĀĀĀĀĀĀĀĀĀĀĀĀĀĀĀĀĀĀĀĀĀĀĀĀĀĀĀĀĀĀĀĀĀĀĀĀĀĀĀĀĀĀĀĀĀĀĀĀĀĀĀĀĀĀĀĀĀĀĀĀĀĀĀĀĀĀĀĀĀĀĀĀĀĀĀĀĀĀĀĀĀĀĀĀĀĀĀĀĀĀĀĀĀĀĀĀĀĀĀĀĀĀĀĀĀĀĀĀĀĀĀĀĀĀĀĀĀĀĀĀĀĀĀĀĀĀĀĀĀĀĀĀĀĀĀĀĀĀĀĀĀĀĀĀĀĀĀĀĀĀĀĀĀĀĀĀĀĀĀĀĀĀĀĀĀĀĀĀĀĀĀĀĀĀĀĀĀĀĀĀĀĀĀĀĀĀĀĀĀĀĀĀĀĀĀĀĀĀĀĀĀĀĀĀĀĀĀĀĀĀĀĀĀĀĀĀĀĀĀĀĀĀĀĀĀĀĀĀĀĀĀĀĀĀĀĀĀĀĀĀĀĀĀĀĀĀĀĀĀĀĀĀĀĀĀĀĀĀĀĀĀĀĀĀĀĀĀĀĀĀĀĀĀĀĀĀĀĀĀĀĀĀĀĀĀĀĀĀĀĀĀĀĀĀĀĀĀĀĀĀĀĀĀĀĀĀĀĀĀĀĀĀĀĀĀĀĀĀĀĀĀĀĀĀĀĀĀĀĀĀĀĀĀĀĀĀĀĀĀĀĀĀĀĀĀĀĀĀĀĀĀĀĀĀĀĀĀĀĀĀĀĀĀĀĀĀĀĀĀĀĀĀĀĀĀĀĀĀĀĀĀĀĀĀĀĀĀĀĀĀĀĀĀĀĀĀĀĀĀĀĀĀĀĀĀĀĀĀĀĀĀĀĀĀĀĀĀĀĀĀĀĀĀĀĀĀĀĀĀĀĀĀĀĀĀĀĀĀĀĀĀĀĀĀĀĀĀĀĀĀĀĀĀĀĀĀĀĀĀĀĀĀĀĀĀĀĀĀĀĀĀĀĀĀĀĀĀĀĀĀĀĀĀĀĀĀĀĀĀĀĀĀĀĀĀĀĀĀĀĀĀĀĀĀĀĀĀĀĀĀĀĀĀĀĀĀĀĀĀĀĀĀĀĀĀĀĀĀĀĀĀĀĀĀĀĀĀĀĀĀĀĀĀĀĀĀĀĀĀĀĀĀĀĀĀĀĀĀĀĀĀĀĀĀĀĀĀĀĀĀĀĀĀĀĀĀĀĀĀĀĀĀĀĀĀĀĀĀĀĀĀĀĀĀĀĀĀĀĀĀĀĀĀĀĀĀĀĀĀĀĀĀĀĀĀĀĀĀĀĀĀĀĀĀĀĀĀĀĀĀĀĀĀĀĀĀĀĀĀĀĀĀĀĀĀĀĀĀĀĀĀĀĀĀĀĀĀĀĀĀĀĀĀĀĀĀĀĀĀĀĀĀĀĀĀĀĀĀĀĀĀĀĀĀĀĀĀĀĀĀĀĀĀĀĀĀĀĀĀĀĀĀĀĀĀĀĀĀĀĀĀĀĀĀĀĀĀĀĀĀĀĀĀĀĀĀĀĀĀĀĀĀĀĀĀĀĀĀĀĀĀĀĀĀĀĀĀĀĀĀĀĀĀĀĀĀĀĀĀĀĀĀĀĀĀĀĀĀĀĀĀĀĀĀĀĀĀĀĀĀĀĀĀĀĀĀĀĀĀĀĀĀĀĀĀĀĀĀĀĀĀĀĀĀĀĀĀĀĀĀĀĀĀĀĀĀĀĀĀĀĀĀĀĀĀĀĀĀĀĀĀĀĀĀĀĀĀĀĀĀĀĀĀĀĀĀĀĀĀĀĀĀĀĀĀĀĀĀĀĀĀĀĀĀĀĀĀĀĀĀĀĀĀĀĀĀĀĀĀĀĀĀĀĀĀĀĀĀĀĀĀĀĀĀĀĀĀĀĀĀĀĀĀĀĀĀĀĀĀĀĀĀĀĀĀĀĀĀĀĀĀĀĀĀĀĀĀĀĀĀĀĀĀĀĀĀĀĀĀĀĀĀĀĀĀĀĀĀĀĀĀĀĀĀĀĀĀĀĀĀĀĀĀĀĀĀĀĀĀĀĀĀĀĀĀĀĀĀĀĀĀĀĀĀĀĀĀĀĀĀĀĀĀĀĀĀĀĀĀĀĀĀĀĀĀĀĀĀĀĀĀĀĀĀĀĀĀĀĀĀĀĀĀĀĀĀĀĀĀĀĀĀĀĀĀĀĀĀĀĀĀĀĀĀĀĀĀĀĀĀĀĀĀĀĀĀĀĀĀĀĀĀĀĀĀĀĀĀĀĀĀĀĀĀĀĀĀĀĀĀĀĀĀĀĀĀĀĀĀĀĀĀĀĀĀĀĀĀĀĀĀĀĀĀĀĀĀĀĀĀĀĀĀĀĀĀĀĀĀĀĀĀĀĀĀĀĀĀĀĀĀĀĀĀĀĀĀĀĀĀĀĀĀĀĀĀĀĀĀĀĀĀĀĀĀĀĀĀĀĀĀĀĀĀĀĀĀĀĀĀĀĀĀĀĀĀĀĀĀĀĀĀĀĀĀĀĀĀĀĀĀĀĀĀĀĀĀĀĀĀĀĀĀĀĀĀĀĀĀĀĀĀĀĀĀĀĀĀĀĀĀĀĀĀĀĀĀĀĀĀĀĀĀĀĀĀĀĀĀĀĀĀĀĀĀĀĀĀĀĀĀĀĀĀĀĀĀĀĀĀĀĀĀĀĀĀĀĀĀĀĀĀĀĀĀĀĀĀĀĀĀĀĀĀĀĀĀĀĀĀĀĀĀĀĀĀĀĀĀĀĀĀĀĀĀĀĀĀĀĀĀĀĀĀĀĀĀĀĀĀĀĀĀĀĀĀĀĀĀĀĀĀĀĀĀĀĀĀĀĀĀĀĀĀĀĀĀĀĀĀĀĀĀĀĀĀĀĀĀĀĀĀĀĀĀĀĀĀĀĀĀĀĀĀĀĀĀĀĀĀĀĀĀĀĀĀĀĀĀĀĀĀĀĀĀĀĀĀĀĀĀĀĀĀĀĀĀĀĀĀĀĀĀĀĀĀĀĀĀĀĀĀĀĀĀĀĀĀĀĀĀĀĀĀĀĀĀĀĀĀĀĀĀĀĀĀĀĀĀĀĀĀĀĀĀĀĀĀĀĀĀĀĀĀĀĀĀĀĀĀĀĀĀĀĀĀĀĀĀĀĀĀĀĀĀĀĀĀĀĀĀĀĀĀĀĀĀĀĀĀĀĀĀĀĀĀĀĀĀĀĀĀĀĀĀĀĀĀĀĀĀĀĀĀĀĀĀĀĀĀĀĀĀĀĀĀĀĀĀĀĀĀĀĀĀĀĀĀĀĀĀĀĀĀĀĀĀĀĀĀĀĀĀĀĀĀĀĀĀĀĀĀĀĀĀĀĀĀĀĀĀĀĀĀĀĀĀĀĀĀĀĀĀĀĀĀĀĀĀĀĀĀĀĀĀĀĀĀĀĀĀĀĀĀĀĀĀĀĀĀĀĀĀĀĀĀĀĀĀĀĀĀĀĀĀĀĀĀĀĀĀĀĀĀĀĀĀĀĀĀĀĀĀĀĀĀĀĀĀĀĀĀĀĀĀĀĀĀĀĀĀĀĀĀĀĀĀĀĀĀĀĀĀĀĀĀĀĀĀĀĀĀĀĀĀĀĀĀĀĀĀĀĀĀĀĀĀĀĀĀĀĀĀĀĀĀĀĀĀĀĀĀĀĀĀĀĀĀĀĀĀĀĀĀĀĀĀĀĀĀĀĀĀĀĀĀĀĀĀĀĀĀĀĀĀĀĀĀĀĀĀĀĀĀĀĀĀĀĀĀĀĀĀĀĀĀĀĀĀĀĀĀĀĀĀĀĀĀĀĀĀĀĀĀĀĀĀĀĀĀĀĀĀĀĀĀĀĀĀĀĀĀĀĀĀĀĀĀĀĀĀĀĀĀĀĀĀĀĀĀĀĀĀĀĀĀĀĀĀĀĀĀĀĀĀĀĀĀĀĀĀĀĀĀĀĀĀĀĀĀĀĀĀĀĀĀĀĀĀĀĀĀĀĀĀĀĀĀĀĀĀĀĀĀĀĀĀĀĀĀĀĀĀĀĀĀĀĀĀĀĀĀĀĀĀĀĀĀĀĀĀĀĀĀĀĀĀĀĀĀĀĀĀĀĀĀĀĀĀĀĀĀĀĀĀĀĀĀĀĀĀĀĀĀĀĀĀĀĀĀĀĀĀĀĀĀĀĀĀĀĀĀĀĀĀĀĀĀĀĀĀĀĀĀĀĀĀĀĀ ĀĀĀĀĀĀĀĀĀĀĀĀĀĀĀĀĀĀĀĀĀĀĀĀĀĀĀĀĀĀĀĀĀĀĀĀĀĀĀĀĀĀĀĀĀĀĀĀĀĀĀĀĀĀĀĀĀĀĀĀĀĀĀĀĀĀĀĀĀĀĀĀĀĀĀĀĀĀĀĀĀĀĀĀĀĀĀĀĀĀĀĀĀĀĀĀĀĀĀĀĀĀĀĀĀĀĀĀĀĀĀĀĀĀĀĀĀĀĀĀĀĀĀĀĀĀĀĀĀĀĀĀĀĀĀĀĀĀĀĀĀĀĀĀĀĀĀĀĀĀĀĀĀĀĀĀĀĀĀĀĀĀĀĀĀĀĀĀĀĀĀĀĀĀĀĀĀĀĀĀĀĀĀĀĀĀĀĀĀĀĀĀĀĀĀĀĀĀĀĀĀĀĀĀĀĀĀĀĀĀĀĀĀĀĀĀĀĀĀĀĀĀĀĀĀĀĀĀĀĀĀĀĀĀĀĀĀĀĀĀĀĀĀĀĀĀĀĀĀĀĀĀĀĀĀĀĀĀĀĀĀĀĀĀĀĀĀĀĀĀĀĀĀĀĀĀĀĀĀĀĀĀĀĀĀĀĀĀĀĀĀĀĀĀĀĀĀĀĀĀĀĀĀĀĀĀĀĀĀĀĀĀĀĀĀĀĀĀĀĀĀĀĀĀĀĀĀĀĀĀĀĀĀĀĀĀĀĀĀĀĀĀĀĀĀĀĀĀĀĀĀĀĀĀĀĀĀĀĀĀĀĀĀĀĀĀĀĀĀĀĀĀĀĀĀĀĀĀĀĀĀĀĀĀĀĀĀĀĀĀĀĀĀĀĀĀĀĀĀĀĀĀĀĀĀĀĀĀĀĀĀĀĀĀĀĀĀĀĀĀĀĀĀĀĀĀĀĀĀĀĀĀĀĀĀĀĀĀĀĀĀĀĀĀĀĀĀĀĀĀĀĀĀĀĀĀĀĀĀĀĀĀĀĀĀĀĀĀĀĀĀĀĀĀĀĀĀĀĀĀĀĀĀĀĀĀĀĀĀĀĀĀĀĀĀĀĀĀĀĀĀĀĀĀĀĀĀĀĀĀĀĀĀĀĀĀĀĀĀĀĀĀĀĀĀĀĀĀĀĀĀĀĀĀĀĀĀĀĀĀĀĀĀĀĀĀĀĀĀĀĀĀĀĀĀĀĀĀĀĀĀĀĀĀĀĀĀĀĀĀĀĀĀĀĀĀĀĀĀĀĀĀĀĀĀĀĀĀĀĀĀĀĀĀĀĀĀĀĀĀĀĀĀĀĀĀĀĀĀĀĀĀĀĀĀĀĀĀĀĀĀĀĀĀĀĀĀĀĀĀĀĀĀĀĀĀĀĀĀĀĀĀĀĀĀĀĀĀĀĀĀĀĀĀĀĀĀĀĀĀĀĀĀĀĀĀĀĀĀĀĀĀĀĀĀĀĀĀĀĀĀĀĀĀĀĀĀĀĀĀĀĀĀĀĀĀĀĀĀĀĀĀĀĀĀĀĀĀĀĀĀĀĀĀĀĀĀĀĀĀĀĀĀĀĀĀĀĀĀĀĀĀĀĀĀĀĀĀĀĀĀĀĀĀĀĀĀĀĀĀĀĀĀĀĀĀĀĀĀĀĀĀĀĀĀĀĀĀĀĀĀĀĀĀĀĀĀĀĀĀĀĀĀĀĀĀĀĀĀĀĀĀĀĀĀĀĀĀĀĀĀĀĀĀĀĀĀĀĀĀĀĀĀĀĀĀĀĀĀĀĀĀĀĀĀĀĀĀĀĀĀĀĀĀĀĀĀĀĀĀĀĀĀĀĀĀĀĀĀĀĀĀĀĀĀĀĀĀĀĀĀĀĀĀĀĀĀĀĀĀĀĀĀĀĀĀĀĀĀĀĀĀĀĀĀĀĀĀĀĀĀĀĀĀĀĀĀĀĀĀĀĀĀĀĀĀĀĀĀĀĀĀĀĀĀĀĀĀĀĀĀĀĀĀĀĀĀĀĀĀĀĀĀĀĀĀĀĀĀĀĀĀĀĀĀĀĀĀĀĀĀĀĀĀĀĀĀĀĀĀĀĀĀĀĀĀĀĀĀĀĀĀĀĀĀĀĀĀĀĀĀĀĀĀĀĀĀĀĀĀĀĀĀĀĀĀĀĀĀĀĀĀĀĀĀĀĀĀĀĀĀĀĀĀĀĀĀĀĀĀĀĀĀĀĀĀĀĀĀĀĀĀĀĀĀĀĀĀĀĀĀĀĀĀĀĀĀĀĀĀĀĀĀĀĀĀĀĀĀĀĀĀĀĀĀĀĀĀĀĀĀĀĀĀĀĀĀĀĀĀĀĀĀĀĀĀĀĀĀĀĀĀĀĀĀĀĀĀĀĀĀĀĀĀĀĀĀĀĀĀĀĀĀĀĀĀĀĀĀĀĀĀĀĀĀĀĀĀĀĀĀĀĀĀĀĀĀĀĀĀĀĀĀĀĀĀĀĀĀĀĀĀĀĀĀĀĀĀĀĀĀĀĀĀĀĀĀĀĀĀĀĀĀĀĀĀĀĀĀĀĀĀĀĀĀĀĀĀĀĀĀĀĀĀĀĀĀĀĀĀĀĀĀĀĀĀĀĀĀĀĀĀĀĀĀĀĀĀĀĀĀĀĀĀĀĀĀĀĀĀĀĀĀĀĀĀĀĀĀĀĀĀĀĀĀĀĀĀĀĀĀĀĀĀĀĀĀĀĀĀĀĀĀĀĀĀĀĀĀĀĀĀĀĀĀĀĀĀĀĀĀĀĀĀĀĀĀĀĀĀĀĀĀĀĀĀĀĀĀĀĀĀĀĀĀĀĀĀĀĀĀĀĀĀĀĀĀĀĀĀĀĀĀĀĀĀĀĀĀĀĀĀĀĀĀĀĀĀĀĀĀĀĀĀĀĀĀĀĀĀĀĀĀĀĀĀĀĀĀĀĀĀĀĀĀĀĀĀĀĀĀĀĀĀĀĀĀĀĀĀĀĀĀĀĀĀĀĀĀĀĀĀĀĀĀĀĀĀĀĀĀĀĀĀĀĀĀĀĀĀĀĀĀĀĀĀĀĀĀĀĀĀĀĀĀĀĀĀĀĀĀĀĀĀĀĀĀĀĀĀĀĀĀĀĀĀĀĀĀĀĀĀĀĀĀĀĀĀĀĀĀĀĀĀĀĀĀĀĀĀĀĀĀĀĀĀĀĀĀĀĀĀĀĀĀĀĀĀĀĀĀĀĀĀĀĀĀĀĀĀĀĀĀĀĀĀĀĀĀĀĀĀĀĀĀĀĀĀĀĀĀĀĀĀĀĀĀĀĀĀĀĀĀĀĀĀĀĀĀĀĀĀĀĀĀĀĀĀĀĀĀĀĀĀĀĀĀĀĀĀĀĀĀĀĀĀĀĀĀĀĀĀĀĀĀĀĀĀĀĀĀĀĀĀĀĀĀĀĀĀĀĀĀĀĀĀĀĀĀĀĀĀĀĀĀĀĀĀĀĀĀĀĀĀĀĀĀĀĀĀĀĀĀĀĀĀĀĀĀĀĀĀĀĀĀĀĀĀĀĀĀĀĀĀĀĀĀĀĀĀĀĀĀĀĀĀĀĀĀĀĀĀĀĀĀĀĀĀĀĀĀĀĀĀĀĀĀĀĀĀĀĀĀĀĀĀĀĀĀĀĀĀĀĀĀĀĀĀĀĀĀĀĀĀĀĀĀĀĀĀĀĀĀĀĀĀĀĀĀĀĀĀĀĀĀĀĀĀĀĀĀĀĀĀĀĀĀĀĀĀĀĀĀĀĀĀĀĀĀĀĀĀĀĀĀĀĀĀĀĀĀĀĀĀĀĀĀĀĀĀĀĀĀĀĀĀĀĀĀĀĀĀĀĀĀĀĀĀĀĀĀĀĀĀĀĀĀĀĀĀĀĀĀĀĀĀĀĀĀĀĀĀĀĀĀĀĀĀĀĀĀĀĀĀĀĀĀĀĀĀĀĀĀĀĀĀĀĀĀĀĀĀĀĀĀĀĀĀĀĀĀĀĀĀĀĀĀĀĀĀĀĀĀĀĀĀĀĀĀĀĀĀĀĀĀĀĀĀĀĀĀĀĀĀĀĀĀĀĀĀĀĀĀĀĀĀĀĀĀĀĀĀĀĀĀĀĀĀĀĀĀĀĀĀĀĀĀĀĀĀĀĀĀĀĀĀĀĀĀĀĀĀĀĀĀĀĀĀĀĀĀĀĀĀĀĀĀĀĀĀĀĀĀĀĀĀĀĀĀĀĀĀĀĀĀĀĀĀĀĀĀĀĀĀĀĀĀĀĀĀĀĀĀĀĀĀĀĀĀĀĀĀĀĀĀĀĀĀĀĀĀĀĀĀĀĀĀĀĀĀĀĀĀĀĀĀĀĀĀĀĀĀĀĀĀĀĀĀĀĀĀĀĀĀĀĀĀĀĀĀĀĀĀĀĀĀĀĀ
ĠL isa
ĠAC E
B áº§u
ĠèĲ¬ váº¡n
ĠTH O
ĠS tream
p u
Ġph uy
Ð¾Ð ¶
d áº¡
ord e
Ġpen alty
D O
Ġ" ,
Ġ2 24
Ġtá»ĭ t
ĠH áºŃn
K y
Ġv Ã³
ĠKH XH
ĠBa ch
gi ang
ĠLo u
ĠCHá» ®
Ġå¤ĸ ngoáº¡i
Ġ3 55
ĠDo ug
M Ã¹i
Ġ19 42
d Ãłnh
ĠB áº¿
Ġpre fix
Mal aysia
ĠT á»¥i
ĠL á»į
80 8
c ach
H OT
ess a
att a
Tr á»Ļn
ĠBC TC
r ao
ĠS fone
ĠTr Ã²n
h uyá»ģn
ip er
nh iá»ĩt
y Ãªn
ide a
pr ise
p ng
ĠL áº¡n
Ġnh Ãłi
2 66
ist ic
Ġd evelop
28 4
ĠSouth ern
M W
ug eot
Ġå¾ ©phá»¥c
ĠPart y
ĠP TTH
ÄĲ Ã¢u
ĠÃĲ á»Ļ
ĠthÃª nh
Äĳ áº¥u
Ġp at
ĠG mobile
rus alem
l Ã´ng
Í Ģ
Ġng áº©m
ĠId lib
s Ã¡ch
19 86
ac char
OR E
Ġbro chure
Ġc v
Ġngo i
Ġèĳ Ĺ
C G
Ġac rylic
ĠGrand e
Reu ters
3 66
d ec
ĠDes ire
Ġkn ock
Ġr Ã¢y
ii i
ĠS r
38 7
Ġá»Ķ n
at form
ĠBe ats
H á»įa
K W
Ġph Æ¡
Ġlu áº©n
oo st
ĠPan orama
d el
qu áº§n
ch á»£
r ary
Å Ĥ
Ġl á»ĭnh
Ġ18 2
er ox
Ġm ess
ad el
ĠN in
Ġal so
29 8
ĠLH TN
ĠC iputra
ĠS ah
Ġ09 79
Ġgi áº¿m
Ġ19 44
Ġå½¼ bá»ī
ĠB ing
it ol
Ġng áº¥n
ÄĲ Ã³n
Ġ ãĤ
Ġvin aphone
G Ã³p
Ġs witch
Ġp et
ard s
Ġjust ify
Ġb ep
ĠL áº¡ch
Ġf ood
89 8
t ec
Ġden im
ĠM SN
ĠéĽ² vÃ¢n
Ġt t
Ġb io
ol is
ĠLiber ty
6 75
39 5
r at
ĠT ec
D E
Ġá» Ĵ
it ary
ĠA sean
ia z
Ä¨ NH
Ġ3 15
Ġ18 6
ĠMy stery
Ġmá»ı m
Ġthá»¥ y
ĠC ES
ed o
Ġb á»ĩn
R á»Ńa
et ch
K R
ed om
ĠHil ux
Ġm áº§y
r ics
Ġco un
s top
ĠC ienco
ĠTh un
Ġpoly ester
ĠtÃŃ p
ub er
ĠQ S
H TT
D á»¥ng
Ġ20 7
kh áº©u
Ġpl asma
Ġh ÃŃch
os amine
ĠTV B
Tr á»«
ĠH ap
ptoc urrency
iv ity
o on
ĠAnalyt ics
Ġlá» «
ĠA ung
Ġh Ãªn
33 4
B ang
ĠÄĲ áº¶C
Ġ19 6
Äĳ áº£
Ġho e
å¿« ä¸ī
ĠK ali
Ġ$ (
ïģ °
ĠÄĲ iá»ĥu
Ġp ad
æ ²
ĠC zech
Ġ5 30
âĢ¦âĢ¦ ..
ĠDes ktop
Ġqu áº¹o
Ġng á»ĳn
= \"
r avel
ĠK ath
de f
ĠVietNam Net
ĠG ad
F ree
j ack
g ie
ĠTB N
37 3
Ġto anh
Ġhá» ĥn
ĠÄĳÃ³ m
ĠèĳĹ trÆ°á»Ľc
Ġr á»ĳng
ĠnhÃŃ m
int uc
ĠDo w
ĠAr izona
ĠAn ne
Ġd áºŃm
01 2
ĠZ ebra
ĠTr Äĥm
Ġ áºµm
ĠV oucher
ĠCruz e
ĠF R
ab it
H á»Ļ
N Ã©t
ĠL ÃŃnh
Th á»£
ĠGen er
Ġ( ...)
ĠB AO
Ġho at
Ġy ahoo
S m
d ie
ĠUV A
Tr á»¥
ĠPro fessional
ho ut
Ĩl iá»ħu
Ġnh uá»ĳm
Ġu Ã½
Ġé¦ Ļ
Ġd áº£
Ġ09 14
Ġpro duc
ĠRa fa
b Ã¡ch
ch iáº¿u
Ġä¿® tu
Ġr ia
ĠD t
H Æ°á»Łng
nh iá»ĩm
Ġ28 2
ĠFr ed
Ġ3 99
ĠFU LL
Ġplay er
Ġgi ft
ĠP AN
ĠE TH
s ur
Ġl ia
Ġkh á»©a
ĠTh at
Ġ11 00
out ique
Ġä»ĸ tha
ĠI F
78 7
Ġbá»ĩ ch
w en
ĠB ase
ĠX oa
tr eme
ĠN á»ĵng
hi ro
Äĳ iÃªn
ĠTH á»ĲNG
Ġs x
IV E
ĠÐ »
á»Ł m
yc in
4 68
ĠK ind
ĠA CC
Ġso und
ud d
ĠCB NV
ĠFri ed
Ġcl or
ĠTh uy
Ġè ½
Ba ong
ar es
ng uy
ĠGirl s
ĠT ap
ĠK Iáº¾N
Ġdá»¥ i
Ġäº Ĩliá»ħu
Ġbe at
ÄĲ á»ĩ
25 1
ustr ator
ĠPenn sylvania
16 1
Ġh iá»ģm
ĠM R
Ġ5 80
Ġç ¸
ng o
Ġx Ãºm
eb r
Ġdat abase
Ġnit Æ¡
ĠR J
Ġgio Äĥng
ĠDam ascus
Äĳ oÃłn
Ġph il
ell ig
ĠCu á»ĵng
é «
17 3
ph uc
ĠDan ang
C ola
Ġph ap
Ġtem plate
K ong
ĠL ap
ph áº¥t
eg o
Ġcu te
akh stan
fol low
ĠW ho
ĠSp ider
irm ware
ĠV Ã²i
99 99
ipp ines
ÄĲ áº·ng
ĠT Ã¹
35 6
ĠG ROUP
19 1
c á»±u
ph á»§
ĠAM OLED
ĠB ee
co p
St ation
ĠMas an
ĠÄĲ ÃŃch
Ġ09 9
Ġ09 05
ĠVis ual
ag ne
ĠC ase
36 7
d Ã²ng
19 65
Ġo zone
Ġf ac
Ġstand ee
s burg
Ġç ĸ
ĠUn ion
ĠNgh á»ĭch
k ai
Ġtr á»ģn
á»¢ I
# #
ĠMag azine
Ã ĺ
Ġ[ +
46 2
at ilde
uis er
T axi
O p
ĠMich el
Ĭ ±
Ġå®¶ gia
Ġé ĺ
ĠCh Ã¡o
40 5
Ġt el
tr eo
x uá»ĳng
ĠI mm
Ġgh iá»ģn
a j
k l
et in
Ġåħī quang
H áº¡ng
Ġgar age
T áº¡
Ġj o
× ķ
ĠH unt
Z A
h iá»ĩp
? ).
49 4
Ðº Ð°
ĠShin zo
ch áº¥p
Ġp u
im al
an tra
Ġå¦ Ļ
Ch im
c ake
ĠWal ker
Ġhy brid
Ġpixel s
Ġblow job
v ai
is er
ot es
han oi
Ġxá»ī a
ĠMi u
ĠL Æ°á»¡ng
E ng
Ġ12 80
IS O
a q
L Ä©nh
Ġpol ymer
ĠK ap
ĠPl atinum
16 2
Ġs em
ipp on
Ġoff ice
Ch inh
N á»Ńa
ĠP ict
ĠDom in
l b
ĠCa esar
vis or
u j
Ġc Ã¡ng
Ġ09 82
ĠN Y
Ġt áº¹t
« m
ĠH Æ¯NG
tr Æ°á»£ng
Ġm t
Ġè« ĸ
x s
Ġch á»Ļ
ĠGI áº¢M
50 2
i ji
ĠÄĳá» Ł
ĠRem ote
ĠUn ic
Ġth g
ĠH art
ĠT au
åŃ Ĳ
ui wap
S EO
Ġkh em
ĠX uá»ĳng
ĠTo ols
ĠR us
Ng uy
press o
Ú ©
$ $
Ġr Ãºng
ĠS ug
upload s
Ġx á»©c
26 2
ĠT MT
ĠD ip
50 5
gi oi
ĠSC TV
Ġr á»¥c
el ing
Ġl Æ¡n
Ġç į
S Ã¡u
áº ²
H R
Ø§ Ø
ĠHim alaya
Ġg áº«u
ĠK ans
ĠD Æ¡i
hi hi
ik en
Ġè İ
ĠnhÃ¢ t
Ġå½© ç¥ŀäºīéľ¸
ĸ tuy
Ġs ign
... ;
ĠSerge i
Ġåħ« bÃ¡t
ly n
} ,
ĠVin as
ĠH á»ĳ
Ĩl Ã½
ec rack
c Ã¢n
ĠCar ter
L ee
ĠNg oc
ĠTow ers
Tr áº¡m
ĠYe ah
h ard
ĠçĲ ĨlÃ½
Dr agon
ĠGabri el
v ing
Ġk ar
ĠM ate
ill on
l Ã©
Ġh alogen
ĠK erry
ĠI ng
ĠNg ao
Ġ07 88
ĠAl ger
ach er
ĠMi ami
ĠSá»Ĳ NG
ĠQ UYá»ĢN
Ġèª ŀ
7 75
ĠQu Ã¡t
ph ap
K m
ĠKH I
Ġs v
Ġin cl
ĠY aris
K I
ĠV áº¡c
T em
ĠO FF
ĠMS T
th on
å¿ ĥ
V R
Ġtr y
ĠNg á»įt
( *)
u o
th ao
ĠS amp
69 5
g el
s Ãłn
Ġg Ã¡o
nh u
v y
ĠéĽ ĸtuy
ĠTHá»Ĭ NH
Ġæ ´
Ġder by
V ang
Ġdo an
Ð ¡
Ã¼ r
ather ine
Ġr uy
ĠM áº£nh
ĠSS I
sh ot
P ort
ĠPere z
Ġs Ã©c
ĠCH á»¨C
ĠN onstop
Ð½Ñĭ Ðµ
68 3
of i
b and
34 3
ĠS kr
op ia
om er
do gan
ĠDel uxe
th áº±ng
ĠViet GAP
âĢ °
W eth
Ġå Ł
ĠÄĳ ung
Ġ26 5
ĠFi esta
C ry
ĠTr ee
Ph Æ°á»£ng
ĠM organ
ant ic
OO D
Ġ0 888
9 70
ĠNg áº£i
ĠRo om
ĠD M
Ġr á»ĭch
ch Ã¡y
M Hz
ĠC otton
ĠD iana
ĠW P
Ġ9 999
ĠPH á»Ĳ
lu x
Ġæŀ ľ
c Ãł
ĠçĻ ¼
ĠB eck
ĠÄĳáº½ o
78 6
ĠS ave
Ġm ass
Ph áº¥n
ĠH á»¡i
Ġh atchback
Ġqu á»Ł
Gi áº£ng
Ġr ight
ĠSan yo
ĠCat al
BKH CN
Ġv á»ĳi
Ġchips et
. âĢľ
ĠOP EC
Ġl áºµng
i am
ĠTh eme
AL L
35 8
Ġ088 699
ĠåĪĨ pháº§n
em s
ĠOr acle
Ġ08 288
19 67
ĠAl ban
ĠPhan tom
ĠIM F
Ġ ........
Æ°á» ¡n
Th ai
ĠU P
Ġä¸ Ķ
0 60
nam espace
Ġ03 2565
land s
ïĢ Ń
ĠT ul
ĠIn cheon
Ġch Ã¬nh
ĠÄĲ uÃ´i
micro soft
th umb
per ial
Ġéģ İ
Ġs á»Ľ
ĠAd s
ĠHÄĲT S
Ï ģ
ĠT á»ĥ
C á»Ń
ĠMur ray
ĠV as
Ġ50 388
ĠTr Æ°a
ĠHon or
Ġh ino
Ġ6 36
Ġl á»§i
ul ator
Ġè Ħ
mer ce
Ġpr es
) [
H áº³n
k iá»ĥu
t á»įa
ĠC od
Ġph áº¯t
3 25
S uper
m and
ĠK yl
M iá»ģn
ĠïĤ ·
ĠR GB
ĠL if
Ġå¦Ļ diá»ĩu
ĠB ÃĢN
tr an
ĠMar itime
Ġ: "
Ġcross over
ey ser
ĠNH A
Ġbus iness
ĠL aminate
ĠMon ster
Ġkh á»ĥnh
ĠDevelop ment
A t
ĠV á»Ĩ
ĠM XH
ĠDu áºŃt
ĠDiscover y
X Æ°a
ĠDong feng
ĠÄĲ eo
ĠS áº¿p
ĠI ce
ĠJ ason
Ġxsm b
ĠXU ÃĤN
â ī
ĠDo ctor
Ġtru áºŃt
ass o
ur ing
2 13
ĸ hoáº·c
76 7
Ġho Ã³c
Ġf oot
ĠPh iáº¿n
ĠVG CS
Ġp ara
s am
en er
ĠTeh ran
s ua
de hy
Viet tel
od ep
ĠG ent
Tr a
Ġä¸Ķ tháº£
Ġä¸ ĥ
for ce
ĠWest minster
Ġv Ã³t
ĠM Ã³c
em as
ĠHer bal
Ġá»ī a
ome z
ĠPep si
Ġè«ĸ luáºŃn
ĠX A
m el
th áº»
le ague
B á»ĵn
N uÃ´i
ĠNat ural
IT A
G el
ĠC ord
åĲ Ī
ĠK áº¹o
ĠD á»«ng
ĠB ond
Ġ ê
ĠM IN
Ġ8 10
ipp le
ĠM am
ĠFit ness
RE E
Ġ19 43
æľ º
ĠK as
LV H
ĠOrgan ic
.. )
Ġcá»© t
H Ã²n
T ime
ĠL V
0 40
ĠGi Äĥng
ĠPV D
G Ã¢y
ĠÄĲ Æ°Æ¡
t em
Ġå ĵ
og n
Ġch Ã¯
ĠR ash
ĠPl asma
Ġtr á»Ľn
Ġph iÃª
! ...
Ġ6 80
s te
v inh
ĠAd r
ĠR ho
T ok
ĠAlex is
ĠVol vo
ĠB ey
ĠJ osh
ĠnhÃŃ p
çī ¹
ĠAth ena
åħ ¬
Ġm Ã³p
Ġèªŀ ngá»¯
s d
19 76
^ ^
s áº¡ch
Ġgi Å©a
Ġáº ¾
ĠPH ÃĤN
ĠOrch id
áº¤ M
Ġ3 85
tr ick
ĠGiÃª rusalem
L uyá»ĩn
ĠL á»°C
ĠX ANH
B ÃģN
Ġéģİ quÃ¡
Ġ26 8
ĠCH UYá»ĤN
ĠSat an
Ġnh á»Ļng
Ġ á»ĳt
Ġx áº¹t
Ġkhu Ã¢ng
nem outh
ĠG Ãµ
av in
99 5
ĠAngel ina
ĠB E
BC A
Ġs treet
ĠéĢ ²
ĠTH Iá»ĨU
ĠEver on
ĠDa e
Ġto y
ĠI DC
ĠTab let
ĠWat ford
S ky
oc al
ĠLi u
ĠD á»įn
Ġw ater
ĠHá» ĴNG
ĠÄĳá»± Æ¡c
N E
Ġg Æ¡
Ġd d
ĠS Y
Ġcu r
ĠTai wan
ĠMich igan
v iÃªm
oo per
ĠB IM
ĠÄĳ Æ£
Ġk oi
ĠT et
ĠG á»£i
ĠLe ave
Ġco ol
C AD
Ġth áº©n
ĠB á»¥ng
Kh áº¯c
29 2
H ang
Ġ09 35
Ġ: -
Ġs top
ĠCab in
á»Ł ng
ĠX oan
Ġsu it
ãĥ ĥ
ph uong
6 26
ad at
ĠAss ist
m os
Ġnh Ã³
Ġå¾ ·
ĠCR M
a ff
Ġl áº¡ch
Ġflag ship
Ġp os
l á»Ļt
ens or
ĠIsa ac
Û ©
ĠD F
ĠR ot
45 8
ĠLuc as
ĠNg á»±c
ĠJ erry
² dá»¥c
01 8
N ov
ĠÄĲ iÃªn
ĠD mit
ĠFin ancial
ĠçĻ¼ phÃ¡t
è ĩ
Ġ22 1
B itcoin
Ġnh á»¥y
Ġx uat
Ġma xi
ï¼ ī
ÃŃ c
Ġ4 70
ĠBl anc
Ġ6 66
u th
ĠTRá»Į NG
Ġå¤ļ Äĳa
Ġs á»ı
ĠPh áº¥t
ĠP izza
28 3
Ġtr ig
ĠTH EO
Ġh ap
ag or
te en
Ġp ur
ĠJu ve
68 4
36 3
t á»ĳ
ĠCh á»«ng
ĠTr Ãº
j ar
¥c Ãº
L á»ĳi
Ġp i
ĠÄĲ áº¡p
ĠY es
ĠInter con
Ġåı ¥cÃº
ĠLat itude
ĠXo ay
P a
V áº£i
l ate
19 85
s plit
ĠKen ya
Sai gon
Ġo h
p on
land o
ĠX Ã´i
Äĳ Æ°a
ĠBen jamin
00 6
Ġ à¸
ile y
Ġkh áº¡c
tr á»Ł
ĠSiem ens
ch uyen
Ġl Ã¨
ĠP on
ĠG OL
Äĳ an
Cafe Land
eo l
Ch anh
Ð°ÑĤ ÑĮ
T á»ĳng
ĠViet Jet
Ġå¦ Ħ
ĠTal ent
ĠK g
ĠÄĲ áº¯p
Ġpic nic
è ¨
F ull
Ġch á»Ļt
Ġcu ong
ĠVin school
ĠChá»£ t
B inh
N Ãło
ÐµÐ» ÑĮ
ut athi
B á»ģ
Ġf ind
Ġh áº¡p
Ġng áº¯c
ĠP eople
ĠK ab
ĠF ield
Ġg mail
Ġé« Ķ
ĠP ublic
ir th
ĠPH ONG
ĠP ence
ĠCH QS
ĠD ah
ĠMac au
ĠH CÄĲ
File d
E co
M ag
ĠCh ocolate
P er
Ġv ector
ĠTR Iá»ĤN
R ed
ĠH Ã¡ch
ĠS ide
Ġgolf er
ĠS ac
Ġcu st
ngh iÃªm
A us
int endo
ĠNo Ã£n
Ġt Ã¨
Ġngh iá»ħm
ĠSc reen
Baong hean
ĠTIáº¾ N
r ence
ĠMid d
Ġth ink
ĠP O
ĠS ep
ä¸ ĭ
ĠL eb
Ġå¦Ħ vá»įng
áºł Y
ĠFr esh
Ġch Ã¡c
17 1
b ell
Ġto ang
ĠW omen
][ /
Ġdet ox
ip al
ĠOn t
ĠæĪ ĸhoáº·c
D avid
ĠH ur
Ġtr áºŃp
ĠS ara
Q C
88 7
ĠVIN A
ĠçĽ¸ tÆ°á»Ľng
ĠTr á»Ļm
Ġm id
m au
ĠMich elle
ĠH au
Ġthi ng
75 9
ay roi
ĠO re
ĠEm man
Ġ19 4
ĠAr thur
Ġé«Ķ thá»ĥ
ĠX R
ĠQu in
ty pe
ĠbiÃª t
ĠSel ena
ĠHo c
el son
Ġâī ¤
g gy
Ġ2 14
en pick
ID IA
ĠTI ÃĬU
S M
3 12
Ġéļ ¨
90 5
ĠHuy ndai
v ong
Ch elsea
Ġtrá»ĭ nh
ĠVIET NAM
ĠÃĲ áº¥ng
ĠÄĲH SP
69 6
ĠATV S
M ich
ĠViÃª t
CH I
rem ix
Ġh im
ĠS áº§u
Ġcon cert
65 9
P O
ĠHO ÃĢN
ĠSub aru
ĠBh utan
ĠT ank
Ġc áº¡ch
ĠN Ã¢u
S ung
Ġan ti
thu áºŃn
X a
ĠMc Donald
ath u
ĠÂ» ,
ĠNG á»ĮC
æ¸ ¯
th uat
ĠAc cord
ĠÄĲ ÄĲ
ĠT AY
âĢľ âĢ¦
Ġaf ter
j ust
ĠVin cent
our s
Ġqu Ã¡nh
Ġm ak
Ġhá»Ľ p
Ġp or
Ġt Ã¢ng
ī cá»Ń
in st
ĠCat alog
Ġch lor
48 7
ĠEl antra
tr ict
Ġam azon
ro t
79 5
â Ķ
ph ÃŃ
kh ong
as ed
Ġnick name
Ġáº¢ NH
ĠB LÄĲ
ĠW D
N i
Ġm er
Kho ai
z on
ĠAsp ire
L en
49 8
C AO
K o
ĠEd itor
N áº¡n
ĠP ao
ĠAm ply
Ġåı Ĭ
Ġm uá»ĳt
ĠTim or
ĠUE H
3 11
00 8
tr á»Ŀi
ĠTop az
ĠCh Ã¬a
sen al
å® ¶
b Ã©
is free
Ġm Ã²i
ĠÄĲ áº«n
ĠthÆ¡ ng
ĠÄĲ iá»ĩu
ĠSa ch
ĠM áº§u
AM E
ĠCont ainer
ĠPe ugeot
ĠcÃ³ t
ph yl
ĠC oop
act ive
h z
ÄĲ á»£i
ĠÃĲ á»ĭnh
ĠMon tre
Ġasp irin
Ġéļ¨ tÃ¹y
ĠVin ashin
Cont ent
Ġèģ ²
av ia
ĠT á»ĩ
ĠJ ersey
ĠmÃŃ m
ĠFin al
C Ã¡t
Ġr áº¡o
Ġç ģ
Ġch uy
iss ot
ĠG omez
ĠDav is
70 6
ĠMald ives
ĠL á»±u
Î µ
Ġs á»įt
ĠP and
Ġd iáº¿m
Ġol ive
ĠIbrahim ovic
ĠR ex
ĠMod ule
. âĢĿ.
S á»©
Ġo il
ĠN em
Ġnh á»Ń
ĠL á»¥a
c Å©
M Å©i
ĠAg u
b ow
ĠC I
ĠK el
00 9
ist s
ĠA NT
So ft
Ġh ad
CS XH
áºª U
ĠLaz io
17 2
ĠX áº£
Ġ9 81
19 66
ĠDS LR
ĠPh á»ıng
OR T
ĠRob usta
ĠS GD
Ġv ote
tr uong
ĠSt yl
Ġr áº·n
le ct
Ġb onsai
ĠK BNN
pert ies
ov ern
ĠH Cl
3 16
ĠL Ãµi
ĠD á»ĭp
ĠéĤ Ħ
Ġs Ã¢
LV T
ĠS iber
ĠC á»¨
raz y
ĠAn alog
ĠTho Ã¡i
Ġåįĥ thiÃªn
ĠBill board
ĠL áº©u
ãģ į
Ġb áº£nh
Ġkh ua
K TS
00 01
35 4
Ġf utsal
pro duct
ĠEb ola
ĠHo Ã¡n
Ġsoc ial
Ġs rc
q q
amil ton
Ġx á»Ł
ĠR FA
ĠMill enn
nh á»Ľ
Ġb h
ĠX Ã¡m
ĠF lex
80 5
ed s
âĸĪ âĸĪ
Ġel astin
ĠQu Ã¢
ĠW EF
ĠhÃ² an
u ary
ĠSl am
v d
Ġhá» £i
C Ãº
Ġh s
Ġp vc
ĠKy ung
Ġ30 2
ĠV ime
Th Ã³i
su it
ĠAp ollo
ĠåıĬ cáºŃp
U ZU
Ġr á»©a
qu id
ĠC ebu
D el
z el
Ġå Ĥ
M ark
79 8
Ġal ign
C Æ¡m
ĠPrin ce
x áº¥u
U D
f alse
thu Ãª
Ġcr Ã´m
A W
60 5
P Y
h el
ĠM ol
ĠNic olas
st ick
âĢĿ ),
19 74
t ab
Ġ09 87
d áº§u
ph on
70 5
Ġsne aker
15 00
ĠM iz
C AM
Ġph Æ°Æ¡
ĠQL DA
ud ential
b Äĥng
ĠP ir
23 1
ino is
ĠC ub
69 4
Ġbu r
34 7
ĠBÄĲ BP
« h
ĠR ey
40 9
Ġgame play
ĠFin als
id en
Ġz en
ĠC Ã³c
ĠLan c
áº¬ U
ĠHam burg
ĠChristo pher
ĠS top
ĠBurn ley
ush ima
Ġth Å©ng
Ġc y
Ġs áº¿n
ĠH Ã²
H GÄĲ
ĠB ose
Äĳ á»Ŀi
ĠMar ri
yo ung
scr ibe
* ,
Ġd á»Ńng
he el
ĠéĤĦ hoÃłn
ĠX M
Ġs Ãª
od ium
iff el
Ġèģ ĸ
19 20
75 6
ear ning
ĠOhi o
Ġam i
ĠRob in
N e
---- --
ĠBenz ema
t áº¡ng
al ine
ĠY uk
z alo
am el
ĠB AN
K i
é ¦
ÑĢ Ñĥ
ĠUl timate
ai do
Ġchi eu
Ġhá»¥ c
© ¬
Ġïģ °
Ġs dt
ĠCÄĲ CS
Ġl uat
Ġè Ĺı
ĠVI D
ĠGS M
s is
epp el
m á»ģm
Ù ģ
Ġth Ãło
ĠFern ando
ĠS AT
Ġçķ °
") [
Ġæ Ĭ
ĠBig C
qu ir
P DF
ĠXX I
Ġf ly
Ġtr uÃ¢n
ĠS á»Ľm
AL O
Ġn m
Ġå¢ ĥ
ĠE ti
Ġâ Ĺ
99 8
ĠEuro pe
ãĥ «
ĠB áº¡i
0 20
ĠDora emon
å Ĵ
ĠÃĤ M
ĠBour nemouth
ĠM áº¯c
Ġè½ ī
Ġl Ã¹
ĠAb raham
Ġthá»į c
ĠS Ãªnh
ĠKaz akhstan
ĠAss ad
ph Ã³ng
qu Ã¡i
ĠCon cept
Thu áºŃt
ĠN á»®
in er
ïĢ ©
ĠT Ãłn
Ġå¡ µ
ĠLang uage
y ou
Ġh ÃŃp
å¸ Ĥ
J o
ĠS ix
,... )
Ġ7 30
ĠâĿ ¤
Ġå §
Ġ09 77
s q
ãģ ĵ
Ġc Æ°á»Ŀm
ĠR áº±ng
80 2
cua dor
ĠBo ard
ĠQu anh
ĠPar agon
ĠÄĲá»Ĭ A
39 3
AT ION
ĠT áº»
A BC
Ġx oi
Ġç¥ ĸ
h ua
ĠD rop
Ġst ore
Î ½
s á»ĳt
th á»ĳng
ĠS Æ°u
50 6
ĠHÄĲT V
7 10
90 9
Ġ7 68
Ġven eer
M áº¡c
ĠFran co
B ack
ĠET F
34 6
Ġïĥ ¯
h inh
ĠHU D
n ew
Ġw ed
KV A
CO N
Ġis uzu
ĠU ser
is i
Ġpl an
ĠB á»įc
ĠB áº¯p
er g
es te
Gi Ã³
qu i
ĠÄĲ ÆłN
Tr ail
Ġå Ŀ
So fa
ĠPH á»¤C
Ġæ¬ ²dá»¥c
s uy
ĠB áº§n
Å© y
ĠTN R
N á»¥
ĠB ird
Ġå¢ĥ cáº£nh
ol m
ĠY O
ĠGet ty
Ġ19 38
gi Æ°á»Ŀng
N á»ĳi
¡ thá»©
Ġch am
Ġn umber
AR A
8 30
ĠT ien
ch au
ĠG au
ĠDO JI
Ġé ľ
Ġ23 2
Ġad apter
Ġå¡µ tráº§n
ip le
ĠE cos
cl ass
ĠF O
l áº¡
Ġçķ° dá»ĭ
th á»ĭt
CN TT
Ġmicro SD
Ġv áº¡c
Ġph ui
ĠT áº¶NG
ĠCh urch
ĠCTC K
Ġri u
it ive
ĠTal iban
it in
Â ¹
é Ĺ
ĠZ hang
19 80
H E
ĠStan ley
itex co
Ġæ¥ Ń
ul u
Ġr Ã©o
áº¤ y
Ġthu Ã´n
ĠNH áº¬P
ÂŃ ÂŃ
Ð°Ð» ÑĮ
Ġhel p
A uto
ĠK Iá»ĨN
ĠO d
asu ke
ĠÄĳ áºŃn
ĠÄĲ Ãĥ
Ġ19 36
eth ao
Ġéĸ ĵ
ĠC Æ°ng
29 3
Ġth Ã¡
ĠX Ã¡ch
S UNG
Ġr Æ°Æ¡ng
ĠFor est
A Bank
áº ´
ĠC AN
ĠTh á»ĳt
Ġ2 13
ĠTh under
ĠK á»²
Ġgia c
ĠW is
thi et
Em ail
ĠE ffect
P ar
Ġch eo
Ġ09 43
ĠF eb
ĠSel ect
sp ace
ĠÄĳ Ã¬a
ĠR ah
ĠBlack berry
ĠD P
id ge
ĠKit ty
¢ kÃ½
ĠÄĲ C
ĠCh au
pr ing
ĠCro wn
é« ĺ
ĠVL XD
Ġ! âĢĿ
) ",
æľ ¬
äº Ĩ
th al
å¼Ģ å¥ĸ
N ote
t est
ĠPro duct
ĠTh ailand
ĠLeon ardo
Ġç¥ĸ tá»ķ
ĠEner gy
U A
ĠVIá»Ĩ N
ĠGel ex
ĠMet al
Th Ãº
Ġç« ĭ
s um
Ġæī ĭ
Ġmix er
ĠS J
ith at
Ð ŀ
60 6
35 3
V a
r ess
ĠTr á»«ng
Ġco c
69 8
79 7
ĠN FC
Ġl áº¯t
ĠK áº½m
Äĳ Ã¬nh
ĠK C
ĠMua ban
ĠChal leng
Ġå¾· Äĳá»©c
; &
Ġsand wich
nh i
ĠD á»¤C
ĠNa OH
âŀ ¡
B ig
le e
áº ¼
L á»Ļc
rid ge
49 6
Ġs Äĳt
Ġ09 19
ng á»ĵi
â ķ
AS EAN
ĠA vent
ĠQU áº¢NG
h áº¡ng
ĠÄĲá» Ķ
Ġtr Æ°á»Ŀn
IF I
ĠMatt is
m á»¹
and i
44 7
Ġm Ãµm
ĠF ol
phen ol
ĠNh Ã©
ĠGu inea
Ġè½ī chuyá»ĥn
M Ã´ng
Ġé ķ·
T á»ıi
âĢĻ -
Ð¾Ð» ÑĮ
======== ========
Ø§ ÙĨ
ank a
ĠN U
ĠB á»Ļc
ul ich
ĠAU D
st and
K M
ĠNh áº¥p
Ġa way
IN O
orde aux
ĠM bps
Ġn á»ı
ĠN ana
che ng
ĠÄĲ A
or es
ĠphÃ¹ n
ĠL á»ľI
ĠK ard
ent ina
ĠÄĲCS VN
Ġan t
ĠUni qlo
Ġæ¥Ń nghiá»ĩp
f il
Ġlo unge
b áºŃt
ĠæĹ ¢kÃ½
ng ers
h iá»ĥn
ÄĲ an
eth ane
ĠÄĲ áºłO
ĠSm all
49 7
Ġph uá»Ļc
ĠE PA
Des ign
ĠÃ ĺ
ĠnghiÃª p
blog spot
d áº¡y
ĠÄĲ á»ĲI
Ġk W
f un
ĠÄĳá» £
Ġè ·
ke i
ann i
Ġnu Ã´ng
ĠTao bao
C áº§m
ĠG lo
l is
Ġphu ong
å¤© å¤©
ĠCh Ã¬
Ġc itr
Ġx n
ĠC Ãºng
Ġx uyáº¿t
ĠKho Ã¡
p ass
Ġr Ä©
ĠCh erry
åĲ Ĺ
ĠKh á»Ľp
K Y
m obi
ĠLu Ã¢
ĠKh Ã³i
full and
39 6
l av
ĠM atch
ĠCh á»Ń
Ġ28 5
Ġho ney
ĠHo e
Ġç Į
Xi aomi
T áº¯m
Ĩ Äĳ
ĠB iz
ĠL á»£n
Ġr Ã²i
ĠR Ãł
ĠC ac
B Ã´ng
Ġg ot
ĠS Ã¡p
ĠåĲ Ī
ĠN áº·c
ĠTh á»Ł
99 2
Th á»ıa
Iáº¾ U
ĠSam uel
ĠF il
Ġm oto
ĠK DL
Ġcont act
ĠR at
Ġw ell
ĠNg áº¯n
Ġæ¸ ħ
áº² NG
ĠY oshi
eb e
ĠHÄĲ LÄĲ
ĠCout inho
Ġá»¨ c
U TC
Ġh al
b ike
Ġch á»ĭch
Ã «
Ġè ¾
ĠSud an
] ]
á» Ħ
ĠPl ac
b ase
g áº·p
Â ¥
ĠH CB
H á»¡i
ĠCá»« u
ĠT ennis
Ġr ÃŃu
(" -
ĠçĶ ±
Ġp ap
ĠMi G
ott om
ut es
D inh
u ce
Ġp rom
ĠF ix
37 6
Ð Ĳ
ĠIns ider
C Äĥng
Ġk a
Th Æ°á»Łng
ĠPap ua
Ġg Ã¡
ĠE iffel
60 4
ĠL ives
ĠÐ¾ ÑĤ
ĠPh Ã¡c
ĠI con
K Q
ĠTh ÃŃnh
27 2
50 9
ĠIntercon tinental
ĠMan s
ĠF und
Ġqu áº©y
ph áº©m
ud i
Ġpost date
h in
ĠK ool
ĠCap t
ĠAgu ero
ª t
ĠSh ort
thu oc
ĠLink s
ĠLM HT
ĠAll en
40 3
ĠK ol
50 4
ĠAc cent
Ġfl an
99 4
ĠEmman uel
("- ")[
g Ã¡i
ĠH á»ħ
ĠR Ã¨n
59 5
de al
8 20
Ġx áº¡c
b á»ķ
Ġpan asonic
ĠSal a
ĠK ro
ĠCh á»©a
ink i
k W
ĠK Ã¨o
Ġly m
ĠÄĳ Æ¡m
Ġâ ĩ
ĠHar m
18 2
Ġlact ic
ĠL INH
Ġn tn
Ġ4 90
ĠTP CN
44 6
Ġli oa
ĠV J
ĠK amp
ĠTh inh
og ue
ĠBudd ha
ĠEd u
ĠCon stant
p lex
Ġ ÑģÑĤ
ÄĲ áº¥u
ĠéĢ² tiáº¿n
Ġngo áº±n
ĠPhot ocopy
ĠM Äĥ
Ġâ Ħ¢
h ao
ĠTuc son
Ġæĩī Æ°ng
ĠOnt ario
Ġth ÃŃt
ĠN intendo
ĠthÆ°á»Ŀng g
iff any
Ġb eo
ch Ã¡u
ĠG Äĥng
Ġc Ã¹m
Ġbo ots
ĠS lo
E uro
And roid
ch eck
Ġit s
d áº¥u
ne ider
ĠEm erald
yl ene
33 33
vers e
ire ct
utathi one
B ong
nh ac
Ġkh Æ°Æ¡ng
Ġas us
ĠEti had
19 78
Ġth Ã³p
Ġ( *
EO N
åŃ ¦
p re
Ġs elen
Ġç«ĭ láºŃp
å ¦
ĠB ra
ĠBi eber
ishi ng
Ġmin ibar
t ap
ch or
d á»¥
Ġä¾ Ĩ
CTC P
l á»Ľn
AT GT
Ġe ar
ĠC NH
ĠOrig inal
ĠC á»§ng
ĠH AI
ĠSN SD
Ġv Æ°á»£n
Äĳ á»§
ph á»ķ
ĠB au
ĠInvest ment
t Ãª
Ġvn d
enz o
Ġh um
ab ook
ĠBat man
ãĢ Į
ĠQL TT
ĠR al
Ġp ublic
Ġèģĸ thÃ¡nh
Ġl Ãµa
Ġgiá» ¥
Ch á»Ĺ
ÄĲ Ãłm
j s
eo r
D ep
áº® P
á»ª NG
ĠBe eline
Ġs ac
Hu á»³nh
ĠIn tr
ĠKe angnam
at ur
60 9
ĠVIE TT
H Ã´
Ġt ips
ĠKho áº£nh
ĠMar cus
ĠArab ica
ĠU áº©n
Ãī P
Ġä¸ĥ tháº¥t
ĠV áº¬T
ĠSy n
ĠOpt ions
en os
Ġïĥ ŀ
ĠH amilton
st ation
ĠCh Ã¹m
y r
le ic
Ð¸Ð ·
ĠN X
Ġed ge
ĠA ero
ĠR Æ¡i
R oom
ĠEx change
n Ã´
Ġel ect
ĠTh Ãªu
ĠGi Æ¡
Ch áº£
ĠE cuador
Ġt wo
ĠPh at
ui l
ĠR ow
ont um
ĠN áº¿p
Ġæ¬ ¡thá»©
Tr Æ°Æ¡
t áº¯t
ÑĤ Ð¾
ÄĲ em
ĠCÃģ O
Ġtr áº±n
4 75
D Æ°a
d ich
ĠT ÃĤY
ĠTh Æ°Æ¡
ĠJ ew
L U
Ġnh Ãłnh
ĠIP v
Ġtr ue
Ãļ NG
ĠN EW
bun tu
ĠGI AN
ĠV ung
Ġä» ¤
ĠCh un
40 8
ĠTh Ãł
V ay
ĠP ig
24 1
ĠAf ter
Ġqu áº«n
Ġè£ ı
ĠN ippon
Ġster eo
ĠB rah
ff y
B á»ī
ĠAg oda
Ġng áº¡nh
ĠRac ing
b Æ°á»Ľc
man i
m id
ĠKh Ã³c
ĠPoly ester
Th á»īnh
ul ose
ob ic
Ġæŀľ quáº£
F X
ĠPh Ã¬
ĠDe ath
ĠLu ke
Ġth Ã¯
ÄĲ Ã¬nh
19 48
IG HT
ĠSh u
% ...
ĠK TX
is en
am ax
ĠFu coidan
t Ãºi
ĠM Y
ĠL L
Ġf ound
ĠâĢ Ļ
ĠMil k
ĠCh er
ĠTH Æł
Ġex p
Ġ5 10
ĠÐ ł
ĠçĶ± do
Ġm Æ¡i
æĹ¶ æĹ¶å½©
ĠT su
Ġr Ã³c
Ġma ch
Ġtab le
p art
ĠL ook
h áº§u
77 4
Ġ19 32
c áº·p
ini um
x áº£
65 8
01 7
ĠSam urai
Ġfl avonoid
ĠB od
79 4
B Ã¡ch
ĠS Æ¯
Chu á»Ĺi
ĠMe izu
ĠF act
' ).
M s
z ig
ĠG Ãłnh
Ìģ :
3 13
ĠTh iáº¿n
k ul
ĠK ung
Ġcho áº¡ng
nh h
ĠHat eco
ĠT áº¢I
ĠON E
Ġwo uld
ro a
19 55
á» ĴNG
ĠR ach
ĠC EN
æ ±
Ġ22 9
æ Ľ
Ġk on
TN O
ĠÂ ¼
ĠDi ode
ĠTravel us
40 2
ĠMoham ed
ĠS ee
Ġf ire
ill us
ĠV ac
ĠSe ag
H ack
ĠC art
ĠCr ack
ĠĠ Ġ
ĠTal es
ĠSter ling
Ġ23 9
ĠFr om
ĠèŃ ī
ĠXK LÄĲ
Ġè£ı lÃ½
row ser
ĠB Ã³
ID E
T á»ī
B en
ĠRash ford
ĠAd sense
ĠSent osa
x Ã¡c
xx xx
ĠS ell
Å ¡
th ic
Ġtr á»įi
Ġd iÃªu
ĠG E
Äĳ áº§y
36 2
ĠMach ine
H Ã¹ng
Ġb im
ĠTr Æ°á»£t
Ġä»¤ linh
89 3
Th Ã©p
ĠVinal ines
ĠB ry
Ġ22 6
Ġtr iá»ħn
ĠD anny
ĠâĢ¦ âĢ¦
ub ota
( );
ĠT erry
ĠR outer
Ng Äĥn
Ġkh áºŃp
ĠR B
ĠNV IDIA
B áºŃt
ĠÄ ĤN
cl ick
C AR
H iá»ĥn
ĠIS UZU
ept ember
ĠElectron ics
W P
ĠN PH
Ġä¾Ĩ Lai
Ġg áº¡n
ĠG MP
le ans
Ġsec ond
ĠL á»¢I
ĠIm perial
ĠFo am
ĠCo upe
Ġqu Ã¨
oa ch
c as
Ġr ich
ĠVi enna
Äĳ á»īnh
acet amol
ĠSON Y
ĠR áº±m
ĠE Z
å® ĺ
£ h
Ġh ic
ad es
0000 00
ĠDom ain
ĠH iáº¿m
ĠD au
Ġnh á»¯
ĠD UY
ĠApr il
Ġéĩĳ kim
âĸ ¬
Ar senal
ĠM ind
ĠçĻ ¾
ĠGod s
A b
Ġ6 25
ĠB CÄĲ
ĠCh áº£o
kh á»ĳi
Ġéĸĵ gian
K O
ĠB áº®C
ĠW ap
h á»ĵng
æ Ķ
ĠX Ã¬
$ ,
Ġg á»Ł
01 1
ĠTho áº¡t
å ī
ĠCar ib
sch emas
Ġtr eble
B lock
Ġr ÃŃch
ĠL Æ¡
ĠHo kk
39 7
ĠKn ight
US A
ĠèŃī chá»©ng
b Ã¢y
Ġ19 17
E CH
Ġnh áº©y
Ġr Ãºc
Ch ar
Tim es
Ġvi e
R ad
ĠB itexco
ĠE A
Ġph áº©u
ig ital
ĩ cÃ¡
H iÃª
ĠLe go
ĠCat alan
Ġnháº¹ t
ĠÃĲ a
ĠTr Ä©
ic one
á»ī u
Ï Ħ
Ġth ep
ina wa
Ġç® ĩcÃ¡
x ay
Ġk en
Ġr áº£o
Th áº¥u
5 25
Ġlink s
ĠTR A
æ³ ķ
Ġb á»ĳng
Äĳ á»ĳt
TV I
X áº¿p
n ar
ĠÄĲ Ä©nh
ĠMin zy
ĠAlger ia
ĠTh áº£
46 4
ĠAd el
á ŀ
Ġx ingfa
ab en
55 9
pl ete
qu are
ĠBe z
Ġm ult
ĠBright on
J ack
Ġá» ¶
40 7
D ell
Ġt ank
oc a
G MT
ç Ī
Ġ? .
ĠG rey
ĠDo ve
ĠMoon light
ĠE H
ĠJav ascript
Ġ Ìģ
ĠG LC
Ġap pl
ĠæŃ »
ĠZ ippo
Ġc Æ¡i
ig i
å° ı
Ġhard core
it hout
ĠTo an
ĠSy m
ÑĢ Ð°
ĠKh uyÃªn
e en
Ġan ten
um n
ile ver
ĠEr dogan
Ġ22 8
ĠOr lando
ĠCh áºŃm
Ġéĩ į
Æ¯á» ł
qu ay
Ġra ck
ĠH á»ĳi
p ack
Ġ3 45
68 7
ĠCath ay
ĨÄĳ Ã£n
ĠV s
ĠE Q
ac in
Ġn áº¡m
Ġk ich
Ġy ears
ĠÐ Ŀ
k us
Ġå® ī
Ġr ua
ill in
VP CP
8 66
ĠD ate
P an
ĠT err
ĠH ib
Ġre f
w ide
Ġéĩ ĭ
9 10
ĠngÆ° Ã²i
ĠHO áºłT
L uc
é ĺ
Ġh Ã¨m
ĠÆ¯ U
Ġph osph
ng Ã£
ac a
ĠDV B
3 19
ĠGi ay
Æ£ Æ¡ng
Chu á»Ļt
cel otti
ĠSwan sea
ĠKh áº¿
Ġag ain
ch ua
ĠM ÃŃt
Ġm ost
ĠPhil adel
enn y
ĠSing le
g ester
tr etho
ig en
fr ac
H Ãłi
h Ã´m
V u
ĠAP P
ĠW E
B iá»ĩn
m d
ĠY uri
j k
ĠPark er
ĠLO áºłI
ĠFl am
ĠMax im
ĠSh aw
Ġte aser
Ġnh áº¡i
Ġnh oÃłi
ĠInd ustr
ĠTM S
ter est
ĠM Hz
ĠBon i
Ġä½ ĨÄĳÃ£n
M iáº¿ng
Ġ27 9
Ġpl astic
ĠPhÃŃ m
in ol
t Æ°á»£ng
m áº¡nh
ÄĲ á»ĩm
ĠStar s
ĠÄĳ Ã¡u
Ġh au
: .
Ġgi en
Ġnh áº£n
ĠEl on
im edia
od ge
ail able
end ing
IM E
Æ¯ A
ĠEco Sport
ĠColle ction
Ã© on
Ġh Ãºp
Ġæ Ł
Ġc ot
ĠÄĳ Ã¡c
ĠX ML
b ull
ĠI B
j aya
Ġd pi
ĠC á»ĵ
ĠShin ichi
Ġéł Ī
ĠClin ic
M ade
ĠADS L
Ġp le
ĠWW W
ĠKh al
º thá»ĭ
ail break
ĠTr Ã¹
ĠLen in
Z E
per ience
â Ĥ¬
ĠF one
19 50
78 4
ĠSch ol
I ND
i esta
Ġg all
th Ã´i
H V
ãĥ ©
ĠDuc ati
Ġx iá»ģng
ĠåĲĪ há»£p
ug r
R á»Ŀi
ĠL ag
ĠE LL
ĠVime fulland
K CN
Ġ35 00
Ġká»ĩ ch
b anh
70 8
Ġ ethanol
el u
f ish
Kh á»ķ
Ġr ank
ĠB s
Ġf o
Ġx Æ¡i
NV V
c uá»ĳi
Ġm s
Ġç ł´
TO P
ĠPau lo
ĠÄĲ áº¡n
to an
t iá»ĩn
Ġp ack
85 8
Ġk ing
ul i
Ġr Æ°á»Łi
D á»¯
won do
Ġch Ãłnh
ĠR á»ħ
ĠCar ina
ĠM ED
ĠæĤ Ł
ĠOpt oma
ĠC TV
ĠMount ain
imb ab
æ° ´
ĠK eppel
ON IC
im ation
Ġch erry
ĠS tein
ĠJ a
if l
Ġch á»£p
v s
es to
sp ital
×ķ ×
ĠSto ke
ĠèĹı táº¡ng
M ÃģY
ë ĭ
t ro
ĠC áº¯m
ĠSant os
ĠèĪ īcá»Ń
b ody
ĠMo ore
Ġqu áº±n
Ġtr Æ°á»£c
ĠDN NVV
. *
Ġæı Ĳ
Ġ23 6
Ġx á»Ļc
ĠR ams
âľ ĵ
FO NT
ood y
B E
Ġo c
ĠæŃ» tá»Ń
60 8
ĠPor to
aur ant
ĠK PI
ĠRep ublic
ĠPhiladel phia
F R
ĠNS T
he he
Ġæ¸ħ thanh
Ġl Ãº
ĠJim my
Ġ- ...
oy o
Ġis o
ÐµÐ ³
ĠCharm ington
op ro
æĸ ¹
ĠPH áº¢I
ĠM MO
Ind onesia
5 86
ĠBr ent
ĠG eyser
ÃĪ N
ĠCam eron
R eview
ĠPass port
ud y
Î ¼
75 8
ĠæĤŁ ngá»Ļ
M at
ĠL á»¤C
ĠFoot ball
S ec
ĠAu thor
Ġd Ãºi
lam y
ĠMov enpick
Ġ19 37
ĠHa e
Ġp ick
ĠC G
°Äĳ Ã¡o
ĠW o
Ġk iá»ģng
Ġph ang
th Ãº
ĠNH Æ¯
20 23
Ġcook ies
ĠM end
ĠP itt
² ¾
ĠÂ Ń
Ġx Ãµa
Ġlo e
Ġè ®
ĠM AY
æ ´
ĠSpir ulina
c g
ĠM Ãĥ
Ġ[+ ]
hi s
ĠZ one
ĠTh s
Ð½Ñĭ Ð¹
R u
N B
ĠN á»Ĺ
Ġ0 89
ĠEn rique
n Ã´ng
Ġthá»§ a
Ġ01 6
ole on
ĠHind u
ĠU X
ĠIm ages
Ġleg ging
!!!! !!!!
ĠAk ira
ĠåĪ °ÄĳÃ¡o
H L
Ġ Ñį
Ã¨ s
ĠBern ard
ĠPh uong
Ġt ele
ĠTá»ķ n
áº¾ P
L iá»ħu
á»° A
n ot
Ø ´
ĠA fr
Ġåı ¤
ĠT issot
ĠSh adow
ĠBas el
ng á»§
ĠN ine
eg ui
ĠGar ena
Ġb er
88 4
ĠÄĲ ÃĶ
Ġ09 72
Ġ24 4
R ich
ÄĲ á»©a
Ġbe auty
d l
ĠV E
ĠW idget
ĠMor ata
99 7
ĠK obe
Ġçİĭ vÆ°Æ¡ng
Ġvá» £i
in ar
Ġ24 9
ra f
ĠBas ic
ĠOcean Bank
Ġs apa
ĠTr ack
ĠM ÃŃa
ent ino
cl ip
ĠSai Gon
in da
nu oc
Ġth Ã²ng
ĠKh áº£m
enn ess
it em
ĠTHU ÃĬ
ĠNav ara
ĠSir i
70 9
ĠngÃ² ai
ĠB áº¤T
aa aa
ri es
ĠmÅ© m
å ĳ
Ġåħ Ī
itr uong
Ġcá»¥ p
ĠVi k
50 8
ĠJ ob
ĠAnd erson
ĠH AC
ĠM á»µ
d áº¡ng
it ton
80 9
cd n
ĠL PG
ĠCh Ã¢
Ġ< /
Äĳ Ãłm
ĠJ S
{ {
Æ ¬
T Y
Ġgiá»¥ a
" !
ĠH AN
Ġ30 8
tu á»ĩ
Ġ29 5
ĠÄĲ á»ĳ
yc le
Ġr ai
is te
og lo
n ull
qu at
æ ĥ
ĠthÆ° c
op ter
xy nos
ĠY as
Äĳ á»ı
Ġ[ "
Ù Ĥ
J e
ĠG uy
Ġçł´ phÃ¡
ĠV im
ĠL m
0 30
N L
Ġng Ã¡o
Ġ Æ°á»¡n
ĠCHU áº¨N
ĠF ro
ĠSol o
t á»ĭch
ĠLau ra
ĠÐ½ Ðµ
ĠTHá»¦ Y
ĠSAM SUNG
ĠR Ãª
70 4
ĠB ordeaux
34 2
ĠAl ber
3 22
ĠS ME
ĠB ed
ĠM ÃĶN
AG E
ĠCour t
vn league
ĠMontre al
es c
TC HQ
Ġnh áº£nh
Ġæ µ·
ĠW riting
ad dy
IS S
Ġd Ã´i
TC H
ĠSen se
Ġc entral
50 3
ston ia
Rem ix
Ġn eu
ĠÄĳá»į t
pe z
Ġd áº±ng
ÄĲ áº¡t
Ġbu á»Ļt
th uong
ap ark
h on
ĠP anda
ĠG iáº¿ng
ĠHol mes
S il
h uong
ĠMu Ã´n
ĠTal k
h iá»ĥu
ĠçĻ ½
ĠKh áº¥t
Ġ09 81
ĠX erox
AD S
B it
: (
ĠP ick
Ġ9 25
ĠR Æ¡
Ġ23 3
he ight
M b
ĠHo ward
ĠGui de
à¸² à¸
L OR
ĠBac carat
ĠTr ich
ĠQu Ã£ng
ĠÄ Ĥ
ĠMy SQL
19 64
Ð¾Ð ¿
o ther
ĠM L
dong san
ĠM use
Ġlo cal
r au
Ch ÃŃ
F ood
D ong
Ġth anks
us er
w ak
ĠAr n
ĠQueens land
Ġgh Ã¬
pl ace
po le
P K
b sp
ĠCu Ã´ng
Ġéģĵ ÄĲáº¡o
3 18
ĠB Ã³i
ĠS AI
ĠE do
ĠSol id
Ġch Ã©t
ĠCamb odia
19 81
ĠAN Z
w ater
ĠS AN
ĠN CS
Ġb ina
19 77
ĠEx p
é ĥ
Ġo a
Ġweb cam
b ic
- "
Ġkh áº£n
ĠCh ua
H uyáº¿t
L á»ĩ
th á»ķ
n Ã©m
ĠZ ombie
Ġthi ch
Nh Ã£
m oney
ĠAn celotti
6 000
ant i
egr aph
ĠC ert
Ġg lu
Ġqu á»ĩ
ĠSen egal
Ġcarot en
ĠT áº¥u
æ Ħ
ari us
w ait
ĠB á»ĨNH
ĠG row
Ġcon s
Ġopt im
Ġx áº¯c
ĠA W
Ġcom e
Nh á»ĭ
33 1
ugr ave
ĠB ash
ĠC ooper
79 6
GD P
Ġcal ci
Ġx Ã©p
V isa
Ġ áº¡ch
ch Äĥm
Ġmu oi
OO K
ĠVel vet
Ġo wn
ĠVI SA
ï¼ ļ
ĠDynam ic
ĠNH CSXH
ĠH Æ¡
Ġé ¾
Ġç¥ ŀ
ĠCO M
Ġch á»Ńng
ul ation
Ġâ Ĥ¬
ht m
Ġ ago
Äĳ á»©a
ĠTH Æ¯
D Æ°á»£c
Ġra pper
g ers
ĠD UNG
od ka
Ġr áº¿t
GB T
ĠT v
Ġf ran
ĠLew is
fo ot
Ġr Ã³i
Ġngh Ã©
bur ger
ĠVer tu
Ġvá» į
ĠG raham
Ġw ere
44 3
th Ã¹
uk o
ĠChrist mas
Ġn á»ĭch
Ġac tion
Ġt Æ°á»Łi
ĠCom edy
75 7
34 1
ĠC ut
ÄĲ á»ķ
B á»ĥ
x h
Ġg á»ķ
Off ice
it te
os to
ro ud
is sa
ĠAs cent
b iá»ĥn
ĠL áº»
Ġ8 800
oc co
ĠOff line
45 7
ĠSw iss
ĠS ul
ãģ ķ
ĠSol ar
4 000
ĠAth ens
Ġm iá»ģu
Ġp ot
ĠHokk aido
Ġ9 80
ĠLu xem
r im
5 15
åħ ¨
ĠAut omatic
Ġm áº«m
Ġqu á»ĩt
ĠV O
un en
ĠPre c
Ġrep ort
ĠSu ites
Ġcomment s
P et
ĠSon ic
ĠL áº£i
ĠCN XH
Ġsing apore
65 4
imbab we
Ġkh á»±ng
T om
ĠWed ding
3 24
ĠCh il
æ İ
ess ori
ĠHÃĢ N
Æ¯á»ł NG
Ġn ext
ĠY ellow
ograph y
Ġs Æ°á»Ľt
)) ))
h anh
Ġlo tion
ĠW H
ĠS Ã¡n
Ġ3 35
Ġl áº£o
å¹ ³
ĠM ust
ĠWal t
Ġx Ã²a
ĠH is
ĠTH VL
99 6
Ng uyá»ĩt
Ġ24 8
ĠDar win
ĠC á»°C
ĠS ic
quy nh
69 7
Ø§ ÙĦ
Ì Ĩ
åĴ Į
c re
ĠE xynos
Ġtar get
t á»©
ĠB oh
Ġd Ãªn
Ġ6 10
Ch uá»ĳi
ĠÃĲ á»ĥ
l Ã¢u
ĠAR M
ĠSi ro
Ġh á»§i
ĠR and
Ġv ery
ĠNov ak
ĠL ui
Ġ... )
b uy
Ġch á»¥m
ia ce
ĠKH ÃĵA
Ġo pp
ab et
Ġh iá»ģu
ad s
ĠBV MT
eg el
ãĤ ¯
ĠSev en
ĠK ings
ï¼ Ī
Ð°Ð ±
ch es
55 8
ĠU C
Ġlá»£ m
H TC
Nh an
ort on
Ġnu á»Ļt
ept ide
ĠTÄĲ C
Mer cedes
ch em
ĠM OD
ł n
m Ã¡u
ĠOk inawa
Ġc e
Ð¾Ð ·
Ġç¾ ħ
ĠF ighter
ĠS leep
ĠE t
ĠViet Sub
s odep
tr Ã²
S en
br ight
Ġcá»¥ i
27 1
ch ip
ĠEver y
é ¢
Ġg reat
Ġapp ly
ers field
18 00
ĠL Ã³t
ĠL áºłI
l Æ¡
ai de
16 00
ogr ave
ĠEb ara
ĠS á»ĵi
ĠI Z
ĠFrank lin
ĠW u
Ġbe ng
hi ba
is b
ĠAssoc iation
ãĥ ª
emay bay
B TP
æ Į
Ġ3 12
Ġå° ı
ĠSC IC
Ġhigh light
ĠArsen e
ĠÐ´ Ð»Ñı
r al
ĠB áº¢NG
3 28
Ġ60 92
K B
p Ã´
19 56
Ġ Ċ
ĠM ing
ĠA HD
TS UB
§t Ã²a
6 25
.. ,
Ġåº §tÃ²a
T Ã´ng
Ġk ieu
ĠX áº¥u
Ġ2 23
Ngh iÃªm
C ollagen
Ch Æ°
quang hang
ĠK TV
ĠCá»¨ U
n Ãły
ĠE thi
S eo
æ µ
enz a
ĠGD TX
gh áº¿
ĠÐ¿ Ð¾
ĠæŃ ¸
Ġæµ ģ
ĠN á»ĢN
ĠEngine ering
H Ã¨
ĠB uild
ĠDmit ry
3 77
) "
d n
ĠthÃ¬ n
Ġå° ĩ
×Ļ ×
Ġs ave
ĠSt orm
vid ia
K ia
ĠGraph ics
c au
ĠBut ter
or age
ag le
ĠIN OX
ĠCal vin
ĠMang apark
Ġsá»Ń u
] #
É Ļ
Ġi b
ĠåĮ ĸ
ĠBá»ī m
ĠC ow
ĠXi ao
Han oi
ĠOre gon
ĠåħĪ tiÃªn
ĠV ital
Ġcon nect
ĠZ o
end a
Ġb Ãºng
ĠTh iÃªu
Ġå® Ĺ
ĠM IL
Ġ2 66
cl ub
l Æ°á»¡ng
n áº·ng
ĠS áº£nh
Ch áºŃu
cÃ´ la
Bl ue
ĠLav ender
W atch
ph ot
11 00
ĠC MS
ĠQu artz
ĠF V
ĠT ask
ĠCar lo
h ol
m ag
ĠA AA
ĠMc G
ng a
Ġst t
sai gon
â ĩĴ
ĠL ily
is ha
Ġn c
Ġtu á»·
A H
g iáº¿t
ĠA ce
Sh are
ĠBook s
ĠçŁ £h
ĠçŁ£h Ä©
Ġkh au
ĠT urn
Ġcháº¿ ch
Kh Ã¡
æĸ °
ater ial
ograph ic
Ġ22 7
ĠÐ Ĳ
76 4
Ġmu á»ĵi
Qu Ãª
ĠBr asil
ĠHil ton
Ġ24 2
ĠPro file
ĠB uá»Ļc
ĠVin Group
t uyá»ĥn
Ġb ad
ĠP D
es o
ly s
å Ł
ett ing
VI ET
Ġkh Ãªu
ĠF eed
ĠAr ts
ĠMau r
ĠEco park
ĠJun e
ĠRen ault
45 1
ĠN TD
ĠBil bao
ĠW IN
ek wondo
ĠSl ot
ym pic
Ġr Æ°Æ¡i
ĠS AP
ĠShi ft
ĠNh Ã¡nh
ĠTU á»ĶI
Ġkhu Ãª
è® º
ĠÄĲá»Ķ I
Ġf eed
Ġen ter
Ġb uy
01 3
ĠCoc obay
ĠåĮĹ äº¬
ĠK ak
Ġim port
Ng á»§
P B
ĠD ich
A Z
Ġn iáº¿t
Ġt Ãły
Ġkh á»īnh
ĠS ÄĲ
it ic
Ġåħ ·
ĠTh r
our i
end ed
an on
Ġéĺ ¿
Ġl n
ĠTh iÃªng
Ġ19 33
Ġ ess
ĠÐ Ķ
h Äģ
Ġh Æ°á»Ŀng
88 88
z Æ¡
âĢ Ĥ
Ġg áº§u
Ġqu áº¡i
Ġ09 62
è ª
Ġin formation
az ing
Ġèģ² thanh
i Pad
ĠB á»ĩ
19 84
Ġ28 6
ĠPh Æ°Æ¡
ĠE col
tr inh
enc ent
Ġ( .
Ġæĸ ·
r il
ic in
ĠBL TT
Ġl ar
h ara
ĠO C
ĠCÆ¡ ng
ĠcÃ³ ng
ĠBr uy
t á»¥c
ç ®
ĠHist ory
k Ã©o
ast ian
Ġop era
ĠP ath
ĠU buntu
ĠHol iday
9 30
Ġcam p
ĠÂ µ
LC L
ĠRM IT
X uyÃªn
ĠX PS
ĠOn ly
ved ev
ĠÃĲ Ãłi
89 6
ĠThink Pad
ĠN AS
A ct
ĠNGHIá»Ĩ M
ĠHom estay
ĠÄĳ áº«n
ĠD Ã£y
ass an
Com bo
ĠEss ence
48 3
ĠDoug las
Ġl h
ed e
ĠÐ ¢
r up
æ ĭ
Ġç ½
ĠÃĲ áº¿
ur as
CH O
ĠÄĳÆ£ á»£c
Ġçī ©
Ġåı¤ cá»ķ
ĠAlban ia
ĠS á»ıi
ĠZ n
b á»ĳc
ĠAn kara
ĠAlexand re
Ġç¤ ºthá»ĭ
Ġ ext
ai c
Ġ25 2
hy un
ĠU d
ĠBin omo
Ġkhá»© u
Aus tralia
M iss
Į N
4 35
; ,
ay s
ĠDu o
ĠLar ry
D uyÃªn
ĠGi Ã£
Tr Ã¡ch
Ġi os
70 7
ĠNov ember
ĠA ustin
ĠLo v
lamy dia
01 4
ĠB art
P o
eb o
ĠN INH
ĠPr udential
ĠSte am
k ar
y ad
3 23
ab el
Ġm iss
Ġo Ã¡i
g á»Ńi
Th uyáº¿t
Kh Ã¡n
ĠVIETT EL
z h
ĠPed ro
B est
ach ment
ĠStud y
r ai
Ġc t
Ġl áº¡n
Ġh appy
n el
nh á»Ŀ
ĠG ord
Ġk ay
ĠMang a
Ġlo áº¹t
um bo
60 2
L I
ĠDe al
& &
ng an
Ġreview s
ĠGu in
TP P
ch á»¯a
ĠCommun ity
Ġm ind
çİ ĭ
Âª n
ĠK ok
ĠBeau t
ĠJon athan
Ġxem phim
Ġ= =
Ġgiá» Ń
ĠWar ri
ĠAn anda
ĠCH áº¾
fr ed
ĠQUY áº¾T
bi otic
ĠPa j
mu á»Ļi
19 59
è¡ Į
K Ã¨m
s oi
26 1
ĠXS KT
28 1
g un
ĠÄĲ ÃĮNH
ĠTH AM
ore a
Ch at
ĠGold mark
S i
Ġtra vel
az e
47 4
fl ix
ĠB ik
ĠCh áº£y
ĠHu gh
ĠX Ã´ng
ĠM ull
ĠTs ur
G á»ĵm
h iáº¿u
Ġth pt
Ð ļ
ĠLink ed
ĠNap ol
Ġè¦ ģ
Ġb áº¥u
ch ol
aw i
ĠQL VNCH
ĠN E
ublish ed
Ġdoll ar
Y S
Ġåħ· cá»¥
45 3
V B
n á»Ńa
Ġw atch
ĠçĻ¾ bÃ¡ch
ĠS asuke
c up
co pe
ĠSal v
ĠSus an
Ġ7 80
RO M
iá» ĳt
áº® N
ĠCHá» ĮN
H F
Ġ7 37
Ġ2 200
ĠS ÃģNG
R R
s ho
ĠB GH
tr uyá»ĩn
ĠHá» ®
Ġm áº¿u
ĠN Æ¡
ĠK ÃŃ
ĠCa ch
ĠæŃ¸ quy
Ġæĸ· Äĳoáº¡n
ĠS ie
Ġ3 19
ãģ Ĥ
ĠG yeong
45 2
ick y
enc er
ĠD id
Ã¨n e
ĠA x
66 3
Ð¸ Ñģ
Ġgi áº¯c
ĠEm ma
Ġnh Ã£ng
eal th
ĠSouth gate
ĠCreat ive
Ġ3 11
ĠRes et
Ġk an
ĠÐ ĳ
c en
Ġl it
Ġtr ading
é ĸ
Ġ19 29
ĠCh iá»ģng
Ġs yn
k á»ĩ
Ãļ T
T Tr
ĠT ake
ĭth á»īnh
r s
ĠC á»¬A
ĠS ed
al dehy
on et
55 6
áº¨ U
Ġå®Ĺ tÃ´ng
ĠCh á»ĳt
Ġá» ļt
ĠæĮ ĩ
ĠF TP
Ġæµģ lÆ°u
ĠGiá» Ĺ
ãģ¾ ãģĻ
ĠPen ang
L ight
ĠP el
. \
est in
M au
Ġl Ã¬m
Ġp ers
ir es
d ham
Ġ á»ģ
Ġxu an
ĠÃĲ áº¿n
ĠEcos port
Ġban king
ur er
se ason
65 7
ĠæĢ Ŀ
Ġ19 25
Ġb ap
IV I
ĠHá»® U
Ġth áº«n
Ġth rough
as o
Ġnh em
Ġse ason
oh ama
' re
Ġsty list
5 12
K ing
ĠTP Bank
Ġvn pt
ĠåĮĸ hÃ³a
ĠLy n
Ġ19 31
H ung
M á»«ng
Ġæī ĵ
ĠCr uiser
60 7
Ġtrig lycer
âĢĻ :
ams ter
ĠRi ot
ĠAndre a
ĠG YM
ĠB iÃª
V KS
f ele
ĠV Å¨
Ġlo w
ĠÄĳ k
ĠGi Ã¡n
ĠT áº¬N
work s
ĠST EM
ĠéĽ £n
R ep
Ġèı ¯
T á»³
ng uyá»ĩn
ĠI de
70 3
ĠAS P
90 6
b ig
Ġca d
Ġweb s
Ġè« ĭthá»īnh
Ġve am
çĶ ¨
X o
Ġr á»ģn
ĠL áº¯ng
ĠR ush
if ier
ĠCo unt
Show room
æ ı
Ġvá» ¹
ĠT GM
ĠF agor
Ġè ¥
ĠCh áº¡m
ch Ãºc
Nh iá»ħm
Ġng á»įng
ach u
} {
ĠA MP
; -
Ġcup cake
Ġc igar
Ġâ İ
h Æ¡i
ĠO Ã¡nh
ĠZ ara
Ġcast ing
ĠL on
un ya
ĠT wo
ĠN ode
au to
ĠVene er
ĠJul y
ĠD IC
ĠR á»Ŀi
ĠMed vedev
AA AA
Ġb Ãĥ
al ys
Ġch áº·c
ĠL Ãłi
Ä į
kh Ã´
ĠTh ien
ĠRet ail
s á»ĳc
Ġx um
ĠR ipple
av o
ĠSol utions
Ġtr Ã¯
ï¿½ ...
ĠMu eller
ap s
Ġr ev
æĸ Ļ
Ġ eb
un ette
ĠZ imbabwe
ĠG and
39 2
on na
ĠMal i
Ġng á»ĳ
ĠCH á»¨NG
j on
Ġn ever
ĠT CP
' ;
C áºŃn
V iÃª
Ġcu roa
Ġman y
ĠGerman y
ĠTH áº®NG
Ġcos play
Ġçī© váºŃt
Ġc k
m Ã©t
Ġact ive
Â» .
ĠI Phone
ÃĮ M
Ġmatch a
d pi
ĠTor res
B BC
Ġd áº¿n
ĠB outique
ĠS id
Ġso ck
ĠBruy ne
en ne
s uáº¥t
Ġf ast
j j
L ang
ĠK Iá»ĤM
bur n
79 2
ĠK ov
ĠT aka
ĠV áº¬N
Q N
Ġm Ãµ
ĠM n
ĠDu áº«n
ĠShang hai
os is
Ġxáº» ng
ĠThu á»Ł
ĠBor is
H Ã´n
ĠM áº¡o
ĠL á»ĳp
ĠTÃª rÃª
m iá»ģn
ed onia
ĠRap tor
ĠTR UYá»ĢN
38 2
ĠPark son
ĠVS IP
ĠOffic ial
c ott
Ġt Ã³p
19 31
c á»©ng
Ġqu ÃŃt
Ġra t
OS S
Ġx ac
ol on
ĠIll inois
Ġc d
Ch ina
Ġat iso
ĠåĬ Ľ
ĠGr ay
Ġwh ere
ĠHy aluronic
Room s
ĠR ice
ut ch
Ġgr aph
G iáº¿t
b Ã£o
l s
46 3
R áº¡ng
ĠB ib
Ġf arm
bor ough
J ul
ĠV SA
ess ion
ĠBe an
67 4
6 45
ĠKH KT
s ung
ĠL c
CS VN
ang aroo
B áº£y
gh en
Ġéĩ ı
è ģ
ĠD AC
art s
ĠRec overy
ĠTr op
Ġ23 8
Ġä¹ Ŀ
ĠSur v
ĠS á»§ng
Th a
ĠSho pping
ophi e
Ġ5 90
Ġ30 3
gi Ã¡m
88 3
ĠKH ÃģC
g ht
Ġ7 10
ĠSH R
ĠRafa el
r ison
Ġ0 77
Ġb Ä©u
ĠHarm ony
Ġå°ĩ tÆ°Æ¡ng
l iá»ĩu
ĠN au
Ġè į
ĠPlay Station
L ine
Ġ25 4
ĠMont essori
ĠLaw rence
A ut
b á»©c
one er
Ġp erm
tr Ã¡nh
Ġad s
ĠAj ax
Phil ippines
om ax
ĠSt ates
ĠS Ä¨
Ġ á»Ľi
Ġsh ar
ĠAd v
viv u
à¸ Ń
Ġ- ---
ar row
tr uy
t it
ĠM Ã¢
Ġthuy et
ĠW ong
tr uct
ĠæĽ ´
ĠMaster s
Ġs Ã¬nh
ĠC Ãµi
ĠDal at
å §
ĠDul ux
8 75
Ġr Ã¡y
car ot
á»Ĵ N
ĠBab ylon
Ġè¦ģ yáº¿u
C á»Ļt
ul ette
Ð° ÑģÑĤ
ĠR iá»ģng
=" "
ĠChamp a
ĠSch neider
ĠE y
ĠY H
Ġ24 6
Ġæ ¢
ĠOz il
G am
w oo
ĠTr iÃª
ur g
ä ¾
ĠE stonia
ĠIn iesta
Ġn á»ĩ
bur gh
l eo
Ġph Æ°
Ġ7 60
ĠCB CC
ĠT ill
ed ic
T Ã´m
ĠBV ÄĲK
ÄĲ V
ĠBez os
Ġcu m
ĠAdmin istr
t áº·ng
Ġj ob
ĠC GV
L á»ĩnh
ĠG áº¤P
ush u
ĠK op
ĠDem ons
4 15
H ost
ĠM áºªU
im ble
Ġe Bay
6 36
| --
Ġp k
ig inal
ĠBM I
5 35
ĠS á»¬A
ik es
M Ãłng
ĠEthi opia
Ġt k
Ġl á»©c
co ustic
ĠH ell
Äĳ á»£t
ĠRes er
ĠC ob
CN T
ĠMag n
ĠæĮĩ chá»ī
ĠV iÃªng
ĠUn ilever
Ġm áº¥p
be an
ĠRodr igo
ĠCh lor
ĠEnter prise
çī Ī
Ġpro cess
ĠTN MT
à¹ Ģ
ĠHarv ey
ĠN PC
ðŁ Į
ĠSar ri
Å Ł
oss er
ĠåĪĨ phÃ¢n
ĠPh Ã´
ĠW oman
re a
ĠHu dd
Ġh Ã¯
ĠDol by
Ġf irmware
ot ine
Ġä½ į
Ġáº ®
ers in
ĠWe ibo
Ġæīĭ thá»§
ĠMeg han
Ġr á»į
ç ķ
ĠB Ã¬a
ĠHerbal ife
Ġcm t
ĠP X
Ġvol ume
ĠG oo
DV D
tr ue
Ġac o
ĠGh Ã©
Ġïĥ ·
v l
ĠH AY
ĠCon f
ĠT iffany
Q B
ĠT OTO
tr um
ĠRev it
ĠMal ta
ĠCar r
ĠhÃ£ o
end ent
Ġæīĵ Äĳáº£
; âĢ¦
ĠVÃµ ng
ĠAd ayroi
ĠN Ã©n
ĠMig uel
8 55
t áº¥m
Ġin n
ĠVu itton
kh Æ°u
ĠAm y
ĠFin ance
Ġtur bo
l Ã²ng
ĠK TT
Ġ40 4
Ġå®ī an
Ġhe ight
em i
Ġ09 31
ĠMang ak
ĠDis k
S ol
á»§ n
il ion
ar ov
ĠO F
ĠCS KH
ad ona
Ġåı ĸthá»§
ĠNap oleon
ĠSto ck
ĠHiro shima
ĠX Æ¡
ĠM á»ŀ
ĠComm and
ĠI p
Ġj azz
s ov
Ġm Æ°Æ¡
ĠX á»ĭt
ĠWin ner
ote ch
ĠNhu á»ĩ
ĠPro perty
Ġau toc
ĠX uyáº¿n
t Ãłu
Ġj ac
ĠÂ £
ian s
ĠHel s
Ġvá»Ŀ n
H Ã¡n
T á»±a
ĠâĢ¦ âĢĿ
on so
f low
m Ã¡t
ĠEm ery
ĠFl ora
p c
Ġ( ~
5 75
ĠCh Ã©n
19 62
ĠG ay
Ġ19 35
ĠHar ris
Ġtá»ī m
ĠY ak
Ġng áº¡
th Æ¡
Ī n
ch á»Ĺ
os ch
ĠCav ani
H á»ıa
a eda
ĠTr á»ĩt
ĠTr iton
ĠV ali
mar gin
Ġth áº£ng
ĠPh Æ°á»£t
ĠTO A
Ñĥ ÑĢ
] )
ĠbÃŃ m
toc kh
ĠæĢĿ tÆ°
ĠT áº¤N
Ġn Ã¡n
åĿ Ľ
er ia
80 3
Ġac cess
em ic
ngh Ä©
Ġm Ãºp
ĠD iet
Ph un
8 99
r iÃªng
v iron
or ial
¡t ÃŃn
G an
ĠM ickey
Ġw all
Ð ł
Ġthu á»ĵng
Ġd ream
ĠÄĲ áº¡
th ua
Ġl Ã©m
Ġh ref
Ġd Ã¡i
pe ed
Ð Ŀ
ĠN Ãªm
Ġdi et
Ġmicro phone
ast a
IK E
4 25
ĠS Ãºp
å¤ ļ
K e
). [
50 7
Ng oa
ec a
ĠOne Plus
Ġc áº·m
ĠT INH
Ch Ã³
ĠBoy s
ad in
ĠQÄĲ ND
Ġ8 30
Ġbl azer
ĠELL E
b order
Ð Ĵ
Ġsu c
jo ong
Ġgi Ã³ng
ĠL iv
ĠHol land
ĠZen Fone
Ġä½į vá»ĭ
ĠJ otun
éĩ ĳ
Ġs cript
48 2
M G
: #
âĢ¦ "
Ġtá»§ m
k Ã¨m
Ġt iá»ĩp
ĠTh iet
ĠO to
lev ard
ĠN ord
Ð» Ð¸
ĠMed ical
ĠINT ER
ĠC CD
ĠGh Ã©p
6 18
ĠN eu
Ġqua l
ĠE z
able d
li ed
ĠMo ist
ĠGe Force
Ġb au
Ġ09 76
ĠÄĲT ÄĲ
Ġ4 99
g Ã³i
Ġ arm
Ġgold en
V o
ĠCar ry
T ek
é ©¬
T AND
ĠK ik
77 3
Ġ ÑĦ
ĠN iel
ĠL áºŃt
è ĥ½
l áº¯p
ot onin
m ob
Ġä¿ ¡tÃŃn
T ivi
ĠBre ak
t age
z ema
ĠH ieu
ĠCh em
ĠGP LX
ĠY ale
s á»£
Ġad words
ĠBÄĲ KH
F P
IN T
ĠUl tr
áº¦ Y
Cap ital
Ġh ar
Ġn Ã£i
ãĢ ĳ
ĠLá»ļ N
Ġ24 1
ĠTÃį CH
Ġdá»¥ a
Ġnu á»Ľc
ĠL amp
Ġcoup on
å Ģ
ĠÃĵ c
ĠNgh Ã¨
Ġæµ· háº£i
Ġto day
eb ec
Ġcom mun
Ġsho uld
gu ar
ĠAtl anta
V ol
ĠT it
ĠS edan
H á»¯u
Ð¸ Ñħ
be nh
V CCI
d c
19 58
ĠZ ar
ME I
Ġtr á»ĭch
Ġd eo
ĠM ien
Ġs om
ĠL otion
ĠMod ern
m ir
Ġqu áº³ng
ann ing
ĠTom my
han ouk
Ġd áº©n
ĠKh áº©n
LÃªn in
ĠC ITY
ĠD á»ĳc
ĠÃĲ Ã¬nh
Ġcry ptocurrency
29 1
ĠTh Ã´
ĠÄĲO ÃĢN
b ds
ĠY G
ĠC Ãłnh
Ġho ai
ÄĲ á»īnh
ĠT á»¥ng
ĠLuxem bourg
ith pt
ĠD Ã¢m
il ac
ĠT encent
ĠC AT
es ca
Ġrep ly
ĠÆł i
ĠSir ius
C ategories
Ġf iller
Ġbá»¥ t
ĠMoham med
C as
Ġl Ã©t
ĠL LVT
ĠInn isfree
âĢ ı
ĠViet ravel
ĠLo ad
ĠA O
tral ian
Ġsam urai
Ġkhu Ã¢
c Ã¡t
Ph Ã¡o
19 61
65 3
ĠHels inki
A mer
Ġr á»Ŀ
A v
Ġl áº£nh
Ġm art
ch á»¥p
ph á»ĳ
Ġapp le
ĠM iá»ĥu
Ġro ad
ĠPark inson
t á»«ng
Ġïĥ ¨
ĠKh eo
ĠNu tr
c Ã¡n
ĠLo pet
,âĢ¦ ).
12 80
Ġhuy en
ĠTim o
Ġlav abo
ÄĲ C
b áº¿p
ĠPh Ãłn
ed i
Ġma fia
ĠK I
ĠKh Æ¡
ĠR I
9 25
F orm
ĠL ost
ĠK á»ĭ
H igh
ĠCont act
ĠCr es
ĠWh en
Ġv áº¥y
ĠQu est
c Ãº
Ġd Ãµng
Ġm ir
70 2
ĠPr ice
C opy
ĠæĽ´ cÃ¡nh
âĸ¬ âĸ¬
F ran
ĠC um
ĠM ata
ad ium
c ing
et sk
ĠQu en
L ux
ĠC AR
ĠM AR
Ġcry pto
ro y
to col
ĠJe ep
ĠK A
ĠR á»§i
Ġåĭ ķ
ĠH Ã¢m
ĠA ch
Ġbr and
ÐµÐ ·
ĠLopet egui
ĠR ag
H á»©a
Ġa er
ĠSh ak
m Ã£n
ah u
ĠCQ ÄĲT
m áº¥y
ĠCharl otte
nh ung
and in
Ġé Į
r inh
Ã¨ ve
80 6
ĠCleans ing
h áº¡nh
ĠW as
ĠçĽ ´
Ġclass ic
. ;
n Ãºi
ĠFul ham
ĠNev ada
ĠL ÃĶ
ĠL áº¡m
ĠIn formation
ĠPh Ã¡ch
ĠÐ ŀ
Ġl Ã¡p
ĠTr av
que z
Ġm Ã¢n
D is
c ai
Ġ09 64
33 2
ĠEp oxy
g art
Ġé« ĺ
7 14
C Æ°á»Ŀi
ĠT á»±u
ĠM ori
ĠS ina
amil a
ĠHudd ersfield
ĠT á»¶
ĠD ot
ag as
Ġde ep
Ġåħ ¬
Ġ Ã£
Ġs Å©ng
Th áº¡c
ĠL á»ĺC
ÄĲ áº±ng
ĠK ontum
66 2
ĠTR Iá»ĨU
ĠEx t
Thu áº¿
ĠCin ema
N oi
ĠH á»ī
ĠMel amine
ĠDay s
Ġtr áº£m
ĠO ak
Ġæ º
ĠS ans
op e
ĠCl ay
ĠQ N
Ġâ ĩĴ
à¹ Ī
c áº¥m
ĠB ok
te gr
ĠOffic etel
H á»«
ob acter
ĠCH á»ĲNG
m A
ĠT Ã¨o
Ġh áºµng
ap est
Ġ09 48
/ ,
ĠI z
77 1
ĠB MB
PT OP
90 7
ac ca
ĠOut lander
S hock
V ina
ĠL ever
ĠAD B
ĠÄĲ Ã³a
ĠG ÃĮ
ĠA ust
th Ãªm
ĠDr ama
Ġd B
Con tinental
pe i
ĠL uyáº¿n
ĠBL DS
Ġtr Ã¡p
ĠG ly
ĠE ug
pons ive
Ġ- --------------------------------
ĠF irm
is se
pp y
55 2
ĠD Æ¯á»łNG
iv an
Ġè Ĥ
âĢ¦âĢ¦ âĢĿ
Ġp ound
Ġt its
ac ity
ĠAir port
Ġtr á»Ŀ
Ġdi rect
ĠTrain ing
Ġautoc ad
ļ ´
Ġ24 3
T ip
Ġf ic
ĠrÃ¢ t
K K
k es
ĠL una
Kho e
ĠBin ance
c il
ĠR ights
Ġ09 63
Ġincl ud
ĠF iber
Ġsm all
Ġh Ã¹a
ĠV ector
us try
vic ing
l uÃ¢n
Ġ4 25
Ġra ting
ĠG ÃĴN
ĠAn field
á ¸
Ġ4 01
âĿ ¤
ĠCent ro
L áº½
T uyáº¿t
ine ken
åĩ º
ĠU m
19 00
oc cus
75 4
F DI
Ġ24 00
ĠÄĳ Ã¬
Ġng Ã¡i
ĠK FC
ĠI on
P art
ĠP un
ĠH us
ĠCh Ãªnh
Ġá»¨ NG
ill y
Ġqu áº¯t
Ġèı¯ hoa
35 1
Ġch á»ı
á»Ĵ I
ĠSup port
ap o
35 2
Ġ45 8
ĠAsh ley
R á»«ng
ĠN eg
n uÃ´i
ĠD Ã¢
kh Ã¡n
Ġ23 7
Ġéĩı lÆ°á»£ng
ĠK ob
ase a
ap t
ĠJ ump
ĠLu ther
Ġu c
ĠC ategories
Ø§ Ø±
»kh Æ°á»Ľc
ĠAg ency
J an
ĠD TTS
ĠC CN
J u
O lymp
ĠRiver view
ĠFlam ingo
ch áº·t
ĠBe ng
ĠFus ion
Ġth Ã£i
aux ite
ĠåĬĽ lá»±c
Ġr iver
ĠS OS
Ġsim ili
Ġpl ug
ĠDec or
³t Æ°á»Łng
Ù ĥ
Ġth áº±n
th á»¥
ĠSt anda
Ġåį »khÆ°á»Ľc
ĠFre edom
Ġaco ustic
Ġv áº©u
ĠC Äĥm
ĠGot ama
ĠO a
Ġæĥ ³tÆ°á»Łng
79 3
ĠéłĪ tu
B ia
ĠRe f
Ġb á»±a
ac es
Ġ30 6
æĢ İ
Ġp y
áº¹ m
ĠCry pto
s ay
t ang
Ã£ m
ĠM ine
Ġmu ch
ĠC e
ĠU L
ĠJ or
ĠGal il
PP L
ĠLib rary
n ight
id ong
Ġlu x
Ph á»ķ
ĠTon ing
ĠAr men
ÃĤ NG
ĠAve ngers
Å Ľ
Ġg host
ĠJ elly
Ġpass port
9 01
US E
BN EWS
Ġr áº¯p
id in
S GDÄĲT
tockh olm
c Æ¡m
Ġdec or
IL E
ĠSant iago
; ">
ĠMc L
ĠEng land
5 24
L ove
S Ã³ng
ĠRead er
Gh z
ĠLear ning
i ya
Ġcu i
it age
ĠMarri ott
37 2
ĠCook ie
ĠTr uong
ĠQua d
ĠNGH á»Ĭ
ĠE yes
ĠTu Ã¢
V e
Ġkh ac
ĠGOL D
C Q
ai gon
ĠL áº¬P
Ġm as
Ad min
A o
s up
Ġm b
Ġn ap
ĠW iki
Ġ25 7
Ġé Ĺ
Ng u
ĠHá» İ
Ġpro gester
kul ele
4 11
5 85
L og
Ġf lu
ĠBe et
osser vicing
ĠCh iáº¿m
Ġi osservicing
l aptop
Ġ8 45
à¤ ¾
Ġæħ §
), âĢ¦
ĠCard iff
C á»Ńu
±c Ã¢u
I d
ĠB elle
Ġ26 7
P oly
ĠV iva
ad am
M arketing
ip zig
Ġmar gin
ĠGiá» įt
ĠVI NH
il en
ĠFr iends
ĠIndoch ina
ĠN I
ĠEX O
ĠÄĤ ng
ĠT ut
ph Ã³
kh iáº¿n
PR ESS
Ġ26 4
ĠKr ist
Ð½Ñĭ Ñħ
th áº£m
Ġb t
ĠH á»«
ĠL DL
N ame
ĠG ho
For ex
vi ec
ĠGarden ia
Ġ00 7
ĠFr ench
Ġs Ã¡i
ĠB aki
Kh Äĥn
== >
Ä Ļ
ĠæĮ ģ
J un
ĠLim ousine
ĠCh inese
Ġä¿ ±cÃ¢u
Ġm ut
Ġ3 38
ĠBol ton
ĠAr m
Ġtr oi
Ġd áº·c
ĠTh iá»ĥm
St art
D Å©ng
ĠH ÃŃt
Äĳ á»ĳn
ag ar
Ġgi Äĥ
ĠX p
55 1
3 14
z ing
ĠTH á»¨
Ġm ask
ĠçĽ´ trá»±c
Ġn ov
ĠM ÃĶ
S X
ÄĲ TC
Ch Ã¨
iv irus
Tho Ã¡t
ĠHP G
Äĳ ÃŃch
55 4
. ).
ĠS ime
ick et
ĠQu áº§y
ãĤ ¢
ã ħ
á»Ľ ng
Ng áº¯m
ĠCol a
Ġvi ll
y t
ĠHam mer
h om
nh áº£y
ĠMar ine
ĠOptim us
x inh
ol ia
N áº¯ng
S ex
ĠN Ã´i
ur ance
ĠEm ily
ĠSpe aking
ĠVID EO
is u
ov inam
3 26
ĠPh e
ĠYou th
Ch áº¿t
ateg or
B ID
ĠS TB
Ġsu on
ĠFort une
n inh
im co
ĠÄĲ Æ°á»Ľc
ĠGuin ness
ch ang
ĠL áº¥p
Ġ40 6
ĠN elson
Ġtr á»ĳi
9 66
aster n
C áº¡nh
ĠR up
ĠF lower
88 2
Tr uyen
no wn
è ¾
er c
ĠE BD
ĠÎ ¼
Ġ7 90
C lean
v ie
ĠC J
ĠB uy
ĠKH Ãį
ign on
Ġval entine
G N
el ia
Ġxemphim vivu
Ġm ember
ĠPaj ero
Ġ27 2
ĠV K
ĠYok ohama
Ġf iles
ĠGI S
s á»¯a
Â ±
ab ility
ĠMur ad
Ø ²
ĠPh arma
ĠM ug
ĠTel egraph
ĠR Ã¡c
ĠW IFI
è½ ¦
4 65
D on
ĠS BS
tr u
ort s
og en
4 12
T áº¥n
ĠInt ellig
Ġb áº¥c
ĠC áº¢M
Nh áº«n
ĠÃĲ iá»ĩn
ĠNH Iá»ĢU
Ãī T
ĠGiá» ĳc
ĠMan uel
łn á»ħ
j n
Ġnhi en
ĠN áº´
Ġhy dr
IA L
ĠPer formance
Ġ\ "
ĠN vidia
âĢ¦ ?
ĠBr uce
ri ed
ç ´
it ure
Ġm eta
ĠKh áº¯p
l Ãłng
Ġm n
ĠK uro
ain i
ĠPass word
ĠK aka
Ġä¸ »
ðĿ ĳ
ĠL Æ¯U
Ġchu c
36 1
ĠAs iana
Ġåĭķ Äĳá»Ļng
68 2
47 3
Ġmac ro
Ġg Ã´ng
75 3
Ġlo áº¡ng
Ġorgan ic
ĠKh ao
80 7
Ġ5 67
Ġä½ łná»ħ
ĠLau rent
ĠAbb ott
Ġbook ing
ĠMatth ew
ĠH ig
H iáº¿n
ell ar
ĠTsur umi
ĠP ix
±th Ã¢m
TC N
ult ure
ĠÄĳ Ä©nh
Tr á»įn
+ /
ĠÄĲ á»Ľi
Ġæ ĳ
ĠFore ver
n ab
v oi
Ġn t
ĠTV C
ĠÄĲCS TQ
Ġball ad
ĠFai ry
under land
E CT
I CT
R ay
f amily
c Æ°á»Ľp
d em
ĠH ana
S Ã³c
ĠCl as
Ġ __
Ġl Æ°á»Ŀm
ĠJ oa
ĠDo g
ĠTR á»¢
ĠFuk u
Ġ8 40
ĠMem ory
ub l
ĠY en
Ġæ £
Ġday s
ĠCap e
h Ãłn
ĠSoc iety
O h
ĠD ash
ĠPl ugin
th áº¥p
r ar
carbon ate
Ġæ· ±thÃ¢m
Äĳ d
Ġæ ¿
iz ing
Ġa ff
Vin anet
ĠÃĶ m
Ġh Ãºy
ĠL Ã¹ng
Ġt nhh
Ġm Ã¯
Ġb b
Ġtrai ning
78 3
ĠGr ant
ĠSh el
è Ī
Ġ5 25
ĠåŃ ¸
j oy
IS H
ĠOc tober
N Ãºt
Ø ¬
ĠGi roud
s at
ĠMetro pole
ĠC andy
Ġt w
ĠE u
ik achu
ĠT áº«n
Ġj ohn
Ġ19 27
re z
? -
â Ħ
Ġ09 73
Ġ23 1
åİ ¿
Ġru á»ĵng
do u
ĠV Ãª
ĠTr in
åĪ Ĩ
Ġb á»£m
ĠS Æł
ĠPas cal
b ass
ĠN BA
AL A
ĠK KT
ĠE VA
se e
Ġé¦Ļ hÆ°Æ¡ng
: \
ĠV Æ°u
ĠR oh
ĠWal ter
âĺ Ŀ
ĠSho unen
d g
at ural
ĠÃ ·
Ġ9 20
100 00
ĠĠĠĠĠĠĠĠĠĠĠĠĠĠĠĠĠĠĠĠĠĠĠĠĠĠĠĠĠĠĠĠ ĠĠĠĠĠĠĠĠĠĠĠĠĠĠĠĠĠĠĠĠĠĠĠĠĠĠĠĠĠĠĠĠ
ĠLo pez
ĠbÃª tÃ´ng
8 24
Ġl ithium
ĠsÆ¡ mi
Ġå ³
ĠArt icle
5 68
Ìģ !
et z
ĠCo up
Ġn Ã¡c
Ġto Ã©t
s or
ĠKle in
Ġx á»¥p
Ġgl uten
Ġsp ir
ĠKh am
ĠU I
Ġ[ -
Com p
N iá»ģng
Ġtu lip
irm ingham
ĠLis bon
ĠH err
Ġváº» n
* .
E r
Ġ %.
ĠCO MP
ĠT ip
CX N
n Ã£o
Ġå¹ ³
K on
ĠÄĳ Ã²ng
ĠP aint
Ġ19 34
ĠSign ature
ĠJ en
Ġ19 19
Ġb Ã¯
cam era
ĠAr k
ĠN á»ĶI
ĠOg re
hi k
ii ii
ĠHen ri
ĠæĮģ trÃ¬
; ...
ĠPro cess
th áº¡ch
75 2
Ġ27 3
ĠAir Asia
Ġad idas
R Ãºt
Ġnitr at
ĠRe agan
ĠN ao
49 3
ĠGI ANG
Ġ Æ°Æ¡i
Ġgi up
ch ett
Ġ^^ !!!
H Ã¡t
ĠGr ace
ĠVir tual
Ġkh iá»ħng
ill ing
Ã©m on
ĠRu á»Ļng
ĠR osa
amp le
ĠPro perties
ĠBr isb
ĠEx tra
Ġkh uyen
ĠD ry
en ia
L ed
Ġt weet
et o
th Ã¹y
J S
ng Ã´
Ġm á»į
ĠM ina
ĠHik vision
ĠG az
ĠStud ios
Ġx Ã©m
ag h
37 1
ĠÃĲ á»ĳi
ĠWh ats
d eth
ĠT FT
Ġba be
ĠÎ ²
ĠCh iÃª
P ass
W W
Ġda p
ĠNag oya
ĠBudd hi
Ġn á»ĵm
n áº¡p
ell es
ĠCop a
ĠåĶ ¯
ph áº¡m
ĠBrisb ane
v p
76 3
æĸ ĩ
Ġ ui
ĠM áº¸
ark er
yl an
«m áº¡c
ĠTa j
AI L
ĠHong Kong
ĠR Ã¢u
Ġ26 2
Ġsp eed
Ġ3 24
Gi an
Ġ %,
Ph Æ°á»Ľc
ĠH id
ai a
Ġ3 21
ac i
ĠR ab
ĠSon ata
Ġes te
ĠNh á»¯
it ness
ĠSH TT
il in
ĠçĻ½ báº¡ch
ĠC ant
ck er
t tp
áº» n
ĠJam ie
55 7
ĠMU AS
ĠLe ipzig
Ġ. -
Ġz ing
Ġèİ «máº¡c
uc c
44 2
Chá»ĭ u
St ore
ĠCer amic
h áº£o
Ġng Æ°á»Ŀ
Ġe ffect
ĠSan aky
Ġåį Ĺ
ĠÃĲ á»ģ
ĠChr on
ĠhÃ² e
ĠSystem s
Ġéĩį trá»įng
Ġ ill
ĠD iÃª
ĠR ung
ĠJac ob
90 4
az ar
ÐµÐ½ Ð¸Ñı
Ġ40 5
ĠIP L
Ġsá»Ŀ n
ä» ¥
ĠKu wait
ĠID M
C Æ°á»Ŀng
Æ°á»£ p
Ġbu on
ãģ Ĭ
5 88
y y
BV HTT
Ġé¡ ¯
ĠBrow ser
ĠØ ¯
ng Ãłnh
ĠTR áºº
Ġgam ing
10 24
ĠH TTP
ĠW ax
ĠMat xcÆ¡va
ĠPin terest
Ġæħ§ tuá»ĩ
f g
ch uyáº¿n
gr ess
ument s
ĠH ond
ar real
ĠCl ar
H áº¯c
3 17
âĢ¦ .âĢĿ
ĠKH AI
ĠKiss inger
b athu
ic ylic
ĠChar ge
9 40
x Ãºc
AN S
6 12
Ġc n
Ġb Ä©nh
cham ps
P VN
ĠP ico
ĠN áº·ng
ĠBar bie
ĠPrin cess
ĠK ien
ĠÄĲ Ãłnh
us d
Ġst ory
L áº¡ng
k n
x ia
az ol
y ama
ĠVH NT
ĠCatalog ue
æ ¯
Ġ á»ĭ
C á»Ŀ
ost ro
ĠWat son
ĠV EC
Ï Ĥ
9 11
Ġc áº¡y
nh áº¹
Ġm or
Ġd Ã²n
ĠÄĳá»į an
H ong
Nh iáº¿p
ngh á»ī
Ġfol ate
ĠLog itech
7 11
t ar
oglo bin
D ining
tr ao
ind y
ĠlÃł i
ay ama
ĠP allet
ĠR im
ĠNáº´ NG
ĠF ior
Ġn y
ÃĻ A
RE EN
ĠCl os
ĠA EON
Ġ19 28
Ġ04 3
uss y
86 4
ng á»įc
us ion
Ph Ã¡i
kh ut
ĠPhill ip
ĠJe ong
ĠDesign er
ĠCot ec
ell ing
ĠAir line
IS E
ĠClas ico
ĠN ico
Ġxo e
ĠUr ban
cung quanghang
T ype
Ġm áº©y
H G
m Ã´i
ic ations
g if
ĠM IT
ĠÃģ O
65 1
ĠAk ari
9 88
am ide
ĠA ub
8 35
B alo
Ġé Ń
ry s
uf act
ĠF le
ĠKind le
ĠRho des
ĠA HA
Ġgam er
ug a
ĠP eng
ar ium
ĠT á»Ļ
ĠS AR
ĠBou levard
Ġb rowser
Ġto e
80 4
ï ½
ĠâĢĵ >
back ground
Ġé¡¯ hiá»ĥn
Ġs or
al ow
Ġ09 46
M Ã¨o
ĠS eptember
SK ÄĲS
Ġm h
Ġsh ot
L K
ul ti
ĠÄĲam inh
aby te
Ġnh Æ°Æ¡
Ġlym pho
Ġv áº¡m
ĠI k
uck land
Tai chinh
ied ad
ĠW S
ĠApp lic
Ġb Æ°Æ¡n
Camp uchia
ĠM Ã£nh
38 1
ĠZ TE
ĠAd apter
fr esh
Ġ3 22
ens tein
job a
Ġv áº¡i
Ġ09 65
ĠB uk
Ġæ© Ł
t á»ī
7 15
m ain
Ġ il
ĠM RI
ĠN ÆłI
let on
9 75
ä¿ ¡
u ff
CC B
BNN PTNT
ĠåĶ¯ duy
Ġtr áº£o
c ip
Ġ40 9
ĠHe aven
l á»Ĺi
19 71
ĠPh Ã¬n
P ER
Ġho áº¡c
ia h
Ġ9 30
Sp utnik
Ġh ip
ĠTo eic
umb ai
d b
Ġtr Ã¡c
ĠMat te
Ġå° Ĭ
ĠÄĲ á»ĳn
Ġkh Ãł
ug ht
ĠMc K
fr ont
d ition
k iáº¿m
ĠP erry
Ġco upe
ĠâĢľ ,
th en
ĠÄĳ ui
Ġl ieu
Ġ19 18
Ġ25 1
ãģ ł
ĠÐ² Ñĭ
in f
ĠGh ana
ir ang
ect in
Ġl iá»ĩm
ĠJ Y
Ġz ona
ĠFl ip
b iá»ĩn
ĠMich elin
Ġl Ãĥ
nh Ã´m
Ġc ert
ĠFr amework
Ġngh á»ħ
Ġ09 74
ĠG N
4 88
l ap
Ġth Äĥn
Ġtr áº¯m
Æ¯á»ļ I
H K
Th Äĥm
C at
Ch evrolet
i ot
Ġelect rolux
ĠMar yland
imble don
Q ui
ç ¤
ĠC UNG
! ,
5 65
t á»Ľi
Ġm ama
ĠnhÃ© o
Ġ17 00
ree k
P aris
ĠPart ners
ĠH SD
Ng á»įn
Ġd Æ°á»£t
ĠDur ex
Ġ8 35
5 11
do wnload
0 27
S Ã¡t
Ġra te
ĠCM CN
r á»Ļng
ĠDon etsk
em ian
Ġç º
ĠRu á»ĵi
Ġn ui
6 15
D á»įc
Ġad dress
ngh iÃªn
N an
for o
fr ame
ĠTH ÃĬM
D áº¡ng
Ch Äĥn
ul us
85 9
Ġä¼ ¼
ĠAut om
B aby
d ieu
Ġg á»¥
ĠF ell
ĠÄĲT M
æľ Ģ
Ð°Ð ³
ĠSpr int
ĠCHá»® A
5 45
ĠC ÃĻNG
6 28
ĠS ua
ĠI an
Th Ã¡c
Ġkhu i
ĠAtt ack
ĠÄĳ áºŃt
ĠCor el
ĠGB P
ĠS tockholm
Ġas en
C ore
Ġb áº¥n
ĠH ere
A lex
4 14
? (
P aul
Ġ6 90
ĠWar ner
39 1
ĠBG K
ĠMart ine
ĠC Æ°á»£c
" (
ĠB IG
Ġy amaha
ĠSh ah
. '
it ale
ĠRich mond
Ġs á»¯
L Ã£i
oc yan
ĠCh ong
w ick
ĠM im
ĠMad ison
S IM
ĠL áº¯m
TS C
Ġg á»Ļt
ĠL oss
Ã¼ n
quynh on
4 16
Ġh Weth
Ġn áº£i
ĠPh arm
t Æ°á»Łng
Ġïĥ ¦
ĠHotel s
ĠLay er
os i
Ġsap onin
ĠH áº¡ch
å± ±
Hu áº¥n
l uc
Ġto shi
Ġbe ing
ĠPic asso
ĠBot an
Ġä¸» chá»§
ĠTho Ã¡ng
Ġvac xin
L N
ig ation
R M
Ġl á»¥ng
Ġse al
3 29
ĠHuy Ãª
fe ed
X ong
19 53
i ao
ĠO H
y ong
Ġl cd
Ġmá»Ł n
ĠY ersin
ĠÄĳ áºµng
Ġm á»Ļi
ĠEd ison
ĠCo le
Ġph Ã¯
ĠH Ã²e
ĠIn line
EC D
ĠSiber ia
Ä ħ
Ġpro gram
ĠNam i
ĠtÃŃ u
ĠRu á»Ļt
Ġä¼¼ tá»±
ĠS ushi
B ro
ĠTh ere
Ġ25 9
Ãģ M
90 8
il t
ĠPay pal
Ġm ill
ard y
h áº¡n
ĠTr Ã¹m
Ġâ Ħ
ĠO per
Ġ50 5
Ġæ©Ł cÆ¡
ÄĲ á»ı
OD EP
C F
G á»£i
ĠAl ph
ĠInd ep
Ġïĥ §
9 89
T est
ĠF F
ĠLin da
r b
ĠHo spital
ĠV iagra
ÌĢ ?
ĠTour ist
7 35
ĠU BCK
Ġl Æ°a
ĠJ D
ec ut
lo ca
net t
ĠV AS
ĠCD T
ĠRec ord
ĠTr á»į
CP C
IC K
Ġ Ã©n
Ġp our
Ġtoy ota
X EM
Ġl g
ĠS US
ĠK w
D ata
Ġco uld
Kh Ãºc
Ġtha ch
Î »
Op ens
ĠD oo
47 1
n av
ĠGen Ã¨ve
Ġ8 86
ĠApp s
ĠF low
ĠAdel aide
ĠX á»©ng
ĠW anna
ĠTu an
ĠC atherine
ĠFat ima
ĠH uyá»ħn
ak ers
ĠCons ult
h á»ĵn
t á»ĳc
è ¶
ĠÄĳ ep
ĠL ind
ĠRom ance
Ġïģ ¡
ĠTQ LC
Ġæĥ ħ
s ilk
Ġr á»īnh
alys is
Ġg ÃŃ
ĠS Ãºc
ĠÄĳá»ķ ng
Ġp erson
os an
if orm
ĠV il
Q D
el ancer
ĠG aga
EE E
ĠSi hanouk
b re
Tr Ã¢n
St udio
ĠmÄĥ t
hy dro
77 2
Ġshe et
Ġn Æ¡m
ĠA sa
ĠX ÃģC
ĠArmen ia
Ġt Ãºp
ĠV AR
os it
ĠMon te
Ġstr ing
åı °
7 18
Ġ19 24
or us
6 11
ĠMar gar
3 78
ĠFr eder
M Å©
col i
M assage
kh uyáº¿n
Ġur l
ĠSoc iedad
Ġn bsp
ĠHo wo
ĠMar adona
Ġéĩĭ thÃŃch
ĠHel en
Ð Ł
ien s
ng áº¡i
Ġru Ã´
ox ic
à¯ į
ĠW ai
ÄĲT V
ĠPlan et
ch Ãłng
ĠL Ã¡ch
ĠâĢ¦ âĢ¦âĢ¦âĢ¦âĢ¦âĢ¦âĢ¦âĢ¦âĢ¦âĢ¦âĢ¦âĢ¦âĢ¦âĢ¦âĢ¦âĢ¦âĢ¦
ĠWin ter
D at
ĠÄĲ á»±ng
Ġ( âĢ¦)
aw ay
9 23
Äĳ em
! -
ĠUn c
ĠGro ve
C oi
ho Ãłnh
Ġr Ã©n
M el
ĠHo i
Ġ19 26
ĠãĢ ĭ
ass a
ĠH á»įng
F ed
Ġl Ã³i
th áº©m
ĠSkr ipal
Â ¢
ĠHo pe
L iá»ĩt
68 1
ĠhoÄĥ c
5 16
ĠS Ãł
Tr áº§m
Ġre quest
O k
on iac
ĠGord on
Ġngh inh
ĠJoh ann
ĠLex ington
Ġp ano
Ġb iá»ģn
7 65
Ġde ad
Ġchu Ã´i
nhe im
Ġtoshi ba
VN PT
ĠÄĲH ÄĲ
ĠQU ÃĿ
g or
qu Ãªn
ĠH end
ĠMo ther
ĠK ot
ĠK od
ĠNh á»©t
ĠLA PTOP
ĠH Æ°Æ¡
Ġ29 8
ĠOl iver
ĠL á»ģu
ĠW yn
90 3
ĠDup lex
ĠBud apest
ĠS ÃĢI
ĠPra ha
ĠSeag ate
ĠB iá»ģn
ĠsÃ´ cÃ´la
ĠV AN
ans on
x uÃ¢n
ĠT Ã¡ch
k eo
Ġc áº¡
ĠCN BC
x Ãł
ĠÄĲ áº«y
74 3
deth ithpt
Ġmo Ã³c
Ġb Ãªu
76 2
ĠED M
é £
ut v
ĠKaw ai
8 28
sc reen
Ġ8 70
tr ak
ĠNgh Ã¨o
Ġmat xa
ĠS underland
han na
Ġ{ {
ĠC ushi
ven ia
Ġrob usta
4 33
Ġl Ãºp
Ġlá» ı
ĠHe ights
Ġ3 17
âĢ¦ (
ib a
ĠPr iv
.[ /
Ġl áº¥t
ĠCong o
ĠPap er
ĠD áºłY
ĠBro s
Ġ3 34
ĠDec ember
ĠC BS
ĠTh en
ĠEx po
ĠHam as
ĠPer th
Ġåħ¬ cÃ´ng
t k
Ð ĺ
ĠD ick
Th ao
at is
ĠCa che
ĠGi r
ĠU áº¥t
T iÃª
Ġh iÃªu
Ġ- ----------------
td Äĳ
å ĭ
ĠX SD
ĠåŃ Ĺ
Ġs Ã¬
B Ã´
E CO
Ġ09 25
9 69
ĠL ic
ĠMarcel o
4 45
ĠHe ineken
f c
l iá»ĩt
Ġåħ ©
ĠK now
tr ip
Ġtao bao
ĠTE CH
B uá»ĵn
ÐµÐ½ ÑĤ
gg s
H appy
es ub
L ab
x Ã¡
Ġnh Ã¯
ĠCB CS
ĠNet flix
åľ °
Tho áº¡t
Ġn v
ĠBash ar
ĠEx tract
ĠT at
ber ra
ĠNe il
âĢ Ĭ
Ġa qua
Ġg ato
ĠH alogen
im ate
Ġæ¨ Ĥ
ĠSum mit
ĠÄĳá»£ c
8 68
OV A
,, ,
âĢĶâĢĶâĢĶâĢĶ âĢĶâĢĶâĢĶâĢĶ
S oc
b ed
Ġd id
NT M
aut iful
Ø Ń
ĠD ome
ĠEl ement
ï £
Ġch á»ģ
il anh
Mess i
ĠMuse um
Ġt áº¡nh
Ġ* .
Ġo unce
ĠSh a
ĠABC D
Ġpr ess
ïĢ «
Ġmain board
5 18
6 35
ĠW imbledon
ev en
ä¹ Ĳ
ĠTh iá»ģm
Ġ3 18
ĠPol o
F in
ĠC oach
ĠK á»ī
Tr ump
ĠAr mani
ĠBI OS
Ġth ese
Ġl áº±ng
to day
ĠT able
è®º åĿĽ
ut ure
Ġsp e
Ġ8 80
Ġæ ĪĴ
ĠTo áº¡i
Ġç¥ŀ tháº§n
à¹Ģ à¸
R m
ĠB ÃĵNG
ĠChr om
ĠNat ri
é¦ Ļ
T iá»ĩm
Ġb áº½
Ð¸ÑĤ ÑĮ
ĠWell ington
7 88
ĉ ĉ
V irus
g ui
é ¡
Ġ old
ĠE k
Ġg áº£y
att achment
j un
Ġ6 70
N XB
ĠL ÄĲTB
op t
4 22
C á»ı
Ġ3 68
ĠEco Life
othi ng
Ġf u
ĠAr my
ĠPrec ision
h j
Ġh Ã¢u
ĠP GÄĲ
ĠG á»ĸ
inh an
us o
Ġw eek
59 8
ĠNg Ã³n
Ġ5 99
sa w
t ui
our ces
ĠMang khut
ĠAut oc
æĢİ ä¹Ī
d ium
ĠTH áº¬T
ĠPV F
olo gies
ĠFuku oka
ĠW y
ĠB es
ĠÄĲT VN
Ġm oney
B Ã£o
Ho use
ÃĲ á»©c
7 24
ĠÄĲ Ã¡i
ĠI A
ĠY ing
ĠHÃĥ NG
b Ã¡
Ġ: (
L iá»ģu
ĠT one
Ġr Ã¡m
itt en
ĠAud ition
W TO
Ġs ÃŃnh
ĠDH C
Ġng áº¥u
Ġ" "
ĠPH Æ¯á»ļC
ĠB ub
æ ¬
ÄĲ iÃª
st ad
90 2
ĠRep air
V er
Ġw idget
Ġa z
to is
Ġf ai
s hire
reg as
l ak
ĠR Ãło
t áºŃn
ĠC Z
ĠB irmingham
Ġvi esub
Ġchi ld
Ġba ht
ĠCre ate
ĠBa h
kho áº£n
S ho
tr ack
let t
ĠPu erto
r Ã´n
t uyÃªn
Ġr á»¥m
ĠÄĲH CÄĲ
Ġcon sole
75 1
ĠEss ential
Ġ35 6
Ġ7 87
ĠWin d
Ġ076 26
ifl ame
ĠÄĲ uá»ĳng
Ġ28 3
ĠRS S
N Ã¡m
ĠQ KR
Ġl ittle
09 8
' ll
ĠO EM
ek o
c Ãłng
ĠvÃ© o
l á»Ĺ
ĠB uck
ÄĲ u
ĠKar ofi
Man chester
á»¬ I
Ġn á»ĭu
Ġbox ing
ĠAl u
Ġ3 36
ĠF T
ĠCort ex
ĠÄĳ tdÄĳ
yl en
ĠCHÃļ NG
Ġ( ?)
ĠSe an
D om
ĠSim ple
Äĳ am
Ġr á»įc
ĠÄĲo Ã¡n
ĠS app
ĠTr ay
ĠBr uno
G á»ĳi
ĠSo le
4 17
ĠÄĳ iáº¿ng
ĠD re
Ġ200 00
ĠM ET
x en
Ġr etro
Ġ30 7
s uc
ĠN ancy
T y
ĠSh an
69 2
ier ra
Ġphot pho
m á»ĳi
ĠMon itor
ĠSex y
å®ĺ ç½ĳ
9 79
ĠGu am
ite z
Ġè Ĭ±
b Æ¡m
ĠL áº·ng
Ġngu á»µ
ĠB anh
dr en
Ġæĸ °
ĠTh Ã¬a
ĠL it
ĠA uckland
Ġáº¤ u
ĠJul ia
Ass ad
ĠTan aka
ĠON LINE
Ġk in
Ġ09 45
Ġkay ak
ĠI EC
ĠÄĳá»§ i
Ġf amily
st a
O ut
is ode
ph Ãº
min al
Ġåº ķ
Ġåħ© lÆ°á»¡ng
ĠBack up
Ġn áº±ng
ĠTh ua
Ġå Ħ
ĠSt at
ĠY uki
99 3
ĥ tham
Ġcr edit
Ġnh Ã´ng
ĠN Ã¡m
47 2
ĠQU A
ĠCS ND
ĠÄĲá»ĺ C
Ġpas te
ĠæĿ ĸ
K eo
ĠS end
Ġn eon
ãĢ Ĳ
âĢ º
ill ac
59 4
L Æ°á»Ľi
z in
ĠB ear
kh áº¯c
Ġpl ace
ĠTH áº¢O
ser ies
7 45
D ay
ĠL GBT
ĠInter Continental
ĠBag hd
y on
ĠK end
ĠDTS D
A ug
d á»±a
Ġqu áº¿t
ĠG ra
ĠSP A
Ġv ape
ĠM ID
Ġser otonin
Ġval ue
Ġå¥ ½
ĠEr ror
Ġhá» £
and ez
ow a
ĠCer ato
ua wei
Ng uyá»ĩn
thu áºŃt
ĠåĪ ©
kt c
P RO
ĠVTV cab
V á»ĭnh
Ġm r
oy es
ĠMor occo
ĠBet is
ĠæĿĸ trÆ°á»£ng
ĠDes champs
f at
Inter national
Ġ26 9
b á»¯a
Ph Ãª
eg ra
Ngh á»ī
ĠãĢ Ĭ
l ite
Ġ? "
Ġ! "
Ġèĭ ¦
ĠQu ebec
ĠèĢ ¶
Ï ĥ
ist ol
66 1
Ñĥ ÑĤ
Ġn áº¯c
ĠGi ant
c oi
à §
Ġx Æ°Æ¡
à¸ ĩ
ĠPav ilion
ategor ized
W ill
ĠM otion
Ġcarot ene
7 28
Ġkh áº£nh
Ġr á»§ng
Ho Ãł
ĠRach el
ĠSport ing
kus en
5 33
Ġéķ· trÆ°á»Ŀng
Ġch iá»ĥu
Ġm Ãº
Ġret urn
Ph Ã¹ng
55 3
Æ£ á»Ŀng
ĠVN CB
ver tis
ĠEr n
Ġåºķ Äĳá»ĥ
S W
kh anh
ant es
r pm
Ġng á»ķ
ĠK W
ĠCl ient
ĠS á»ĳc
ĠDis trict
ĠBH D
K C
ff in
49 2
ĠBoo st
ĠCap tain
åı ¯
Ġå± ħ
Ä ĩ
ĠVill arreal
c á»¥c
ĠtÃ¢ p
ĠOb ject
ĠL ens
ĠNh iÃª
ĠF utsal
Ġo áº±n
CL OS
ĠTTT T
L iá»ģn
and owski
Ġïģ Ħ
I Z
Ġ28 9
ipp i
ĠN athan
ĠD in
ph Ãłm
tho ai
7 12
n ai
ĠC á»©ng
ĠåŃ¸ há»įc
h á»ıi
m Ã´ng
m ac
ers hip
sec urity
Ġ ut
ER O
des ign
Ġçľ ĭ
ĠChalleng e
Ġä¹Ŀ cá»Ńu
M AT
ĠB Ãły
Ġthá»§ i
w orth
ĠM ÃĥI
67 3
cc ess
Ġå· ŀ
Ġcust om
Ġgiao duc
Ġf áº£i
ĠKH L
çİ °
ĠNest lÃ©
Ġc reat
Ġkh Ã¡u
tr uc
ĠProtect ion
Ġh Ã¹n
ht ag
e ur
and ra
ĠVI áº¾T
ĠW EB
ĠMat s
æŀ ľ
ĠHond uras
R á»ĳt
ĠL odge
Ġ08 6
ĠSl ide
ngu oi
uz z
b áº¯c
ĠNh á»ĩn
Ġtu á»µ
Ġ3 88
or r
ep s
ĠOtt oman
D Æ°á»¡ng
H p
g ang
BM W
g at
Ġ3 95
v iá»ĩt
Ġmel amine
ĠLav rov
ĠR oos
pr om
HO P
ĠÄĲ áº²NG
ĠK ant
aldehy de
ĠR Ã´ng
ĠL ich
ĠKh áº³ng
ĠO CB
ĠSe al
Ġw ithout
Ġst icker
ĠHar ley
ĠØ ª
5 26
ĠTr uyen
Ġåı ĥtham
ĠP sy
ĠE PC
cop ene
ĠD iáº¿p
eg in
Ġlact ose
ĠT AM
Ġx áºŃp
Ġh Ã½
ĠHá» Į
Ġé ¼
ĠAt om
ãģ ĳ
b á»Ļt
ĠN Æł
ou d
£n a
H B
ĠM Iá»ĢN
Ð½ Ð¾Ð¹
ĠPh en
TT M
Ġe qu
Ġ1800 6
æĪ ĳ
ĠLN ST
3 44
Ġå¿ ħ
ĠVinas un
S á»£
Ġhi Äĳ
Lo áº¡t
Ng Æ°Æ¡
Ġåħ ¨
Ġsho ot
Ġwhi sky
v iá»ħn
nh áº¡y
evel t
ethyl ene
C á»±c
Ġg oc
48 1
Ġcol le
Ġ4 35
ill kin
S oáº¡n
76 1
er man
Ġshop ee
Ġæ± Ĥ
ĠRoss i
ĠF G
az i
G á»«ng
Ġh áºµn
al ke
ĠKH áº¨U
ĠMal ay
4 66
Ð ¤
al at
L Ã¡i
ik ey
Ġs ever
Ġ0 243
ĠD AP
ĠAus tralian
Ġ7 70
ĠBen Q
C ode
Y C
ond otel
b ec
ĠHai ti
ĠG out
Ġ3 13
forum otion
7 000
ĠS ANG
ĠM umbai
Ġhy aluronic
6 16
Ġch in
V áº¿t
m aker
ĠSer ena
CV I
ĠåŃĹ tá»±
) ).
C ab
V OA
- âĢľ
enh agen
ĠS AL
Ġngo Ã¨o
ĠDep ort
ĠéĤ £na
m Ã³c
ai hat
ĠF PS
Ġé¾ į
G áº¯n
Ġha ha
ĠÐ µ
Ġvo ice
7 25
Ġcort isol
ĠRest aurant
Nh á»ı
oder ma
al ie
ĠJ up
lo ve
5 67
c od
ĠU HD
Ġ10 24
78 1
ĠJan uary
bong da
im oto
ĠPar ag
b á»ĵ
fr iend
urn iture
7 33
19 57
at ment
ĠAU X
m á»Ļc
Ġto r
ĠKh á»Ń
b iet
c ook
ĠK EY
ab ad
Ġå¤§åıĳ å¿«ä¸ī
ĠP ali
ĠLe ng
ĠAm ber
y eu
Kh áº©u
Ġæĥħ tÃ¬nh
Ġt iep
ĠW A
7 69
ĠR ib
ïĢ ½
ĠPe ace
ĠTh áº£n
âĢı âĢı
ĠM á»ĵ
ĠLi quid
alo id
Ġåħ §
Ġåĭ Ŀ
ĠChol esterol
M F
å¥ ³
ĠHerm es
tu an
Vin pearl
P op
ĠS ource
Ġev a
v ir
ĠH TT
ĠB av
ĠTr Æ°
as is
ev e
ĠX á»īu
ĠGran ite
Ġ) :
ĠS weet
ĠNh á»¥c
Ġæ į
Ġlá»Ł m
Ġ3 26
ĠK Ã¨
Col or
ĠJor ge
8 15
M uá»ĳi
ĠH XH
ĠS eg
â ļ
Ñĥ Ð´
4 24
Ġtr am
Ġho ld
ĠJew el
\ \
ĠTher esa
O m
Ġngh ia
Ġ( )
ĠD erm
Ġf lo
å ģ
ĠS ÃŃp
ĠG U
at ha
Ġsai gon
u es
Ġs elect
j ib
Ġ á»ı
à¸ ±
ĠMat ic
ĠS ÃģT
ĠGi áº½
ĠSaf ety
Ġth Ã³a
tr ex
Ð¸ ÑģÑĤ
ĠH ep
Ġ3 66
8 12
b uá»ķi
Ġqu est
au dio
Ġthá»ĭ ch
h áº¯n
Ð¸ Ð´
cc c
Ġå° į
ĠMarsh all
B Ãª
R ap
v re
Ġx á»ĭ
ĠAng ola
Ð ¢
áº¹ c
19 44
te am
ie ve
ĠN BC
if ilm
Ġå·ŀ chÃ¢u
Ġkhá»ı ang
T an
ĠSp y
ĠåĲ Ħ
ÌĢ :
Nh o
Ġ19 11
ĠRum ani
ph áº«u
Ġcan ada
6 33
Ġl Å©i
ur se
ond e
BID V
r ine
Ġtá» £
am bi
ĠS OL
ĠNg Ã²i
d ulich
Ġdi ffer
HN M
ĠYo nhap
Â ¦
Tr á»£
ĠWell s
ĠV ita
ool s
Ġåı ª
ĠNik kei
Ġs á»Ľt
Ġr um
ad os
æ Ļ
Ġqu á»³nh
ĠBe ast
ĠMed i
è ĭ
ĠåĿ Ĳ
ĠCh Ãºt
ĠCon verter
Ġnh Æ°á»Ľng
ĠCu á»Ļn
ĠV á»¡
Ġïĥ ¼
Ð°Ð ¶
ĠPe ak
ch lor
Ġ7 14
ĠOn ep
9 85
tr ÃŃch
ĠNG U
Ġd Å©a
ĠNiel sen
p ower
ph un
P s
th á»ķi
ĠK ÃĪ
ro se
ĠKH UYáº¾N
ĠL á»ģ
br unette
4 38
ĠJ ab
ĠInd ian
Ġnh Äĥm
Ġlu pus
Ġphim moi
ĠAl v
id ad
ĠThom pson
ng er
Ġk t
ĠLu ffy
ĠC á»į
ser ver
l iá»ģu
Ġch Ãºi
Ġdi oxide
ĠIs lam
Ġåľ ĭ
S uz
ä¹ ĭ
N iáº¿t
Ġb n
ĠÆ¯ á»Ľp
Ġ( $
ĠCN LÄĲ
pos ition
9 18
r áº»
Ġto o
ĠPost ed
9 81
Ġf ord
78 2
Tu á»³
ANO I
Ġå±ħ cÆ°
ĠâĢ¦ ,
Ġt iá»ĥn
ĠD Ã¢ng
ĭth á»ī
l m
Ġs tock
Wh ite
ĠGor illa
B á»įc
iv as
46 1
Ġnon stop
ĠVers ace
d ÃŃnh
ĠB Ã´n
Ġ01 8
Ĳ káº¿t
ĠAff iliate
ver y
ĠSy mb
O b
Ġx áº©m
is ing
ĠContin ental
b áº§u
Th Ã¡ch
et to
Ġ7 40
Ġåĸ Ŀ
Ġm Ã³t
ĠV ogue
ĠCopy right
ĠBarb ara
Ġo per
aw k
Ġå§ ĭthá»ī
Ġdo es
Ġmu Ã´ng
49 1
ngh á»ĭ
ĠGIá» ľ
viron ment
we ight
F ire
s acchar
ĠN Ã©m
Ġmu on
H er
ess e
ĠKHL CNT
i u
ĠA ki
74 2
ret urn
g lobal
Ġ3 23
ĠTH ÃĤN
69 3
ĠVig o
M az
ivi er
Gu itar
Ġau t
Ġ25 3
ĠGram my
Ġd Ã¯
tr om
O s
ĠèĢ¶ da
G Ã¡i
Ġtech n
ĠKard ashi
è ·
74 1
erm ain
ĠTon er
r io
ch áº¥m
X Ã³a
v ol
Ġ& #
Ġå°į Äĳá»ĳi
op tion
th oi
UYá»Ĩ T
Tr áº¡i
iz ard
ĠDur ation
Ġx s
tour ist
ĠFried rich
4 23
uz ia
ĠT áº¢
ĠTill erson
X E
è £
Ġå¾ ®
ĠPH á»¦
ĠK iá»ĥn
ĠåĸĿ hÃ¡t
ĠJac ques
ĠåĿĲ tá»įa
) !
7 47
L TS
Bu Ã´n
ĠN ong
W ashington
h Ã´n
Ġmar ble
Ġopt ions
Ġskin ny
Ġkq xs
ĠV á»Ł
ĠS TT
Ng Ã£
Ġcá»¡ i
4 18
Ġ agen
op mart
Ġthing s
ĠSag ami
Ġch á»Ľi
h un
ĠD MC
Z alo
ĠSc andin
Ġ3 200
ĠDe an
ĠAB B
X C
ãģĹ ãģ¦
ĠD ELL
ĠVi e
ĠèĢ ³
0 25
D U
ĠHold ing
Ġchu oi
ĠOr leans
M ob
ĠN ÃĤNG
ĠCh Ã¡n
ĠHo áº¡
Ġbu long
usse in
ĠçĮ ¶
ç ¦
ĠC ÃĤU
err or
S Ã¢m
ĠL ord
ĠBal tic
n á»ķ
ĠNg Æ°á»¡ng
Ġlo s
Äĳ áº¯t
ĠVin at
ĠCU á»ĺC
ĠSams on
Ġoffic etel
c it
ĠCEN LAND
Ġèĭ¦ khá»ķ
ĠTh iáº¿p
ĠNgh iá»ħm
ĠSo phia
Ń Ĳ
ĠV all
Ġé¤ ĺ
ĠT IÃĬN
ĠL á»¡
Ġ29 2
44 1
Ġto wer
ĠTh ank
ĠKh iÃªu
ĠBro thers
ĠTest osterone
ĠL Ãĥ
Ġpr ivate
B ep
n one
à¹ ī
Ġsn ack
ĠP v
DI NG
Ġåħ§ ná»Ļi
ĠAV IA
v á»ı
ĠÐ¸ Ð·
th ent
ĠG og
ĠF ib
ag ing
ĠAnd r
Ġæ±Ĥ cáº§u
m Æ°á»Ŀi
Ġb Ãµ
ĠKy i
Ġçľĭ khÃ¡n
v ens
gi oid
quy á»ĥn
ĠFus o
ĠÄĳá» Ľ
ĠS ophie
ĠA aron
Ġ28 1
ect ive
ĠCh uyá»ģn
ĠU AV
Ġ08 3
ir am
Ġnail s
Ġtu á»ĵn
20 25
ĠN B
W ar
Ġ09 67
O pen
ĠGI áº¤Y
lam bao
ĠDor emon
Ġk eng
and ro
Ġáº¾ ch
4 28
B á»ĺ
å® ī
ĠæĪĴ giá»Ľi
Ġdo ck
Ġapp ear
Ġar ab
z ip
Ġ64 66
Ġâĺ ħ
ĠÆ ¬
T or
ĠÄĲ ÃĥI
Ġ6 55
Ġ10 50
Ġal en
sim sodep
Ġtin bds
kh ung
ĠTS C
din and
ĠCÃģ I
ĠCarib bean
Â ¨
Ġk u
ĠR az
ĠW es
rol i
ĠçĮ¶ do
Ġ19 10
bal a
Ġdesign er
Ġob ject
8 18
Ġk angaroo
Ġïĥ Ľ
Ġclor ua
Ġnh iá»ĥu
ĠAz er
ç Ń
ĠR oi
ĠNS A
ĠBer g
Ġ- --------
Ġ7 89
Kho áº£nh
loy d
t á»Ŀ
Ġr oman
th Ãª
ite k
ĠÄĲHÄĲ CÄĲ
Ġåıª chá»ī
ç Ħ
ĠB Ã³n
TK K
ĠPort land
Ġth ap
ĠMod em
ĠLever kusen
ĠB ath
ĠM Ã©p
ss ey
ĠCal isto
V áº½
ðŁ ı
hard core
ĠMcL aren
g ether
ate k
T Ã¹ng
Ġm oc
ĠJ amila
ill as
S w
ĠKh iá»ĥn
Ġ4 23
Ġlu u
65 2
ĠPay Pal
I U
Ġl aminate
ĠÄĲ Ã²i
og ne
ĠSon asea
ĠEl ly
Ġrub y
B Ãºn
B razil
Ġim peria
p aper
Ġsl im
Ġs ensor
ĠJan et
ĠInst all
gr ade
Ġmov ie
Ġn Ãºng
os p
4 39
x áº¿p
Ġl m
ĠH app
Ch á»ĳt
L AN
Ġs atin
sh e
Ġbik er
Ġm omen
ĠH Æ°á»Ľc
ĠTh in
Â» Â©
ĠG Ã¡nh
ĠLeb anon
ĠA CT
ct ors
ĠRoy ce
Å¨ NG
T Ã¡m
ĠB eo
ĠL ÃŃt
Se ason
ĠLight ing
Ġc it
tr á»¥c
ĠPok Ã©mon
ĠMIN I
Tr Ã´ng
ĠåĲĦ cÃ¡c
ĠS uc
ak awa
ĠTT ÄĲB
ĠSeb astian
ĠåĭĿ tháº¯ng
ĠW a
ĠForm at
ĠLad en
ĠFuk ushima
ĠAbd ul
5 39
Ġb ed
Ġni em
igu ain
ĠRi yad
ĠSA U
ĠN ÃĢO
ĠL Y
25 00
Ġé ©
ĠCH A
ĠCr aig
Ø§ Øª
ĠIv y
Ã ·
Ġs ake
Ġr áº±n
Ġpr em
ĠMartine z
Ġm Ãµi
m Æ¡
ĠTr Æ°á»£ng
Ġpen thouse
Im age
H Æ¡i
z Äĥng
Tr iáº¿t
ĠFul bright
Nh á»ĭp
Ġtim es
8 25
ĠR ico
ĠW AN
art e
ĠTh áº£i
ĠS Ãłng
ĠDev il
Īn iÃªm
Ġn ak
ĠVol ume
x Ã©t
ĠÄĳ Æ°á»Ľc
99 1
T Ãº
oss ible
Ġch á»į
Th an
KH ÃĶNG
¿t Ã¢y
ĠL Äĥn
ĠTr ib
ĠSund ay
ĠDrop box
M it
w y
ĠCh Ã¨o
ĠÃī n
ĠD io
ĠSu u
ĠNG ÃĢNH
Ġä¹ ĺ
Ġch á»įt
ðŁ İ
etro it
ĠBen itez
ĠJenn er
L iverpool
H ow
H Y
ĠThunder b
r est
Ġth iÃªm
ĠC Æ°u
ĠKh á»ıi
Ġ21 00
iel ds
ĠFab regas
Ġr ibbon
ĠD ave
Ġap k
3 48
ĠK us
j or
Ġr á»Ŀn
ĠI CC
Ġp ok
ĠBR G
nes ota
Ġhooc mon
ĠI MO
ĠVi en
å £
Ġal ways
3 27
Ġh Ä©nh
âĢ¦âĢ¦ âĢ¦.
9 38
Ġb ida
ĠCap itol
ĠK Ãªu
hi ll
è® ¡
9 12
ĠâĢĺ âĢĺ
++ +
n ut
ĠMas c
F DA
Ġâĺ İ
ĠR ED
ĠB og
Ġ27 8
TR A
ĠB AY
Ġo ang
ĠDo an
Ġcal ories
Ġcaffe in
Ġcer amic
T áº£
ĠA coustic
ĠMov ing
ĠN ex
ĠG C
. !
Ð¾ Ñĩ
z uki
ĠS ne
ĠPh anh
ĠÃĲ Æ°á»Ŀng
ĠÄĲ ÃĪN
it ano
ĠAr ist
b lo
Ġs Ã¡c
ĠT ÃŃt
ed ine
ĠK áº¹p
ed es
d oi
ĠI MEI
Ġvi olin
çĲ Ĩ
ĠG oku
ĠHy o
ĠK ry
Ġæ §
ĠAS TM
cont rol
Ġ3 49
19 40
54 3
Ġpr int
ĠLinked In
9 65
L á»Ĺ
ĠD yn
tr á»ĵng
AS ONIC
á»ĩ u
Ġoptim ization
ĠHe at
ĠKan ji
ĠHero es
Ġd Äĥ
Iá»Ĩ P
Ġé¤ĺ dÆ°
ĠAlex a
ĠPrin c
L ogo
ĠS XH
ĠMobile City
ÑģÐº Ð°Ñı
Ġ30 9
l um
ĠCop enhagen
h eo
7 19
Ġphim bathu
Un ivers
Ġr Ã³n
Ġx ang
ĠSi u
b uilding
ĠUBMTTQ VN
Ġé¾į long
Ġqu áº¯p
Ġ3 31
ĠE SP
ĠbÃ© c
Ġ Æ°Æ¡n
ĠM Ã¡ch
ĠGun ny
qu er
ĠV Ä¨NH
gi am
ĠGe un
Ġitem s
Ġr Ã©
ĠB á»ĳt
ĠCap ella
ĠSoo bin
ĠPCT N
ĠDah ua
ca fe
Thu á»Ł
W OR
Ġs áº©n
Ġkho i
ical ly
èµ Ľ
ĠRoos evelt
ĠB Ã¡u
ĠKing ston
Ġb ob
Ġpro t
ĠMac edonia
Â ¤
Ch Ã¡o
ãĤ Ī
ĠHO áºłCH
du oc
Ad visor
Ġkh áº¥p
ĠLev ante
Ġè¥ ¿tÃ¢y
V M
um inium
Ġp ep
ic us
ĠDo or
Ġå¿ħ táº¥t
9 86
c ase
ĠT áºŃt
ĠD ÃĻNG
ĠHom es
Äĳ á»Ļt
ĠSam Sung
ĠJam ona
sa ch
87 4
Ġg al
Ġçµ Ĳkáº¿t
ĠèĢ³ nhÄ©
D X
Ġnhá»Ľ p
Ġst ars
á»Ķ NG
ĠL ÃĤM
Ġbar ie
ĠBo om
L á»Ľn
": [
ĠSol ution
cac bon
ĠAn land
lo a
ĠT DC
4 48
ĠGi Ã£n
ĠVietnam net
ĠÄĳo m
ĠMir age
d w
K Ãª
Ġå¯ ¶
ĠK iÃªm
ĠCP C
ĠðŁ Į
ĠJur gen
Ġx ilanh
Ch iáº¿u
ru ary
ĠOm ron
h au
Ġta t
ĠR P
Ġweb game
ĠL anh
ĠCom fort
Ġso Ã¡n
ngh á»ģ
8 78
ĠLew andowski
âĺĿ âĺĿ
co un
c ay
ĠTh ings
ĠVin ci
ĠÃł h
y al
ĠAl fred
ight y
c z
Ġg áº±n
ĠPL US
Ġt it
Ġc ass
yl ori
Ġbe fore
Viet Post
Ã¶ r
onn aise
D OC
itr ang
Ġ3 28
Ġbut ton
ĠLo áº¡t
c Ãłi
Ġth á»ĳc
ĠH ussein
ĠM oody
ĠSeason s
ĠHa fele
à¸ ģ
ÃĲ Ã¢y
ĠC v
ĠP Ã´
ĠBaghd ad
C or
Ġ ay
EP A
ect Æ¡
Ġhd online
Ġfr iend
Ġv c
Ġng á»Ļp
ĠNH áºłC
UB TVQH
tay nguyen
Ġh á»ĳng
ĠB um
ĠCH Iáº¾N
N áº¡p
ĠL iÃªng
ĠDoll ar
Ġ19 14
5 89
Ġv iá»ĥn
Ġb ase
os te
ĠFact ory
3 49
ç ¨
ĠIC E
7 16
ĠCu á»Ļi
ĠSU N
Ser um
ĠSalv ador
4 13
D igital
Ġdo t
Ġfr amework
Ġ6 99
us ter
ĠM og
ip op
5 44
b eck
88 1
Ġlay out
Ġcitr ic
Ġch art
ch on
ist or
ĠKo ji
5 76
ĠT CM
ĠIS BN
BT U
ĠCh Ã³ng
ut ter
ick en
ĠR ail
ĠC ock
oo f
ĠFell aini
h iá»ģn
ĠçĽ ®
ĠS elfie
ÑģÐº Ð¸Ð¹
uat em
Ġ$ \
b á»ĳn
Ġta sk
ir con
ĠCel ta
) âĢĶ
u in
Ð½ Ð¸Ðº
5 69
Ġdo uble
el ec
s mart
ĠV á»¯ng
ĠV UI
EG O
Ġdi va
ĠAd ren
Ġser vices
áº® M
7 34
ĠCh ain
ĠNgu oi
bai jan
? âĢĻ
ĠI G
Ġsp ace
Ġph oi
UY áº¾T
A mp
M usic
_ .
ĠS áº¼
ĠGold man
ĠAb out
ĠC oh
L in
x Ã³a
Ġtr áº¡c
ĠA Q
ĠGr uzia
ĠGar cia
Ġ5 32
ep tion
8 11
s ar
Ġm us
ĠN ishi
ĠV ert
ĠP AR
Ġ19 23
K á»ĭch
ĠTh Ãły
D J
Ġgift code
ĠN ÃĬN
S áº¡c
Th uyá»ģn
Ġi i
ub in
TS KH
Ãĵ N
ĠPhot os
ĠT Æ°Æ¡
ĠV Ã²
ĠÄĲ á»Ļn
_ {
Ġch á»ķng
EN CO
Ġfe el
Ġng á»¥p
lo áº¡n
ĠCour tois
ĠVik tor
U l
V ir
Ġkho Ã©
ĠI w
ĠÃĶ CAR
ĠG á»ĮI
ĠÄĲo Ã²ng
ĠTer ra
5 78
ĠCh ange
K Ã©o
ĠC OS
ĠRou ge
ĠTH ÃįCH
UND AI
5 22
ĠH ÆłN
ĠO ur
59 6
ĠDO C
9 49
Ġ5 22
Ġgi ve
D ao
b h
h á»©a
n á»ĳi
Ġn á»Ľp
Viet Nam
ĠShi eld
Ġcal cium
Ġå£ «
7 13
9 68
ĠD ota
Ġå ļ´
up ro
ĠM ip
Ch ai
Ġtrá»£ t
ell ite
ĠBob by
Ġ( %)
ad ol
av ing
ĠBl ood
Cá»© u
l áº¡nh
8 45
Ġg Ã´m
Ġph os
D Ã¬
Ġt Ã³
ĠS áº¯m
Ġmo usse
ĠH ern
ĠOcean bank
ngh iá»ĩn
M áº¡ch
ĠTh ree
Ġi ch
ific ate
èĩ ª
ĠG om
bun money
é »
app a
ĠHaw king
Ġc Ã¹n
Ġhoney bunmoney
i ang
l á»ĩ
p at
x oa
Ġx áº¡o
ĠL ithium
Ġç ª
Te am
9 39
R X
ĠM AN
ĠLu ka
ĠèĬ± hoa
ĠP Ã¡c
Ġ3 86
ĠInd iana
ĠMiss ouri
Ġé«ĺ cao
Ġhá» ĭ
Ġy e
ĠW ak
ĠJ AC
ĠEl vis
Ġå¤ «
ed ict
Qu Ã¡ch
ĠPen thouse
b d
IM O
V DC
g á»ĳc
v iá»ĩn
ĠN eed
ĠTh áº¯c
gi Ã¡p
79 1
ct a
f ica
l ah
ĠN illkin
al ing
ĠV CS
v ina
Ġ ace
av or
ĠSK Y
ĠU g
ĠLau n
end ar
Ġur Ãª
ĠCast le
á»ĸ I
Ġs omet
and om
8 29
ĠM áºŃn
ich t
ĠCan berra
ĠEst rogen
H TML
s elect
ĠS op
s Ã³ng
eg ie
ĠBu Ã´ng
b ol
Ġlu á»µ
Ġtur n
Ġhist amin
A u
Ġcan o
n áº¡n
âŀ ¢
ĠG ain
Ġ26 3
omat su
omon as
7 29
ì Ĺ
ĠèĲ ½
ĠRal ph
A pr
Ġt Ä©u
ĠU cr
lu ong
ĠKardashi an
L au
Q SDÄĲ
ĠT ol
ent in
ĠGo thic
ĠRuss ell
N á»ĩm
Ġkhu c
ĠMap le
om oto
ĠCapital and
ĠN ÃĵI
Ġh et
Ġm ooc
ĠS áº¥m
Ġngo t
Ð½ Ð°Ñı
ĠEx treme
³t Ãºc
Ġr ender
18 90
G X
ĠB X
Ġch ange
ĠGh á»ģnh
act ice
ĠK ick
any ol
ĠèĦ «
R Y
f iles
Ġ27 6
Ġè¶ ³tÃºc
ĠHost el
T ur
ĠTin taynguyen
ĠAp ache
ĠD IN
N Ã´
S Ã¢u
Ġd aily
ĠÄĳu Ã´
ĠM WC
Ġma z
word press
Ġåľ Ł
Ġsoc vui
Ġr ing
ĠH iguain
VN TB
9 16
b au
ĠSen do
© Ĩ
ĠB ien
ĠS Ã©t
ĠÄĲá» ľ
Ġpar acetamol
ä½ ľ
Ġqu Ä©
ĠB orn
Äĳ áº£ng
kh Ã¡m
ĠMar s
Ð¸ ÑĨ
acom in
6 22
C áº£ng
j ong
ĠA LA
ar at
tr iá»ĥn
Ġus ed
Ġglu co
M Ã¡
Ġk ÃŃt
ĠF pt
ĠBol ivia
ĠTur in
ĠChe f
N áº¥u
Ġr á»Łm
Ġxá»ĩ ch
Ġ} );
Ġnh áº¡n
ĠBuff on
r ung
å ¨
Ġtr á»ķi
Ġgi Éĳ
ĠLi oa
Ġm k
ĠH Æ¯ÆłNG
ĠH BO
vn d
Ġ01 66
Ġsc reen
K w
as ing
Ġ19 05
ĠDu ke
C all
ĠNG ÃĤN
ĠNav y
èµ Ħ
ĠN NT
6 789
to i
ĠLoc al
ĠGig abit
Maz da
Ġch Ã¢y
Ġç Ĩ
ĠLe ader
Ġs áºŃy
ĠÄĳo Ã¡
ĠMal loca
ĠSo fia
l Ã²
ĠR ud
ec ca
ĠFer dinand
ĠBrook lyn
7 27
nh iá»ħm
Ġc and
AN TV
Ġpro duct
ĠMin nesota
Len ovo
L ist
ĠH wang
ĠA van
ĠMar ble
Ġcas io
ĠParag uay
j ima
hi d
align center
á»ĥ m
ĠMal acca
Ġåº ¦
uatem ala
J apan
k at
ĠT us
hi en
ite c
5 36
à º
Ġqu eo
ĠL á»ĳc
M ov
ĠVN A
89 4
64 3
ĠVict ory
6 27
Ġ7 99
x sm
ĠM áºłNG
ĠQu Ã©t
ãĤ ¿
HN MO
Ġhydro xy
6 79
Î ·
ĠX Ã¡t
ĠJ AV
ĠDer by
S á»ĳt
ĠCai ro
Ġtr ip
ĠEsc ape
Ġå°ı tiá»ĥu
ĠSime one
ĠB PA
Ġmet al
Ng uyen
Ġ34 2
æŃ £
Ġs áº¡
ĠB erry
ĠS TC
ĠS á»Ī
ĠK K
il er
ens ive
ĠAtl antic
M os
ĠO wen
ĠDo ji
Ġ0788 78
ĠP Ãł
8 16
x Æ¡
11 11
«h á»ıa
m ich
ang er
.. âĢĿ
Ġ09 49
ly m
B Æ¡
c ial
k iáº¿p
ĠV GP
âĶ Ģ
s ud
Ġ[ /
M Ã¡c
al on
æı Ĳ
est ic
men u
Ġn á»¥c
ĠP I
ĠQ SDÄĲ
" );
L Ã´ng
Ġch Å©
ĠR ES
Ġh áº¿ch
ĠV F
A udio
ĠSer g
ern ame
l ler
ĠK il
Ġsu ch
Ġser ial
P age
Äĳ áºŃu
ĠBe er
Har ry
ĠBur berry
T ouch
Ġca ble
ĠâĢ¦ âĢ¦âĢ¦âĢ¦âĢ¦
m ot
ng ang
Ġ50 2
Ġæĭ ĪniÃªm
it Ã©
Ġçģ «há»ıa
ĠSe ed
ĠPers ie
VietPost Bank
' ',
Ġ4 33
ĠDeport ivo
4 79
Ġ14 40
AD E
ĠHI KV
ĠTu e
ĠS á»¨C
ĠBH L
ĠHar per
ĠWe i
Q aeda
ĠC able
ic ol
A sus
ĠK ron
ĠCr om
Ġpoly phenol
s Ã´ng
ĠTr áº§u
ĠY osh
ĠU TU
Ð½ Ð¾Ð³Ð¾
g Ã³p
ĠVal ue
g Ã³c
ĠGiá» ı
ĠMel ody
ĠMiss ion
Ġx Ã¬nh
oc on
4 26
c ur
ĠG overn
bl azer
Ġtal k
Rob ot
9 15
Ġb á»Ńa
w s
ĠCent ury
ĠDut y
8 48
Ġç ĩ
Eng lish
Ġcom pl
ĠLane ige
ĠV ÃĶ
ÄĲá»ģ u
Ġc oll
Ġ5 15
Ġhu Ã½t
l áºŃu
Ġqu Ã¬
ĠF iles
[...]
