{"<s>":0,"<pad>":1,"</s>":2,"<unk>":3,"<mask>":4,"!":5,"\"":6,"#":7,"$":8,"%":9,"&":10,"'":11,"(":12,")":13,"*":14,"+":15,",":16,"-":17,".":18,"/":19,"0":20,"1":21,"2":22,"3":23,"4":24,"5":25,"6":26,"7":27,"8":28,"9":29,":":30,";":31,"<":32,"=":33,">":34,"?":35,"@":36,"A":37,"B":38,"C":39,"D":40,"E":41,"F":42,"G":43,"H":44,"I":45,"J":46,"K":47,"L":48,"M":49,"N":50,"O":51,"P":52,"Q":53,"R":54,"S":55,"T":56,"U":57,"V":58,"W":59,"X":60,"Y":61,"Z":62,"[":63,"\\":64,"]":65,"^":66,"_":67,"`":68,"a":69,"b":70,"c":71,"d":72,"e":73,"f":74,"g":75,"h":76,"i":77,"j":78,"k":79,"l":80,"m":81,"n":82,"o":83,"p":84,"q":85,"r":86,"s":87,"t":88,"u":89,"v":90,"w":91,"x":92,"y":93,"z":94,"{":95,"|":96,"}":97,"~":98,"¡":99,"¢":100,"£":101,"¤":102,"¥":103,"¦":104,"§":105,"¨":106,"©":107,"ª":108,"«":109,"¬":110,"®":111,"¯":112,"°":113,"±":114,"²":115,"³":116,"´":117,"µ":118,"¶":119,"·":120,"¸":121,"¹":122,"º":123,"»":124,"¼":125,"½":126,"¾":127,"¿":128,"À":129,"Á":130,"Â":131,"Ã":132,"Ä":133,"Å":134,"Æ":135,"Ç":136,"È":137,"É":138,"Ê":139,"Ë":140,"Ì":141,"Í":142,"Î":143,"Ï":144,"Ð":145,"Ñ":146,"Ò":147,"Ó":148,"Ô":149,"Õ":150,"Ö":151,"×":152,"Ø":153,"Ù":154,"Ú":155,"Û":156,"Ü":157,"Ý":158,"Þ":159,"ß":160,"à":161,"á":162,"â":163,"ã":164,"ä":165,"å":166,"æ":167,"ç":168,"è":169,"é":170,"ê":171,"ë":172,"ì":173,"í":174,"î":175,"ï":176,"ð":177,"ñ":178,"ò":179,"ó":180,"ô":181,"õ":182,"ö":183,"÷":184,"ø":185,"ù":186,"ú":187,"û":188,"ü":189,"ý":190,"þ":191,"ÿ":192,"Ā":193,"ā":194,"Ă":195,"ă":196,"Ą":197,"ą":198,"Ć":199,"ć":200,"Ĉ":201,"ĉ":202,"Ċ":203,"ċ":204,"Č":205,"č":206,"Ď":207,"ď":208,"Đ":209,"đ":210,"Ē":211,"ē":212,"Ĕ":213,"ĕ":214,"Ė":215,"ė":216,"Ę":217,"ę":218,"Ě":219,"ě":220,"Ĝ":221,"ĝ":222,"Ğ":223,"ğ":224,"Ġ":225,"ġ":226,"Ģ":227,"ģ":228,"Ĥ":229,"ĥ":230,"Ħ":231,"ħ":232,"Ĩ":233,"ĩ":234,"Ī":235,"ī":236,"Ĭ":237,"ĭ":238,"Į":239,"į":240,"İ":241,"ı":242,"Ĳ":243,"ĳ":244,"Ĵ":245,"ĵ":246,"Ķ":247,"ķ":248,"ĸ":249,"Ĺ":250,"ĺ":251,"Ļ":252,"ļ":253,"Ľ":254,"ľ":255,"Ŀ":256,"ŀ":257,"Ł":258,"ł":259,"Ń":260,"á»":261,"áº":262,"ng":263,"Ġt":264,"Ġc":265,"ĠÄ":266,"nh":267,"ĠÄĳ":268,"Ãł":269,"Æ°":270,"Ġth":271,"Ġv":272,"Ã¡":273,"Ġl":274,"Ġh":275,"Ġch":276,"iá»":277,"Ġm":278,"Ġk":279,"Ġb":280,"Ġnh":281,"Ġtr":282,"Æ°á»":283,"Ġs":284,"áº¡":285,"Ã´":286,"áº¿":287,"Ġn":288,"Ġkh":289,"Ãª":290,"Ġg":291,"Ġd":292,"áº£":293,"Ã³":294,"á»Ļ":295,"Ġng":296,"áº¥":297,"Ġp":298,"Ġph":299,"iá»ĩ":300,"á»ĳ":301,"Ã¢":302,"Ã¡c":303,"Ã´ng":304,"Ãªn":305,"ĠT":306,"Ã¬":307,"ĠÄĳá»":308,"ĠvÃł":309,"Ġvá»":310,"Æ¡":311,"á»§":312,"áºŃ":313,"ĠlÃł":314,"Ġgi":315,"áº§":316,"qu":317,"Ġqu":318,"Ġthá»":319,"ÃŃ":320,"Ġr":321,"iáº¿":322,"Æ°á»Ŀ":323,"Ľi":324,"Æ°á»£":325,"áº¥t":326,"Ġtá»":327,"Ġx":328,"ĠcÃ³":329,"Ġcá»§":330,"Ġcá»§a":331,"áº¡i":332,"uy":333,"ĠN":334,"Äĥ":335,"Ġhá»":336,"ĠC":337,"ĠcÃ¡c":338,"Ãº":339,"ong":340,"Ã£":341,"an":342,"Ã¬nh":343,"á»¯":344,"á»ĭ":345,"áº¯":346,"Æ°á»£c":347,"âĢ":348,"iá»ģ":349,"á»±":350,"Ã¢n":351,"á»Ļt":352,"ĠH":353,"ĠÄĳÆ°á»£c":354,"ch":355,"á»¥":356,"á»©":357,"Ġcho":358,"ĠkhÃ´ng":359,"Ã²":360,"Ãły":361,"iá»ĩn":362,"ay":363,"á»Ł":364,"Ġmá»Ļt":365,"Ġtrong":366,"inh":367,"áº·":368,"Ã¹":369,"Ġvá»Ľi":370,"iÃªn":371,"áº¡n":372,"Æ°á»Ŀi":373,"ĠB":374,"áº§n":375,"Æ°á»Ľ":376,"ĠV":377,"ĠÄĲ":378,"iá»ģu":379,"ao":380,"anh":381,"Æ°Æ¡":382,"Ġngh":383,"á»¯ng":384,"ang":385,"iá»ĥ":386,"Æ°á»Ŀng":387,"Ãłnh":388,"áº£i":389,"ĠngÆ°á»Ŀi":390,"á»į":391,"Ġnhá»¯ng":392,"ĠTh":393,"Ġ1":394,"Ãłng":395,"ĠnhÆ°":396,"áº£n":397,"ĠM":398,"á»ĩ":399,"Æ°Æ¡ng":400,"ai":401,"am":402,"Ãłn":403,"áº§u":404,"Ã¢y":405,"Æ°á»Ľc":406,"Ã´i":407,"Ãłi":408,"ĠÄĳá»Ļ":409,"in":410,"Ġho":411,"áº¿n":412,"ĠÄĳá»ĥ":413,"ung":414,"Ġ2":415,"ĠÄĳÃ£":416,"ĠL":417,"Å©":418,"Ġthá»ĥ":419,"ĠS":420,"on":421,"á»ĵ":422,"áºŃn":423,"iáº¿t":424,"ĀĀ":425,"á»Ń":426,"á»ķ":427,"uá»ĳ":428,"ÃŃnh":429,"ĠP":430,"áºŃt":431,"Ġbáº¡n":432,"Ŀi":433,"Ã½":434,"áº½":435,"Äĥng":436,"áº¿t":437,"au":438,"Ã¹ng":439,"áº©":440,"ĠcÃ´ng":441,"Æ¡n":442,"ĠâĢ":443,"ĠnÃły":444,"Ġhá»į":445,"Ã¡n":446,"ĠK":447,"ĠÄĳáº¿n":448,"Ġtá»«":449,"..":450,"á»ī":451,"ĠCh":452,"Ġsá»ĳ":453,"ĠTr":454,"iá»ĩt":455,"Ġkhi":456,"Ã©":457,"Ġ(":458,"Ġlá»":459,"á»Ļi":460,"Ġmá»":461,"Ã¡t":462,"Å©ng":463,"á»©c":464,"á»ĳi":465,"Ġsáº½":466,"ĠÄĳÃ³":467,"Äĥm":468,"Ġra":469,"Ġgiá»":470,"ĠlÃłm":471,"iÃª":472,"Ġvá»ģ":473,"Ã¡ch":474,"iáº¿n":475,"áº±":476,"Ġcáº£":477,"Ã¡i":478,"Ġdá»¥":479,"Ġnhiá»ģu":480,"áº¥y":481,"ĠmÃł":482,"Ġthu":483,"Ġá»Ł":484,"ĠcÅ©ng":485,"eo":486,"áºŃp":487,"Ã¡ng":488,"ĠD":489,"iá»ĩu":490,"Ã¡o":491,"Ġtáº¡i":492,"ĠG":493,"ĠvÃło":494,"ĠNg":495,"ĠÄĳá»ĭ":496,"iá»ĩc":497,"ĠhÃłng":498,"00":499,"Ġláº¡i":500,"ĠtrÃªn":501,"Äĥn":502,"Ãºng":503,"á»ģ":504,"Ã²ng":505,"ĠPh":506,"em":507,"Ġsá»±":508,"áº«":509,"ĠnhÃł":510,"ÃŃch":511,"áº¥p":512,"Ġhiá»ĩn":513,"ĠA":514,"Ġchá»ī":515,"Ġdá»¥ng":516,"Ã¢m":517,"Ġviá»ĩc":518,"Ãło":519,"áº·c":520,"Ä©":521,"áº£o":522,"ĠNh":523,"ĠÄĳáº§u":524,"Ġbá»ĭ":525,"Æ°á»£ng":526,"ĠthÃ¬":527,"Ġpháº£i":528,"Ġnháº¥t":529,"ĠthÃłnh":530,"ĠnÃ³":531,"ĠQ":532,"Ã²n":533,"ĠnÄĥm":534,"áº¹":535,"ĠÄĳá»Ļng":536,"áº»":537,"±c":538,"áº±ng":539,"áº¯c":540,"ĠÄĳá»ĵ":541,"Ã¡p":542,"áº·t":543,"Ġhá»įc":544,"er":545,"áº¡o":546,"Ġdo":547,"uyÃªn":548,"en":549,"Ġ-":550,"âĢĿ":551,"ĠnÆ°á»Ľc":552,"Ã¢u":553,"01":554,"Ã¡nh":555,"ĠtÃ´i":556,"á»ı":557,"á»±c":558,"Ã´n":559,"Ġquy":560,"£p":561,"ĠngÃły":562,"ĥn":563,"Ġlo":564,"ĠgiÃ¡":565,"á»Ļc":566,"Ġhá»£p":567,"Ìģ":568,"Ġto":569,"Ãºc":570,"áº¡t":571,"ĀĀĀĀ":572,"ĠhÆ¡n":573,"Ġy":574,"áº©m":575,"iá»ĥm":576,"ĠchÃŃnh":577,"Ġtiáº¿":578,"Ġsáº£n":579,"á»ģn":580,"Ġ3":581,"ĠâĢľ":582,"Ġquan":583,"Æ¡i":584,"ĠÄĳi":585,"áº¥n":586,"ĠÄĳá»ĭnh":587,"ĠnÃªn":588,"ĠmÃ¬nh":589,"áº«n":590,"ĠnhÃ¢n":591,"Ġcao":592,"uyá»ĩ":593,"Ġnghiá»ĩ":594,"Ġgia":595,"áº¯t":596,"Ġráº¥t":597,"Æ°a":598,"á»ĭch":599,"ĠÄĳá»ģ":600,"ĠcÃ²n":601,"áº¿u":602,"Ġsá»Ń":603,"Ġtá»ĳ":604,"áº£ng":605,"Ġthá»Ŀi":606,"Ġkho":607,"Ġsinh":608,"Ġtheo":609,"ÄĲ":610,"ĠcÆ¡":611,"á»¥c":612,"ĠÄĳá»ĵng":613,"ĠtrÆ°á»Ŀng":614,"Ã¡y":615,"á»ĳng":616,"iá»ģn":617,"Ġdá»±":618,"Ġtháº¿":619,"Æ°á»Ł":620,"ĠcÃ¡ch":621,"Ġthá»±c":622,"iá»ĥn":623,"ĠÄĳiá»ģu":624,"Ġcon":625,"ar":626,"Ġthá»©":627,"ĠthÃ´ng":628,"á»©ng":629,"Æ°á»Łng":630,"ĠNam":631,"Ġká»":632,"ĠchÃºng":633,"áº¡nh":634,"ÌĢ":635,"Ġmá»Ľi":636,"Ġsau":637,"uáº¥t":638,"iá»ĥu":639,"ĠkhÃ¡ch":640,"Ì£":641,"uyá»":642,"ĠhÃ¬nh":643,"ħn":644,"ua":645,"im":646,"ia":647,"ĠViá»ĩt":648,"ĠcÃ¹ng":649,"á»ķi":650,"ĠnhÆ°ng":651,"ĠKh":652,"Ġlu":653,"Ġta":654,"ĠkhÃ¡c":655,"ĠtrÃ¬nh":656,"ĠviÃªn":657,"Ġcáº¥p":658,"iÃªu":659,"Ġpháº©m":660,"ĠlÃ½":661,"ĠÄĳang":662,"ĠhÃłnh":663,"ĠnÄĥng":664,"á»įn":665,"ĠlÆ°á»£ng":666,"Ġtin":667,"á»ĳc":668,"Ġvá»¥":669,"Ġqua":670,"Ġbiáº¿t":671,"Ġcháº¥t":672,"áº¡ng":673,"ĠlÃªn":674,"Ġlá»Ľ":675,"Ġcáº§n":676,"ĠphÃ¡t":677,"ĠÄĳÃ¢y":678,"uyá»ĩn":679,"á»ĩnh":680,"á»£":681,"ĠtÆ°":682,"ĠnháºŃn":683,"áº¥u":684,"Ġhay":685,"uá»ĳc":686,"Ġnghiá»ĩp":687,"áº£m":688,"Ġtá»±":689,"Ãºp":690,"á»«":691,"á»įi":692,"Ġgian":693,"ĠnÃło":694,"Ġthiáº¿t":695,"ĠvÃ¬":696,"á»ĵi":697,"ĠnÃ³i":698,"ĠtÃ¢m":699,"ĠmÃ¡y":700,"Ġtu":701,"Ã³a":702,"Ġbá»Ļ":703,"áºŃy":704,"ĠdÃ¢n":705,"Ġkáº¿t":706,"Ġxuáº¥t":707,"al":708,"Ġtáº¡o":709,"Ġbáº£o":710,"ĠtoÃłn":711,"Ãªu":712,"Ġloáº¡i":713,"Ġvá»ĭ":714,"or":715,"Ġtá»ķ":716,"Ġmáº·t":717,"á»¯a":718,"Ġkinh":719,"ĠgiÃºp":720,"Ġxe":721,"áº¯n":722,"Ġbáº±ng":723,"it":724,"Ġtá»ĳt":725,"áº¡ch":726,"ĠÄĳá»ĳi":727,"ĠtrÆ°á»Ľc":728,"...":729,"âĢ¦":730,"Ġcáº§u":731,"Ġtháº¥y":732,"Ġthá»ĭ":733,"Ãºt":734,"á»ĵng":735,"ĠtÃ¡c":736,"Ã¨":737,"ĠÄĳiá»ĥm":738,"Ġhá»Ļi":739,"Ġ4":740,"Ġtáº¿":741,"Ġngo":742,"Ġtiáº¿p":743,"Æ°á»Ľng":744,"Ġhoáº·c":745,"Ġhiá»ĩu":746,"á»Ĺ":747,"ĠÃ´ng":748,"ĠâĢĵ":749,"Ġ5":750,"Ġ201":751,"es":752,"Ġanh":753,"ĠÄĳÆ°á»Ŀng":754,"ĠtÃŃnh":755,"ĠthÆ°á»Ŀng":756,"ĠtÃ¬nh":757,"áº¹p":758,"Ãªm":759,"Ġcu":760,"ĠphÃ²ng":761,"ĠX":762,"Th":763,"ĠQu":764,"uá»ĳn":765,"Ġhá»ĩ":766,"Ġchá»©c":767,"Ġnay":768,"Ġpháº§n":769,"áº¯ng":770,"Ġquáº£":771,"Ġchá»§":772,"Ġem":773,"ĠÄĳo":774,"ĠÃ½":775,"ĠR":776,"áº£nh":777,"ĠnhiÃªn":778,"Ġbáº£n":779,"ĠdÃ¹ng":780,"ĠGi":781,"ĠphÃŃ":782,"et":783,"ĠÄĥn":784,"á»Ļng":785,"á»Ńa":786,"Æ°u":787,"Ġlá»Ľn":788,"Ġkhu":789,"Ġtá»Ľi":790,"á»įng":791,"áº¡c":792,"Ġbá»ĩnh":793,"Ġkáº¿":794,"Ġgiá»Ľi":795,"Ã³ng":796,"ĀĀĀĀĀĀĀĀ":797,"uyá»ĥn":798,"ĠÄĳáº¡i":799,"Ġgiáº£i":800,"Ġthá»©c":801,"áº³":802,"ĠphÃ¡p":803,"Ġtrá»ĭ":804,"Ġsá»ĳng":805,"ĠÄĳáº¹p":806,"iá»ħn":807,"ĠÄĳiá»ĩn":808,"Æ°ng":809,"Ġchá»įn":810,"áº©n":811,"Ġcáº£m":812,"Ġhá»ĵ":813,"ĠgÃ¬":814,"at":815,"ĠÃ":816,"Ġdá»ĭch":817,"ĠquÃ¡":818,"Ġhai":819,"Ã¬m":820,"Ġdoanh":821,"iá»ĩm":822,"Ġcá»©":823,"á»Łi":824,"ĠyÃªu":825,"Ġtriá»ĥn":826,"Ġgiá»¯":827,"Ġtrá»įng":828,"Ġtiá»ģn":829,"ĠtÄĥng":830,"Ã¡m":831,"Ġtho":832,"Ġváº«n":833,"ĠtáºŃp":834,"Ìī":835,"Ġmang":836,"ĠbÃ¡n":837,"ĠváºŃy":838,"Ġtrang":839,"Ġty":840,"ĠthÃ¡ng":841,"Ġan":842,"á»Ľ":843,"«a":844,"Ġmuá»ĳn":845,"Tr":846,"ĠHo":847,"ĠdÆ°á»":848,"el":849,"Ġmua":850,"ĠÃ¡n":851,"Ãµ":852,"áº§m":853,"Ġbiá»ĩt":854,"ĠliÃªn":855,"Ġthá»ĳng":856,"ĠI":857,"Ġchiáº¿":858,"uyá»ģn":859,"Ġáº£nh":860,"om":861,"áº³ng":862,"Ġchu":863,"Ġthá»§":864,"Ã³c":865,"á»Ŀ":866,"ĠtiÃªu":867,"ĠnghÄ©":868,"ĠthÆ°Æ¡ng":869,"Ġ\"":870,"Ġtrá»Ł":871,"ĠhÃ³a":872,"ĠÄĳá»ģu":873,"Ġtay":874,"Ġhoáº¡t":875,"á»¹":876,"Ġnhau":877,"áº§y":878,"ĠtÃłi":879,"ĠÄĳá»ķ":880,"Ġcuá»Ļc":881,"ĠcÃ´":882,"ĠQuá»ĳc":883,"áº¡m":884,"Ġráº±ng":885,"ic":886,"Ġchá»ĭ":887,"ĠtÃ¬m":888,"Ġ6":889,"Ġváº¥n":890,"Ġtrung":891,"ĠcÃ¡i":892,"á»įc":893,"Ġlá»±c":894,"ĠÄĳÆ¡n":895,"Ġláº§n":896,"Ch":897,"ĠU":898,"Ġbao":899,"ĠhoÃłn":900,"ĠphÆ°Æ¡ng":901,"uá»ĳng":902,"201":903,"Ġda":904,"ĠtrÃŃ":905,"Ġgiao":906,"Ġthi":907,"á»ħ":908,"ĠbÃªn":909,"Ġvi":910,"áºŃu":911,"ĠvÄĥn":912,"ĠÄĳá»ĭa":913,"ĠF":914,"ĠÄĳáº¥t":915,"Ġquá»ĳc":916,"ĠCÃ´ng":917,"Ĺi":918,"hi":919,"ĠbÃ¡o":920,"á»ĵn":921,"ĠTrung":922,"Ġtá»¥":923,"Ġbáº¥t":924,"as":925,"Ġchi":926,"ĠchuyÃªn":927,"Ġtiáº¿ng":928,"Ġtá»ī":929,"ĠbÃłi":930,"ĠngoÃłi":931,"Ġtham":932,"ĠthÃªm":933,"áº¯m":934,"ĠsÃ¡ng":935,"Ġliá»ĩu":936,"ĠhÃ£":937,"Ġso":938,"Ġsá»Ł":939,"ĠtÃŃch":940,"ĠchÆ°a":941,"Ġnáº¿u":942,"á»Ŀi":943,"ĠthÃ¢n":944,"ĠHÃł":945,"Ġrá»ĵi":946,"ĠE":947,"Ã©p":948,"Ġcháº¿":949,"Ġá»©ng":950,"áº¥m":951,"Ġdáº«n":952,"áº±m":953,"Ġ0":954,"Ġgiá»Ŀ":955,"Ã©t":956,"Ġtráº»":957,"ĠÄĳáº·c":958,"Ġvá»«a":959,"ĠluÃ´n":960,"ĠÄĳá»ķi":961,"ĠthÃŃch":962,"Ã²a":963,"Ġmá»įi":964,"£i":965,"Ġchuyá»ĥn":966,"Ġbu":967,"Ġsá»©c":968,"ac":969,"á»±a":970,"Ã¬n":971,"ıi":972,"ĠnÆ¡i":973,"ĠxÃ£":974,"Ġdá»±ng":975,"Ġcung":976,"Ġquyáº¿t":977,"Ġsao":978,"ro":979,"Ġhá»Ļ":980,"áº¯p":981,"ĠkhÃ³":982,"á»Ľi":983,"le":984,").":985,"ĠÄĳáº·t":986,"ĠmÃłu":987,"Ġgiáº£m":988,"Ġ7":989,"Ġngay":990,"Ġxem":991,"Ġnghá»ĩ":992,"th":993,"Ġnhá»ı":994,"ĠhÆ°á»Ľng":995,"Ġkhá»ı":996,"Ġmáº¡nh":997,"Ġná»Ļi":998,"ĠváºŃt":999,"ĠxÃ¢y":1000,"Ġ,":1001,"Ġ10":1002,"Nh":1003,"is":1004,"Ng":1005,"000":1006,"Ġtuá»ķi":1007,"Ġtá»īnh":1008,"ĠÄĳáº¡o":1009,"Ġtiáº¿t":1010,"Ġphá»¥c":1011,"Ġdá»ħ":1012,"Ġdu":1013,"Ġká»³":1014,"Ġmáº¯t":1015,"ĠthuáºŃt":1016,"iáº¿u":1017,"uyáº¿n":1018,"ĠÄĳÃ¬nh":1019,"Ġthay":1020,"Ġ8":1021,"ĠsÄ©":1022,"Ġphá»ĳ":1023,"iÃªm":1024,"áº·p":1025,"Ġlá»ĭch":1026,"Ġquyá»ģn":1027,"Ġbiáº¿n":1028,"Ġvá»±c":1029,"Ġnhanh":1030,"Ġtá»¥c":1031,"ĠgÃ¢y":1032,"Ġháº¿t":1033,"ĠphÃ¢n":1034,"Ġphá»¥":1035,"ĠlÃºc":1036,"áº«u":1037,"ĠgiÃ¡o":1038,"áº¡y":1039,"Ġthuá»Ļc":1040,"Ġbáº¯t":1041,"ĠbÃ¬nh":1042,"uyá»ħn":1043,"ĠláºŃp":1044,"ÃŃt":1045,"Ġchá»©ng":1046,"ÃŃn":1047,"ĠÄĳÆ°a":1048,"Ġdiá»ĩn":1049,"Ġca":1050,"Ã´m":1051,"ĠÄĳÃ¡nh":1052,"),":1053,"ol":1054,"Ġgáº§n":1055,"Ġlá»Ŀi":1056,"Ġkiáº¿n":1057,"uá»ĳi":1058,"Ġlá»£i":1059,"ĠvÃ´":1060,"ĠnguyÃªn":1061,"á»«ng":1062,"ĠÄĳá»§":1063,"Ġmá»Ĺi":1064,"áº·ng":1065,"ĠtiÃªn":1066,"ĠlÃ£":1067,"Ġtrá»£":1068,"ĠNá»Ļi":1069,"ĠMá»¹":1070,"ui":1071,"á»ĥ":1072,"ĠtÆ°á»£ng":1073,"ĠW":1074,"Ġtá»«ng":1075,"Ġchiáº¿c":1076,"ĠsÃ¡ch":1077,"Ġthanh":1078,"Ġná»¯a":1079,"Ġtinh":1080,"ĠbÃłn":1081,"ad":1082,"ĠcÃ¡":1083,"ĠlÃ²ng":1084,"Ġtruyá»ģn":1085,"ĠÄĳá»©":1086,"Ġkhiáº¿n":1087,"ĠtháºŃt":1088,"ing":1089,"Ġmáº¹":1090,"ĠchÆ¡i":1091,"á»ĳn":1092,"Ġnghiá»ĩm":1093,"ĠY":1094,"Ġtá»Ń":1095,"Ġbá»Łi":1096,"ĠcÄĥn":1097,"Ġkiá»ĩn":1098,"ĠÄĳa":1099,"ĠAnh":1100,"Ġcá»ķ":1101,"¡ng":1102,"Ġná»¯":1103,"Ġw":1104,"Ġvá»ĩ":1105,"iÃªng":1106,"ĠnhÃ¬n":1107,"Ġkhoáº£ng":1108,"eb":1109,"ĠNguyá»ħn":1110,"un":1111,"Ġbá»ı":1112,"Ä©nh":1113,"ĠnháºŃp":1114,"Ġmá»©c":1115,"áº£y":1116,"Ġhiá»ĥu":1117,"ĠbÃ©":1118,"Ġchung":1119,"ap":1120,"Ġ9":1121,"Ġcá»Ńa":1122,"ĠdÃłi":1123,"uyáº¿t":1124,"Ġdiá»ħn":1125,"ĠBá»Ļ":1126,"ĠÄĳá»Ŀi":1127,"Ġchiáº¿n":1128,"ĠtÃªn":1129,"Ġquáº£n":1130,"us":1131,"Ġcá»©u":1132,"Ġgiá»¯a":1133,"ĀĀĀĀĀĀĀĀĀĀĀĀĀĀĀĀ":1134,"Ġphong":1135,"Ġ19":1136,"¯u":1137,"Ġtáº¥t":1138,"Äĳ":1139,"Ġtra":1140,"Ġtriá»ĩu":1141,"Ġban":1142,"ĠquÃ½":1143,"Ġin":1144,"Ġtiáº¿n":1145,"Ġnhu":1146,"ĠÄĳá»Ļi":1147,"ĠdÆ°á»Ľi":1148,"Ġgá»įi":1149,"Ġhoa":1150,"tr":1151,"Ã¡u":1152,"Ã¹a":1153,"Ġsáº¯c":1154,"ĠO":1155,"uyá»ĩt":1156,"Ġcáº£nh":1157,"ĠchÃŃ":1158,"ĠchÃ¢n":1159,"Ġchuáº©n":1160,"Ġba":1161,"Ġmá»¥c":1162,"ot":1163,"Ġhá»¯u":1164,"id":1165,"Ġlá»±a":1166,"Ġnhiá»ĩm":1167,"Ġáº¥y":1168,"Ġai":1169,"áº¿p":1170,"Ġkháº£":1171,"il":1172,"Ġkhai":1173,"Ġtrá»±c":1174,"ĠkhÃŃ":1175,"ĠxÃ¡c":1176,"ĠÄĳáº£m":1177,"Ã£i":1178,"Ġná»ķi":1179,"ĠsÃ¡t":1180,"Ġhá»ıi":1181,"Ġchuyá»ĩn":1182,"ĠcÃ¢y":1183,"Ġngu":1184,"ĠÃ¡p":1185,"Ġkiá»ĥm":1186,"Ġká»¹":1187,"ĠÄĳáº§y":1188,"ĠcÃłng":1189,"ur":1190,"ag":1191,"Ã³n":1192,"ĠthÆ°":1193,"âĢĿ.":1194,"Ġgáº·p":1195,"Ġchá»ĳng":1196,"ĠcÃ¢u":1197,"ĠTrong":1198,"ĠnghÄ©a":1199,"Ġtiá»ĩn":1200,"Ġháº¡n":1201,"ĠVÄĥn":1202,"Ġco":1203,"ĠÄĳÃºng":1204,"á»ĵm":1205,"ĠtÆ°Æ¡ng":1206,"Ġviáº¿t":1207,"Ġthuá»ĳc":1208,"Ġyáº¿u":1209,"Ġmáº¥t":1210,"Ġtranh":1211,"Ã¢ng":1212,"Ġhá»Ĺ":1213,"ĠAn":1214,"ĠhÆ°á»Łng":1215,"Ġ.":1216,"ĠCÃ¡c":1217,"Ġsang":1218,"ĠphÃ¹":1219,"ĠÄĳáº¡t":1220,"Ġcá»ĳ":1221,"Ġláº¥y":1222,"Ġmá»Ł":1223,"ter":1224,"ĠBÃ¬nh":1225,"Ġchia":1226,"ĠbÃł":1227,"ĠkÃ½":1228,"á»ķng":1229,"ĠlÆ°u":1230,"ed":1231,"ĠrÃµ":1232,"Ãłu":1233,"ĠJ":1234,"ĠcÃ¡o":1235,"ĠgÃ³":1236,"Ġmáº¡ng":1237,"ĠÄĳoÃłn":1238,"ĠÃŃt":1239,"Ġtá»ĳi":1240,"Æ°á»£t":1241,"Ġtá»·":1242,"Ìĥ":1243,"ĠtrÆ°á»Łng":1244,"ĠcÆ°":1245,"Ph":1246,"Ġ12":1247,"oo":1248,"Ġf":1249,"ĠNáº¿u":1250,"ĠtÆ°á»Łng":1251,"iáº¿m":1252,"Ġcáº¡nh":1253,"Ġvui":1254,"ĠÄĲáº¡i":1255,"Ġgá»ĵm":1256,"Ġcá»¥":1257,"Ġnghe":1258,"ĠhÃ£y":1259,"Ġbá»ĳ":1260,"ĠÃ¢m":1261,"Ġmáº«u":1262,"Ġminh":1263,"Ġrá»Ļng":1264,"ĠMinh":1265,"Ġdá»¥c":1266,"áºŃm":1267,"Ġcá»±c":1268,"Ãºa":1269,"ĠkÃ©":1270,"ĠngÃłnh":1271,"ĠvÃ¹ng":1272,"ĠÄĳÄĥng":1273,"ĠchÆ°Æ¡ng":1274,"Ġkhoa":1275,"ph":1276,"ĠkhÃ¡":1277,"Ġdanh":1278,"áº©u":1279,"Ġdi":1280,"Ġgiáº£":1281,"Ġchá»©":1282,"Ġdung":1283,"ĠÄĳáº¥u":1284,"Ġnguá»ĵn":1285,"Ġ|":1286,"ĠluáºŃt":1287,"ĠNgh":1288,"Ġbiá»ĥu":1289,"Ġ20":1290,"ĠdÃ¹":1291,"Ġtá»ķng":1292,"ĠdÆ°á»¡ng":1293,"ĠriÃªng":1294,"ĠÄĳá»Ļc":1295,"Ġtháº§n":1296,"ĠváºŃn":1297,"Ã³m":1298,"ĠÄĲá»©c":1299,"Ġå":1300,"ho":1301,"Ġtráº£":1302,"ĠbÃ³ng":1303,"Ġbay":1304,"ĠtÃŃn":1305,"įng":1306,"Ġchá»ĭu":1307,"Ġthoáº¡i":1308,"ĠTP":1309,"Ãºi":1310,"ine":1311,"oÃłi":1312,"ĠphÃŃa":1313,"Ġtráº¡ng":1314,"Ġlá»Ľp":1315,"Ãłm":1316,"Ġ:":1317,"Ġxuá»ĳng":1318,"10":1319,"ĠNhÃł":1320,"ĠdÃ²ng":1321,"um":1322,"Ġnam":1323,"ĠquÃ¢n":1324,"os":1325,"ĠTuy":1326,"ĠmÃ´i":1327,"ĠmÃ´":1328,"á»Ĺi":1329,"one":1330,"Ġcháº¯c":1331,"Ġxá»Ń":1332,"ĠtoÃ¡n":1333,"ĠHá»Ļi":1334,"ĠÄĳÃ´":1335,"ĠlÃ¢u":1336,"Ġkhá»ıe":1337,"ĠdÃłnh":1338,"Ġbiá»ĥn":1339,"ĠÄĳÃ¡ng":1340,"....":1341,"ĠÄĳÃ¢u":1342,"Ġká»ĥ":1343,"Æ°Æ¡i":1344,"iá»ĩp":1345,"Ġphá»§":1346,"Ġcuá»ĳi":1347,"ĠnÃ¢ng":1348,"Ġhoáº¡ch":1349,"Trong":1350,"áºµ":1351,"ĠÄĳau":1352,"Ġxin":1353,"Ġxa":1354,"Ġphim":1355,"Ġdáº¡ng":1356,"Ġpháº¡m":1357,"á»³":1358,"Ġ15":1359,"Ã¨n":1360,"Ġgh":1361,"ĠChÃŃnh":1362,"Ġviá»ĩn":1363,"ĠThanh":1364,"ĠÃ¡o":1365,"Ġtháº¥t":1366,"Ġlá»ĩ":1367,"ĠÄĳÃ¡":1368,"Ġuá»ĳng":1369,"Ġkháº©u":1370,"Ġnáº±m":1371,"ĳng":1372,"ĠÆ°u":1373,"ĠÄĳoáº¡n":1374,"áº¡p":1375,"Ġnghá»ĭ":1376,"Ġráº»":1377,"Ġthiá»ĩn":1378,"ĠNháºŃt":1379,"lo":1380,"ĠÃŃch":1381,"ĠsÆ°":1382,"á»Ńi":1383,"áº©y":1384,"ĠvÃłng":1385,"ĠNhÆ°ng":1386,"Ġtá»©":1387,"ĠmÃ³n":1388,"Ġo":1389,"á»§y":1390,"ĠÄĲÃ´ng":1391,"ĠphÃ©p":1392,"Æ°á»Ľi":1393,"Ġvá»ĳn":1394,"11":1395,"ĠsÆ¡":1396,"Ġhuyá»ĩn":1397,"ĠgÃ¡i":1398,"Ġweb":1399,"ĠCÃ³":1400,"á»ĭp":1401,"Ã¹i":1402,"ĠhÃ²a":1403,"Ġchá»¯a":1404,"ND":1405,"Ã£n":1406,"áº§ng":1407,"ĠbÆ°á»Ľc":1408,"ĠtrÃ²":1409,"ĠÄĳÃ´i":1410,"ĠnhÃ©":1411,"ĠtráºŃn":1412,"ĠBáº¡n":1413,"ĠchÃº":1414,"Ġ2018":1415,"Ġnhiá»ĩt":1416,"ĠkÃŃch":1417,"Ġgiá»ĳng":1418,"Ġtráº¯ng":1419,"ĠMá»Ļt":1420,"ĠmÃ´n":1421,"Ġsáº»":1422,"Kh":1423,"uÃ´i":1424,"ĠBáº¯c":1425,"Ġxanh":1426,"ĠSau":1427,"Ġtáº£i":1428,"ĠKhi":1429,"ĠthÆ¡":1430,"Ġtuyá»ĩt":1431,"ĠgiÃ¡c":1432,"ĠbÃ¡c":1433,"ĠvÃ²ng":1434,"Ġcá»Ļng":1435,"ĠÄĳÃłn":1436,"Ġtá»ĭ":1437,"Ġngá»§":1438,"Ã£y":1439,"NG":1440,"ĠThÃłnh":1441,"20":1442,"Ġthiáº¿u":1443,"Ġlao":1444,"ĠÄĳÃ´ng":1445,"ĠsÃ¢n":1446,"ĠhÃºt":1447,"Ġ30":1448,"Ġhá»ĵi":1449,"ĠÄĳÃ³ng":1450,"Ġnhá»Ľ":1451,"ĠvÃłi":1452,"ĠÄĳÃ¡p":1453,"Ġ200":1454,"Ķng":1455,"com":1456,"ion":1457,"uÃ¢n":1458,"ĠhÃ´m":1459,"ĠnghiÃªn":1460,"Ġngoáº¡i":1461,"Ġgiáº£n":1462,"âĢĿ,":1463,"iv":1464,"ĠthuÃª":1465,"ĠHá»ĵ":1466,"iá»ģm":1467,"ĠtrÃ¡i":1468,"Ġæ":1469,"Ġphá»ĳi":1470,"Ġkhá»ıi":1471,"re":1472,"Theo":1473,"ĠÄĳá»į":1474,"Ġná»ģn":1475,"ĠluáºŃn":1476,"ĠdÃłng":1477,"Ġváº»":1478,"Ġcháº³ng":1479,"«ng":1480,"ģm":1481,"á»ĳt":1482,"Ġtrá»Ŀi":1483,"ĠVá»Ľi":1484,"ĠphÃ¡":1485,"Ġcháº¡y":1486,"CM":1487,"Ġtáº§ng":1488,"Ġtá»©c":1489,"ite":1490,"ĠTÃ¢y":1491,"Ġá»":1492,"Ġnháº¡c":1493,"Ġgá»Ńi":1494,"Ġ/":1495,"ĠKhÃ´ng":1496,"Ġla":1497,"ĠkhÄĥn":1498,"Ġcháº¿t":1499,"ĠmÃ¹a":1500,"ĠNhá»¯ng":1501,"Ġnháº±m":1502,"and":1503,"ig":1504,"Ġkiáº¿m":1505,"Ġbá»ķ":1506,"ĠÄĳá»įc":1507,"ĠsÃ¢u":1508,"ut":1509,"ĠTo":1510,"Ġláº¡nh":1511,"ĠIn":1512,"Ġkhoáº£n":1513,"Ġ11":1514,"ĠÄĳá»©ng":1515,"âĢľ":1516,"ĠgÃ³p":1517,"ent":1518,"Ġmá»ģm":1519,"ĠTÃ´i":1520,"ĠhÃ£ng":1521,"Ġnháº¹":1522,"ĠlÃ£nh":1523,"ĠnhÃ³m":1524,"ĠDo":1525,"ĠBan":1526,"Ġsuáº¥t":1527,"ĠNgÆ°á»Ŀi":1528,"Ġmong":1529,"ĠÃģ":1530,"Ġdáº§u":1531,"ĠÃ´":1532,"Ġvá»įng":1533,"ĠthuáºŃn":1534,"Ġchiá»ģu":1535,"Ġsá»Ńa":1536,"Ġghi":1537,"ĠxÃ©t":1538,"ĠphÃºt":1539,"iá»ħ":1540,"ĠHoa":1541,"ĠÄĲÃ¢y":1542,"Ġtuáº§n":1543,"ĠcÃ¢n":1544,"ĠLong":1545,"ĠcáºŃp":1546,"Ġgiáº¥y":1547,"ame":1548,"ĠkÃŃnh":1549,"ĠháºŃu":1550,"ĠVÃ¬":1551,"ĠDÆ°Æ¡ng":1552,"Ġchá»ĵng":1553,"ĠÄĲiá»ģu":1554,"ĠThu":1555,"ĠHáº£i":1556,"ĠtrÃ¡ch":1557,"ĠHoÃłng":1558,"Ġsáº¡ch":1559,"ĠâĢ¢":1560,"Ġmiá»ħn":1561,"ĠSÆ¡n":1562,"ĠTá»ķng":1563,"âĢĵ":1564,"ĠtrÃ¡nh":1565,"Ġlá»ħ":1566,"ĀĀĀĀĀĀĀĀĀĀĀĀĀĀĀĀĀĀĀĀĀĀĀĀĀĀĀĀĀĀĀĀ":1567,"up":1568,"ĠThá»ĭ":1569,"Ġcáº£i":1570,"Ġvá»£":1571,"ĠquáºŃn":1572,"ĠÄĳÃło":1573,"Ġmáº¡i":1574,"Ġtuyáº¿n":1575,"ĠThÃ¡i":1576,"ĠChÃºa":1577,"ĠÄĳem":1578,"Ġtá»ĭch":1579,"Ġmá»¹":1580,"ĠchÃ³ng":1581,"ĠChá»§":1582,"ĠhÃ¡t":1583,"ec":1584,"19":1585,"ĠlÄ©nh":1586,"ĠkhÃ¡m":1587,"Ã³i":1588,"Ġi":1589,"Ġtuyá»ĥn":1590,"Ġnguy":1591,"ĠtáºŃn":1592,"ĠthiÃªn":1593,"ĠÄĲá»ĵng":1594,"Ġchá»Ĺ":1595,"Ġcam":1596,"Ġnghá»ģ":1597,"ĠVi":1598,"Ġháº¥p":1599,"ĠkÃ©o":1600,"Ġtháº¥p":1601,"Ġ100":1602,"ĠTrÆ°á»Ŀng":1603,"Ġpháº£n":1604,"12":1605,"Ġhiá»ĥm":1606,"á»Ļn":1607,"ĠmÃłn":1608,"ĠmÃ¡i":1609,"ak":1610,"ĠmÃ¡u":1611,"Ġtháº©m":1612,"2018":1613,"ĠÃ¡nh":1614,"ĠnÃ³ng":1615,"uá»ĳt":1616,"Ġduy":1617,"ĠnÃłng":1618,"Ġsá»£":1619,"Ġnghá»ī":1620,"Ġchá»īnh":1621,"Vá»Ľi":1622,"50":1623,"á»¡":1624,"Ġxáº£y":1625,"Ġá»ķ":1626,"ĠkhÃ³a":1627,"ĠngÃ¢n":1628,"ul":1629,"ĠÄĳáº£o":1630,"Ġquanh":1631,"Ġkháº£o":1632,"ĠxuyÃªn":1633,"Ġháº¡i":1634,"ĠchÄĥm":1635,"ĠthÃ´i":1636,"ĠPháºŃt":1637,"Ġthá»§y":1638,"Ġná»ĳi":1639,"ĠhÆ¡i":1640,"Ġlinh":1641,"Ġ18":1642,"Ã¨o":1643,"Ġbuá»ķi":1644,"Ġcháº¯n":1645,"Ġa":1646,"ĠdÃ¢y":1647,"ĠchÃºt":1648,"ĠUS":1649,"ĠBáº£n":1650,"ĠkÃª":1651,"ĠthÃ¡i":1652,"line":1653,"Ã¨m":1654,"Ġtháº¯ng":1655,"Ġmáº¯c":1656,"CÃ¡c":1657,"Ġtai":1658,"ip":1659,"ĠnÃ´ng":1660,"ir":1661,"á»Ľm":1662,"Ġkiá»ĥu":1663,"ĠtÃ¹":1664,"ĠVÃł":1665,"ex":1666,"ĠngÃ´i":1667,"Ġhuy":1668,"ĠÄĳÃªm":1669,"Ġtráº£i":1670,"ĠtÃ´":1671,"Ġnhá»Ŀ":1672,"Ġháº¡":1673,"ĠtÆ°á»Ľng":1674,"Ġä":1675,"ĠÄĳá»ı":1676,"ĠxÃºc":1677,"Ġmay":1678,"Ġvai":1679,"ĠTH":1680,"ĠPhÃ¡p":1681,"ĠHÃłn":1682,"Ġgá»Ĺ":1683,"Ġdáº¡y":1684,"Ġuy":1685,"--":1686,"Ġniá»ĩm":1687,"Ġthá»Ń":1688,"ĠrÄĥng":1689,"Ġ...":1690,"ĠthÃº":1691,"ĠnháºŃt":1692,"ĠLu":1693,"ĠmÃ£":1694,"to":1695,"áº·n":1696,"Ġcháº¥p":1697,"ew":1698,"Ġdáº¥u":1699,"ĠTráº§n":1700,"á»«a":1701,"Ġngá»ĵi":1702,"Ġtrai":1703,"ĠThiÃªn":1704,"Ġ09":1705,"ĠPhÃº":1706,"Má»Ļt":1707,"ĠcÆ°á»Ŀng":1708,"ĠvÆ°á»£t":1709,"Ġ2017":1710,"Náº¿u":1711,"Ġsá»Ľm":1712,"Ġká»·":1713,"ĠtrÃ¬":1714,"Ġtiá»ĥu":1715,"ĠbÃ¡nh":1716,"Ġmáº·c":1717,"Ġláº¡c":1718,"ĠthÆ°á»Łng":1719,"30":1720,"Ġchá»¯":1721,"Ġsuy":1722,"ĠmáºŃt":1723,"Ġkhá»Łi":1724,"ĠlÃ¡":1725,"Ġtháº£o":1726,"ĠsiÃªu":1727,"NH":1728,"Ġchá»©a":1729,"Ġmiá»ģn":1730,"ıa":1731,"ob":1732,"Ġkháº¯c":1733,"Ġquáº§n":1734,"Ġháº¯n":1735,"Å©i":1736,"av":1737,"ĠChÃºng":1738,"Ġsai":1739,"Ġáº¥n":1740,"áºµn":1741,"ĠLÃª":1742,"Ġma":1743,"Ġnáº·ng":1744,"ĠnuÃ´i":1745,"Ã£o":1746,"oa":1747,"Ġva":1748,"á»·":1749,"Ġbáº¿p":1750,"ĠÄĳáº©y":1751,"Ġphá»ķ":1752,"iá»ħm":1753,"Ġ16":1754,"Ġnghi":1755,"ĠÃĤ":1756,"ĠphiÃªn":1757,"Ġquen":1758,"Ġbá»¥":1759,"Ġthuáº¿":1760,"iáº¿p":1761,"Ġç":1762,"ĠChÃŃ":1763,"Ġsim":1764,"site":1765,"Ã²i":1766,"art":1767,"kh":1768,"Ġláº½":1769,"Ġè":1770,"Ġtá»ĳc":1771,"Ġquay":1772,"ĠcÅ©":1773,"Ġngon":1774,"ĠNgoÃłi":1775,"Ġcáº¥u":1776,"Ġthai":1777,"ĠChÃ¢u":1778,"vn":1779,"TT":1780,"á»įt":1781,"Ãµi":1782,"Ġtáº¥n":1783,"ĠThá»§":1784,"ĠÄĳÃ¨n":1785,"Ġcha":1786,"Sau":1787,"ĠLiÃªn":1788,"ĠtÃ³c":1789,"á»§ng":1790,"ĠhÆ°Æ¡ng":1791,"Ġliá»ģn":1792,"ĠTá»«":1793,"Ġlá»Ļ":1794,"Ġgiai":1795,"Ġtáº·ng":1796,"ĠviÃªm":1797,"ĠniÃªn":1798,"Ġ24":1799,"ĠÄĳÃŃch":1800,"HCM":1801,"ĠTÃ¢n":1802,"ĠngÄĥn":1803,"Ġsáºµn":1804,"ıng":1805,"Ġluyá»ĩn":1806,"Ġpha":1807,"ĠthÄĥm":1808,"Ġgame":1809,"ĠsÃ³c":1810,"ub":1811,"ĠcÆ°á»Ŀi":1812,"Ġ14":1813,"Ġmáº¥y":1814,"ĠcÃ¡n":1815,"ĠphÃª":1816,"ĠTháº¿":1817,"ĠgiÃ¡m":1818,"ĠTheo":1819,"ĠÄĳen":1820,"ĠhÃłi":1821,"Báº¡n":1822,"Ġkia":1823,"iáº¿ng":1824,"Ġsung":1825,"BND":1826,"Ġ[":1827,"Khi":1828,"ĠThÃ´ng":1829,"ĠquÃ¡n":1830,"Ġsá»¯a":1831,"Ġtá»Ļi":1832,"á»ĭnh":1833,"Ġngá»¯":1834,"ĠdÃ¡ng":1835,"ĠtÆ°Æ¡i":1836,"Ġlá»Ĺi":1837,"Ġthiá»ĩu":1838,"od":1839,"ĠthÃºc":1840,"ĠbáºŃt":1841,"ĠLan":1842,"te":1843,"Ġá»ķn":1844,"Ġ13":1845,"\".":1846,"Ġthao":1847,"ĠUSD":1848,"ab":1849,"ĠtrÃºc":1850,"ĠÄĲÃł":1851,"Ġthá»ĭt":1852,"ĠÄĳá»ĳc":1853,"Ġáº":1854,"oc":1855,"Ġ50":1856,"ĠÄĲáº£ng":1857,"ĠHÃ²a":1858,"Ġcáº¯t":1859,"ook":1860,"Ġxáº¿p":1861,"ĠÃĶng":1862,"Ġquáº£ng":1863,"Ġnáº¡n":1864,"ark":1865,"ess":1866,"ĠÂ":1867,"Ġtá»Ļc":1868,"Ġnhiá»ħm":1869,"ie":1870,"ĠcáºŃu":1871,"ĠÄĲá»ĥ":1872,"Ġngá»Ŀ":1873,"Ġtuy":1874,"ĠTu":1875,"ĠGiang":1876,"Ġtrao":1877,"ĠtÃłu":1878,"ĠNgá»įc":1879,"ĠPhÃ²ng":1880,"á»ĩt":1881,"Ġbáº£ng":1882,"Ġgá»ĳc":1883,"Ġláº¯p":1884,"Ġmá»ĳi":1885,"á»£i":1886,"ard":1887,"Ġbá»©c":1888,"ĠbÃły":1889,"ĠQuáº£ng":1890,"Ġtáº§m":1891,"Ġtim":1892,"Ġtháº³ng":1893,"ĠyÃªn":1894,"Ġsuá»ĳt":1895,"ĠsÃ´ng":1896,"ĠngÅ©":1897,"ĠcÃ¡nh":1898,"ĠXuÃ¢n":1899,"oi":1900,"Ġcoi":1901,"ĠphÃºc":1902,"Ġkim":1903,"Ġdáº§n":1904,"ĠGiÃ¡o":1905,"Ġháº¡nh":1906,"ĠmÃ¡t":1907,"Ġmu":1908,"if":1909,"ãĢ":1910,"Ġbá»ģn":1911,"áº¹n":1912,"ĠKá»³":1913,"Ġháº¡t":1914,"Nhá»¯ng":1915,"ĠNguyÃªn":1916,"Ġchá»Ŀ":1917,"Ġcá»Ń":1918,"Ġkáº»":1919,"Ġwebsite":1920,"âĢĻ":1921,"Ġláº¡":1922,"Ã³t":1923,"ĠchÃ¢u":1924,"ĠBáº£o":1925,"ĠkhÃ´":1926,"Ġkiá»ĩm":1927,"ĠHÃ£y":1928,"Ġchiáº¿u":1929,"ĠnghiÃªm":1930,"Ġ+":1931,"ĠÄĳÃ³n":1932,"ĠSá»Ł":1933,"á»¥p":1934,"Ġdá»¯":1935,"ĠnÃ©t":1936,"ĠmÆ¡":1937,"ail":1938,"Ġthá»¥":1939,"Ġkhá»ĳi":1940,"ĠLo":1941,"Ġcáº§m":1942,"ore":1943,"Ġmáº¡ch":1944,"ĠGia":1945,"Gi":1946,"ĠpháºŃn":1947,"Ġ17":1948,"Æ°á»Ŀn":1949,".âĢĿ":1950,"Ġvá»¯":1951,"ĠCon":1952,"Ġ&":1953,"ĠKinh":1954,"Ġsáº¡n":1955,"TÃ´i":1956,"CÃ³":1957,"Ġxu":1958,"st":1959,"200":1960,"Ġxong":1961,"ĠHu":1962,"Ġ25":1963,"ĠÄĳáº³ng":1964,"ĠvÃ©":1965,"ĠsoÃ¡t":1966,"net":1967,"ĠÆ¡n":1968,"ĠChá»ī":1969,"ÄĲá»ĥ":1970,"ĠKim":1971,"iá»ĩng":1972,"ĠtÃ´n":1973,"ĠUBND":1974,"Ġngáº¯n":1975,"24":1976,"Ġlai":1977,"Ġsáº¯p":1978,"Ġkhá»ķ":1979,"Ġhá»©":1980,"Ġhá»ĵng":1981,"ĠcÃł":1982,"Ġtrá»ĵng":1983,"KhÃ´ng":1984,"Ġgáº¯n":1985,"ĠViet":1986,"est":1987,"ĠkÃ©m":1988,"ĠNga":1989,"ĠmÅ©i":1990,"Ġvá»Ŀi":1991,"Ġtá»ĵ":1992,"ĠbÃło":1993,"ĠsÃłn":1994,"ĠlÆ°Æ¡ng":1995,"\",":1996,"Ġbáº§u":1997,"Ġtháº§y":1998,"Ġ2016":1999,"ĠkÃ¨m":2000,"ĠâĢ¦":2001,"ĠPhÆ°Æ¡ng":2002,"Ġmiá»ĩng":2003,"ĠNinh":2004,"ĠTrang":2005,"Ġxo":2006,"Ġhuyáº¿t":2007,"ĠbÃŃ":2008,"88":2009,"Ġvá»¯ng":2010,"co":2011,"Æ°á»¡ng":2012,"ity":2013,"ep":2014,"Ġláº¯m":2015,"Ġtáº¯c":2016,"ĠdÆ°Æ¡ng":2017,"ĠmÃ£i":2018,"Ġdá»ĭ":2019,"oÃłn":2020,"Ġchuyáº¿n":2021,"ĠÄĳá»«ng":2022,"ĠtÃ¹y":2023,"ĠQuáºŃn":2024,"ĠgiÃ³":2025,"Ġxung":2026,"Ġcuá»ĳn":2027,"ĠPhÃ³":2028,"Ġniá»ģm":2029,"Æ°á»£u":2030,"ĠthÆ°á»Ľc":2031,"ĠtÃ¡i":2032,"Ġháº¡ng":2033,"ĠlÃłn":2034,"ĠQuÃ½":2035,"ĠbiÃªn":2036,"ĠtÃºi":2037,"Ġláº¯ng":2038,"Ġrá»Ńa":2039,"Ġthoáº£i":2040,"ĠrÃłng":2041,"ĠÄĳÃ¡o":2042,"ĠhÃ´n":2043,"ack":2044,"Ġtáº¥m":2045,"ĠlÃłnh":2046,"ĠnÃºi":2047,"Ġtruy":2048,"ãĢĤ":2049,"Ġáº¥m":2050,"ik":2051,"Ġchiáº¿m":2052,"ĠZ":2053,"Ġgháº¿":2054,"Ġtá»§":2055,"Ġthá»«a":2056,"Ġháº§u":2057,"ĠgÃ³i":2058,"PT":2059,"ov":2060,"Ġkhuyáº¿n":2061,"Ġthuyáº¿t":2062,"era":2063,"ers":2064,"ĠmÃª":2065,"60":2066,"ra":2067,"ĠtuyÃªn":2068,"ĠquÃł":2069,"Ġgiáº£ng":2070,"ĠQuang":2071,"ĠthÃŃ":2072,"á»©t":2073,"ĠÄĳá»©c":2074,"áºµng":2075,"ĠÆ°á»Ľc":2076,"Ġáº©m":2077,"ĠLinh":2078,"ĠChi":2079,"Ä©a":2080,"Ġnáº¯m":2081,"ĠLuáºŃt":2082,"á»¥n":2083,"Ġnháº¯c":2084,"Ġon":2085,"NgÃły":2086,"ĠthoÃ¡t":2087,"ĠmÆ°a":2088,"do":2089,"Ġá»§y":2090,"ĠHá»ĵng":2091,"ĠtÆ°á»Ŀng":2092,"ĠÃĤu":2093,"ĠBa":2094,"gi":2095,"15":2096,"Qu":2097,"ĠãĢĤ":2098,"Ġcá»©ng":2099,"ist":2100,"25":2101,"ax":2102,"Ġxáº¥u":2103,"Ġphi":2104,"áºŃc":2105,"ĠdÃły":2106,"ĠtháºŃm":2107,"Ġchá»£":2108,"ĠVÅ©":2109,"NgoÃłi":2110,"ĠCao":2111,"Ġbuá»Ļc":2112,"Ãģ":2113,"ĠkhÃºc":2114,"ĠrÆ°á»£u":2115,"2017":2116,"Ġtá»ĵn":2117,"Ġnáº¯ng":2118,"ĠcáºŃn":2119,"ĠtháºŃn":2120,"ĠHiá»ĩn":2121,"ĠtrÃ¹ng":2122,"ĠhoÃ¡":2123,"Ġlá»Ńa":2124,"CÃ´ng":2125,"Ġdá»±a":2126,"ĠPhong":2127,"Ġhá»įp":2128,"Ġtáº¯m":2129,"ile":2130,"ill":2131,"ort":2132,"ĠÄĳáº¥y":2133,"ĠchÃ¡y":2134,"á»Ľp":2135,"ĠlÃłng":2136,"Ġlá»įc":2137,"ĠchÃ¡u":2138,"Ġha":2139,"ĠGiá»":2140,"Ġnha":2141,"23":2142,"Ġtháº»":2143,"Ġchá»¥p":2144,"ĠnhiÃªu":2145,"ĠvÅ©":2146,"ĠTÃłi":2147,"Ġkháº³ng":2148,"ĠEm":2149,"á»Ļp":2150,"Ã©o":2151,"Ġbáº¡c":2152,"Æ¯":2153,"ĠbáºŃc":2154,"Ġcan":2155,"ain":2156,"ĠNhÃ¢n":2157,"ĠNgÃły":2158,"ĠtÃ²a":2159,"ass":2160,"ĠsÆ¡n":2161,"Ġnháº¥n":2162,"Ġly":2163,"Ġká»ĭp":2164,"ĠgiÃłu":2165,"Ġvay":2166,"ĠCho":2167,"ĠÄĳoÃ¡n":2168,"Ġmáº½":2169,"ĠÄĲÃ³":2170,"áº³n":2171,"ĠmÃ¹i":2172,"ĠVN":2173,"ĠsÃ³ng":2174,"ĠgÃł":2175,"ĀĀĀĀĀĀĀĀĀĀĀĀĀĀĀĀĀĀĀĀĀĀĀĀĀĀĀĀĀĀĀĀĀĀĀĀĀĀĀĀĀĀĀĀĀĀĀĀĀĀĀĀĀĀĀĀĀĀĀĀĀĀĀĀ":2176,"ev":2177,"Ġrau":2178,",âĢ¦":2179,"Ġhá»įa":2180,"ĠlÆ°á»£c":2181,"Ġé":2182,"Ġbiá»ĩn":2183,"ĠNhÆ°":2184,"ĠTáº¡i":2185,"TC":2186,"ĠphÃ³ng":2187,"Ġngáº¡i":2188,"Ġninh":2189,"ĠNáºµng":2190,"Ġsong":2191,"99":2192,"Ġháº£o":2193,"ff":2194,"ĠlÃ¡i":2195,"ord":2196,"Ġtá»ı":2197,"Ġnguyá»ĩn":2198,"ĠGiÃ¡":2199,"ĠtrÆ°ng":2200,"ĠPháº¡m":2201,"VN":2202,"18":2203,"Ġtá»Ŀ":2204,"ĠÄĳá»¡":2205,"ĠgÃ³c":2206,"ĠViá»ĩc":2207,"Ġtri":2208,"Ġmá»Ŀi":2209,"ĠÄĳÆ°Æ¡ng":2210,"ĠhoÃłng":2211,"ĠKhu":2212,"ĠDu":2213,"Ġru":2214,"amin":2215,"ĉĊ":2216,"Ġrá»«ng":2217,"ĠchÃłng":2218,"ĠTá»ķ":2219,"ĠLÃ¢m":2220,"Ġphiáº¿u":2221,"Ġ40":2222,"ĠÄĳÃª":2223,"Ġkháº¯p":2224,"Tuy":2225,"ĠLÃ½":2226,"ĠMÃ¡y":2227,"ĠrÃºt":2228,"ick":2229,"ĠbÃ¨":2230,"ly":2231,"Ġnáº¥u":2232,"ĠdÃµi":2233,"ĠkÃ¬":2234,"Ġtruyá»ĩn":2235,"ĠthÃ¡c":2236,"ĠSÃłi":2237,"ĠÄĳá»Ļt":2238,"á»ĭa":2239,"ĠÄĳá»©a":2240,"ĠcÆ°á»Ľi":2241,"Ġgáº¯ng":2242,"Ġtrá»«":2243,"á»Ľt":2244,"Ġgá»įn":2245,"ÃĢ":2246,"14":2247,"Ġliá»ĩt":2248,"ĠTÆ°":2249,"ĠÆ°Æ¡ng":2250,"Ġhu":2251,"á»īnh":2252,"Ġdá»ĭp":2253,"Ġ2015":2254,"ĠquÃªn":2255,"Ġu":2256,"io":2257,"Ġbá»Ļt":2258,"Ġtrá»¥":2259,"ĠTáºŃp":2260,"Ġxá»©":2261,"Ġváº¿t":2262,"ĠSt":2263,"Ġháº³n":2264,"Ġcá»¥c":2265,"ĠkhÃ¡ng":2266,"Ġláº«n":2267,"ĠtrÄĥm":2268,"ou":2269,"........":2270,"Ġsá»ķ":2271,"17":2272,"ĠsÃłng":2273,"Ġháº£i":2274,"Ġá»ĳng":2275,"ĠCÃ´":2276,"16":2277,"ĠGiÃ¡m":2278,"ĠÄĲáº·c":2279,"ox":2280,"Ġcháº·t":2281,"ce":2282,"ĠBÃł":2283,"age":2284,"Ġhá»ģ":2285,"Ġbuá»ĵn":2286,"ĠNha":2287,"ht":2288,"ĠxÆ°Æ¡ng":2289,"ĠHá»į":2290,"Ġmá»¥n":2291,"ĠlÆ°ng":2292,"ĠkhuÃ´n":2293,"áº¥c":2294,"Tá»«":2295,"Æ¡m":2296,"ĠngÆ°á»£c":2297,"ĠrÆ¡i":2298,"ĠNghá»ĭ":2299,"ĠngÃ´n":2300,"Ġnhá»±a":2301,"80":2302,"Ã©n":2303,"ĠlÃ´ng":2304,"ĠvÆ°á»Ŀn":2305,"ĠThÃ¡nh":2306,"ĠThÆ°Æ¡ng":2307,"Ġhá»Ļp":2308,"Ġbá»¯a":2309,"ĠGÃ²n":2310,"Ġe":2311,"ate":2312,"Ġbá»¥ng":2313,"Ġtáº¡p":2314,"Ġung":2315,"Hiá»ĩn":2316,"ĠÄĲoÃłn":2317,"Ġthá»Ŀ":2318,"ĠdÆ°":2319,"ĠÄĳá»£i":2320,"ĠVáºŃy":2321,"Ġgáº¥p":2322,"ĠthÃ´n":2323,"13":2324,"ĠBÃªn":2325,"Ġsu":2326,"ĠÄĳÃ¡m":2327,"ĠNÃ³":2328,"Ġkhung":2329,"ĠHá»įc":2330,"īnh":2331,"ĠYÃªn":2332,"ĠÂ»":2333,"ĠLa":2334,"ĠÄĳÃ£i":2335,"ĠNÄĥm":2336,"ud":2337,"ĠSáº£n":2338,"Ġsá»©":2339,"Ġsa":2340,"ÃĶng":2341,"Ġ22":2342,"Ġbá»ģ":2343,"ĠquÃª":2344,"Ġthe":2345,"ĠDá»±":2346,"pp":2347,"ĠÄĳÃ²i":2348,"ĠAr":2349,"Ġtáº£":2350,"ĠbÃ¢y":2351,"Ġkhiá»ĥn":2352,"ĠNgÃłi":2353,"ue":2354,"Ġï":2355,"ĠThe":2356,"cm":2357,"Ġmá»«ng":2358,"Ġdinh":2359,"ĠCÃ²n":2360,"Ġloáº¡t":2361,"Ġcháº£y":2362,"ĠcháºŃm":2363,"ĠMai":2364,"Ġthang":2365,"ell":2366,"Ġtáº¡m":2367,"Ġtrá»©ng":2368,"Ġpháº¡t":2369,"ĠloÃłi":2370,"¦y":2371,"Ġlan":2372,"Ġhy":2373,"ĠAl":2374,"Ġbinh":2375,"ĠthÆ¡m":2376,"Ġtháº£i":2377,"nam":2378,"ĠPhÃ¡t":2379,"ĠÄĲiá»ĩn":2380,"Ġxinh":2381,"Ġthá»ıa":2382,"ÄĲT":2383,"á»©a":2384,"Ġ=":2385,"ĠHÆ°ng":2386,"Ġ01":2387,"Ġngang":2388,"Ġlá»ĳi":2389,"ĠVin":2390,"Táº¡i":2391,"ĠHai":2392,"ĠKhoa":2393,"ĠÄĳiá»ĥn":2394,"ĠÐ":2395,"ĠhÃłm":2396,"Ġkem":2397,"ĠCá»Ļng":2398,"Phone":2399,"uá»ķi":2400,"ĠCH":2401,"ĠlÆ°á»£t":2402,"Ġrá»ĳi":2403,"ĠxÆ°a":2404,"ĠhÃ¨":2405,"Ġná»£":2406,"Ġngá»įt":2407,"Ġtha":2408,"ĠlÃ£o":2409,"ternet":2410,"ĠcÆ¡m":2411,"ÄĲÃ¢y":2412,"ĠcÃłi":2413,"Ġbi":2414,"ĠÄĲÆ°á»Ŀng":2415,"Ġá»ŀ":2416,"ĠÄĲÃ¬nh":2417,"Ġthá»±":2418,"ĠcÄĥng":2419,"ĠThiáº¿t":2420,"NgÆ°á»Ŀi":2421,"ĠLe":2422,"ĠhÃło":2423,"Ġná»Ńa":2424,"ĠnghÃ¨o":2425,"á»ĭn":2426,"Ġá»¦y":2427,"Ġná»Ĺi":2428,"oáº¡i":2429,"ĠthoÃ¡ng":2430,"Ġsáº¯t":2431,"Ġ23":2432,"ĠSá»±":2433,"Ġko":2434,"Ġthá»ķ":2435,"40":2436,"ĠphÆ°á»Ŀng":2437,"Ġkhuáº©n":2438,"uc":2439,"ĠCam":2440,"Ġ21":2441,"TrÆ°á»Ľc":2442,"ld":2443,"ĠcÆ¡n":2444,"Ġmá»ĩnh":2445,"Ġcáº·p":2446,"ChÃºng":2447,"Ġdá»«ng":2448,"ĠÄĳá»ĩ":2449,"22":2450,"top":2451,"tp":2452,"ĠgÆ°Æ¡ng":2453,"ĠngÆ°Æ¡i":2454,"Ġquang":2455,"ĠthÆ°á»£ng":2456,"ok":2457,"Ġlá»ĩnh":2458,"Ġhá»ĵn":2459,"ebook":2460,"âĢ¦âĢ¦":2461,"ĠbÄĥng":2462,"90":2463,"ĠphÃº":2464,"iz":2465,"ĠngÃłn":2466,"all":2467,"Ġloáº¡n":2468,"ĠÄĳáº£ng":2469,"ĠTiÃªn":2470,"az":2471,"itamin":2472,"ĠCÆ¡":2473,"Ġ60":2474,"70":2475,"ĠchÃło":2476,"75":2477,"ĠVÆ°Æ¡ng":2478,"ĠÄĲá»ĳi":2479,"ĠÄĳÃłi":2480,"ĠhÆ°":2481,"//":2482,"Ġtá»ķn":2483,"2016":2484,"Ġmá»±c":2485,"Ġche":2486,"Ġngá»«ng":2487,"TV":2488,"Ġonline":2489,"ĠtrÃł":2490,"ĠTin":2491,"hop":2492,"ĠChÆ°Æ¡ng":2493,"Ġdiá»ĩt":2494,"Ãºy":2495,"ĠnhÃłng":2496,"ĠViá»ĩn":2497,"Ġof":2498,"Ġ?":2499,"±ng":2500,"ĠBá»ĩnh":2501,"ĠvÃŃ":2502,"Ġcl":2503,"Ġvid":2504,"Ġvá»ı":2505,"ey":2506,"ĠhÃ´":2507,"ich":2508,"ank":2509,"ĠbÃ£i":2510,"wn":2511,"Ġvideo":2512,"ĠThá»Ŀi":2513,"ĠÄĳÆ°Æ¡":2514,"Ġâ":2515,"45":2516,"ĠgiÃł":2517,"ĠÄĳáºŃu":2518,"ian":2519,"ah":2520,"Ġtráº§n":2521,"op":2522,"Ġrá»Ŀi":2523,"AN":2524,"Ġmá»¡":2525,"ĠiPhone":2526,"Ġmá»Ļ":2527,"acebook":2528,"Ġlá»Ĺ":2529,"://":2530,"ĠkÃŃn":2531,"ĠdÆ°á»£c":2532,"ton":2533,"Ġbáº¡i":2534,"Ã£ng":2535,"Ġgan":2536,"Ġná»Ļp":2537,"ĠBá»Łi":2538,"ĠTá»Ń":2539,"ation":2540,"uá»Ļc":2541,"Ġvua":2542,"ĠlÃ´":2543,"ĠtÄ©nh":2544,"ĠNgÃ¢n":2545,"Ġngá»±c":2546,"ĠÃĲ":2547,"ĠÃ©p":2548,"ĠbÃª":2549,"ry":2550,"Ġnon":2551,"ĠgiÃłnh":2552,"Ġháº¹n":2553,"ĠPhan":2554,"ĠtrÃ´ng":2555,"66":2556,"ĠtrÃº":2557,"Ġthá»Ł":2558,"ĠtrÃ²n":2559,"Ġváº£i":2560,"ĠthÃ©p":2561,"ĠQuÃ¢n":2562,"Ġáº©n":2563,"ĠVÃ¢n":2564,"eg":2565,"og":2566,"ĠHiá»ĩp":2567,"ink":2568,"ĠthÃ¹":2569,"ĠVinh":2570,"Ġti":2571,"ĠNew":2572,"ĠTÃ¢m":2573,"Ġmi":2574,"ĠHÆ°Æ¡ng":2575,"ĠCÃ¡ch":2576,"ĠnÃ£o":2577,"Ġmai":2578,"35":2579,"ĠXe":2580,"se":2581,"Ġtan":2582,"ĠdáºŃy":2583,"oog":2584,"Ġtrá»¯":2585,"Ġtá»ĩ":2586,"ty":2587,"ĠÄĲá»Ļ":2588,"Ġtrá»įn":2589,"ĠtrÃło":2590,"ĠÄĳua":2591,"á»³nh":2592,"Ġmáº¯n":2593,"Ġtáº¯t":2594,"Ġnhi":2595,"oogle":2596,"Ġduyá»ĩt":2597,"ĠSá»ĳ":2598,"ĠHá»":2599,"Ġlá»¥c":2600,"und":2601,"ĠlÆ°á»Ľi":2602,"ĠÄĳáº¿":2603,"Ġpháº«u":2604,"Ġbá»įn":2605,"ĠPhÃºc":2606,"Ġvu":2607,"ĠTáº¥t":2608,"ĠtÃ´ng":2609,"á»§i":2610,"Ġtreo":2611,"ĠQuy":2612,"ĠTáº¿t":2613,"Ġkhá»§ng":2614,"ver":2615,"ĠÄĲáº§u":2616,"ams":2617,"Ġcamera":2618,"ĠPl":2619,"ĠtrÆ°Æ¡ng":2620,"ĠCáº§n":2621,"Ġ28":2622,"ĠtÃ¢y":2623,"Iá»":2624,"Ġviá»ĩt":2625,"ĠphÃ¡i":2626,"ĠÄĲáº¿n":2627,"Ġthiá»ĥu":2628,"tel":2629,"ĠÄĲá»ĭnh":2630,"ĠOn":2631,"ond":2632,"Ġ26":2633,"ib":2634,"á»¯u":2635,"ĠHy":2636,"ĠMá»Ĺi":2637,"CH":2638,"Ġ2014":2639,"Ġbá»ĳn":2640,"ĠHÃłng":2641,"ĠkÃªu":2642,"ãģ":2643,"ĠtháºŃp":2644,"ĠmÃ£n":2645,"ĠVÄ©nh":2646,"Ġmá»ĩt":2647,"Ġbá»Ŀ":2648,"ĠkhÃ¡n":2649,"ĠHÃ³a":2650,"Ġ27":2651,"phone":2652,"ĠbÃ©o":2653,"Ġáº¤":2654,"Ġláº»":2655,"ĠThá»§y":2656,"ĠbÃ²":2657,"Ð¾":2658,"ĠlÃŃ":2659,"ĠÄĳá»īnh":2660,"ĠMar":2661,"ĠnÃªu":2662,"ĠSp":2663,"Ġbá»¥i":2664,"¢nh":2665,"2015":2666,"ĠKhÃ¡nh":2667,"ĠTrÆ°á»Ľc":2668,"Ġht":2669,"Ġ'":2670,"ĠTuáº¥n":2671,"ĠHD":2672,"á»¥ng":2673,"Ġhá»©ng":2674,"ĠrÃ£i":2675,"ĠgiÆ°á»Ŀng":2676,"Ġ)":2677,"Ġcháº¥m":2678,"Ġmá»ıi":2679,"ĠHÃ¹ng":2680,"ĠbÃ³":2681,"ĠgiÃły":2682,"Ġgiá»ıi":2683,"ĠBÃłi":2684,"are":2685,"ĠSh":2686,"ant":2687,"LV":2688,"Ġphá»©c":2689,"Ġchua":2690,"Ġhá»ıng":2691,"ĠNhiá»ģu":2692,"Ġpin":2693,"Ġand":2694,"ĠÄĲÃło":2695,"ĠÄĳá»±ng":2696,"á»Ĺng":2697,"Ġtá»ĳn":2698,"Ġkhá»Ľp":2699,"ĠÆ°a":2700,"ĠlÃ£i":2701,"ĠThá»±c":2702,"ĠTiáº¿n":2703,"Ġtiá»ģm":2704,"%.":2705,"65":2706,"II":2707,"ĠtÃ¢n":2708,"áº¹o":2709,"su":2710,"Ġphu":2711,"Ġthiá»ĩt":2712,"ÃĶ":2713,"ĠchÃ¹a":2714,"Ġná»Ĺ":2715,"Ġloa":2716,"ĠbÆ¡i":2717,"ĠkÃªnh":2718,"28":2719,"ĠÄĳá»ĭch":2720,"mm":2721,"ĠnhuáºŃn":2722,"ĠbÆ¡m":2723,"Ġdao":2724,"á»±u":2725,"Ġsáº¯m":2726,"ĠSinh":2727,"33":2728,"Ġná»ķ":2729,"Ġváº½":2730,"Ġpháº¥n":2731,"68":2732,"Ġ500":2733,"Ġ!":2734,"¿½":2735,"ĠBÃŃ":2736,"ĠdÃ¡m":2737,"Ġcháº¡m":2738,"ĠthÃª":2739,"Ġvitamin":2740,"Ġsá»¹":2741,"Ġhiá»ĥn":2742,"TrÃªn":2743,"Ġbá»ĵi":2744,"ĠNH":2745,"ĠChu":2746,"ĠkhuyÃªn":2747,"Ġhttp":2748,"iáº¿c":2749,"Ġä¸":2750,"Ġdáº¡":2751,"ĠTiá»ĥu":2752,"Viá»ĩc":2753,"mart":2754,"Ġ29":2755,"Ġthua":2756,"ĠKhÃ¡ch":2757,"Ġcáº©n":2758,"ĠgiÃ£n":2759,"ĠThÆ°á»Ŀng":2760,"ĠDá»ĭch":2761,"CN":2762,"ix":2763,"Ġcanh":2764,"ina":2765,"ĠtrÃłn":2766,"Ġá»§ng":2767,"ĠBÃ¡o":2768,"ĠÄĲa":2769,"Ġvá»¡":2770,"Ġgiáº¥c":2771,"ĠHCM":2772,"ĠSa":2773,"Ġhiá»ĩp":2774,"ĠMáº¹":2775,"ĠTNH":2776,"ĠngÃ£":2777,"ĠMáº·t":2778,"ww":2779,"ien":2780,"Ġdá»©t":2781,"ĠRe":2782,"Ġtráº¥n":2783,"ĠTNHH":2784,"Ġ80":2785,"BÃªn":2786,"ĠBiÃªn":2787,"----":2788,"ĠCá»¥c":2789,"ĠsÃ´i":2790,"ĠÄĳáºŃm":2791,"Ġthá»į":2792,"Ġsá»ĳt":2793,"Ġse":2794,"Ġcá»ķng":2795,"our":2796,"ĠXem":2797,"ĠKáº¿t":2798,"ĠDÃ¢n":2799,"ĠCá»ķ":2800,"Ġtráº§m":2801,"ĠPr":2802,"ĠLÃłm":2803,"ĠNháº¥t":2804,"Bá»Ļ":2805,"ĠÄĲÃłi":2806,"aptop":2807,"Ġláº§m":2808,"ĠthÃ¡nh":2809,"ĠÄĳiá»ĩu":2810,"ĠmÃłng":2811,"Ġ70":2812,"kg":2813,"ĠvÆ¡":2814,");":2815,"ĠgiÃ¢y":2816,"á»Ļm":2817,"Ġmá»ĭn":2818,"ĠHáº¡":2819,"Ġcá»Ļt":2820,"ĠhÃ¹ng":2821,"ĠmÃły":2822,"Ġ>":2823,"Ġngá»«a":2824,"Ð°":2825,"ĠÃ´m":2826,"ĠPH":2827,"Ġgiáº¿t":2828,"ĠchÃºc":2829,"ĠGiáº£i":2830,"ĠtÃ¡n":2831,"ĠNghá»ĩ":2832,"Æ°á»Ľt":2833,"ĠCan":2834,"ĠnhÃ£n":2835,"AM":2836,"ĠQuyáº¿t":2837,"ĠĠ":2838,"Ġgiá»įng":2839,"ĠCity":2840,"iet":2841,"Ġna":2842,"Ġ199":2843,"ĠTrÆ°á»Łng":2844,"á»¥y":2845,"ĠâĢĺ":2846,"£t":2847,"Ġcháº·n":2848,"ĠnÃºt":2849,"Ġro":2850,"ĠlÅ©":2851,"TS":2852,"Ġga":2853,"ull":2854,"ĠPháº§n":2855,"á»ĳp":2856,"ĠtÃŃ":2857,"ĠTR":2858,"ĠQuáº£n":2859,"ÄĲiá»ģu":2860,"Ġmáº¡c":2861,"ck":2862,"ĠxÃ¢m":2863,"Ġj":2864,"ĠkiÃªn":2865,"Ġtung":2866,"27":2867,"ĠnÆ°á»Ľng":2868,"ĠÄĲá»ĭa":2869,"ada":2870,"á»ŀ":2871,".\"":2872,"how":2873,"ight":2874,"ï¿½":2875,"amsung":2876,"26":2877,"ĠmÃ³c":2878,"ĠTPHCM":2879,"Ġláº·ng":2880,"ĠkhÃŃch":2881,"Ðµ":2882,"ĠtÃłn":2883,"Ġhá»§y":2884,"ĠHuy":2885,"Æ°á»Ľp":2886,"Ġhuáº¥n":2887,"ĠÄĲH":2888,"ĠSing":2889,"ĠMan":2890,"ÄĲá»ĳi":2891,"Ġmuá»ĳi":2892,"Ġtháº¯c":2893,"ĠPhi":2894,"ĠThÆ°á»£ng":2895,"ĠlÃ¢m":2896,"Ãªnh":2897,"ĠduyÃªn":2898,"Ġkháº¥u":2899,"ĠKH":2900,"NhÆ°ng":2901,"Ġgá»£i":2902,"Ġchá»¥c":2903,"Ġ2013":2904,"ĠPhÆ°á»Ľc":2905,"ĠLÃł":2906,"Ġtháº§u":2907,"ĠTháº§n":2908,"ĠÃ¡c":2909,"ĠchÃ³":2910,"29":2911,"ĠphÃ³":2912,"Anh":2913,"Ġtrá»Ļn":2914,"ĠthÃ¡ch":2915,"ĠÄĳá»£t":2916,"ĠThuáºŃn":2917,"ĠnghÃ¬n":2918,"ĠTÃ¬nh":2919,"Ġcá»ı":2920,"CP":2921,"55":2922,"orld":2923,"NÄĥm":2924,"Ġtrá»¥c":2925,"ThÃ´ng":2926,"ĠphÃ¡n":2927,"Ġpro":2928,"ĠBl":2929,"ĠbÃ´ng":2930,"ĠhÃ´i":2931,"Â¿":2932,"Ġbang":2933,"Â½":2934,"ĠTa":2935,"ĠcÃº":2936,"ĠgiÃ¡p":2937,"ĠGoogle":2938,"ĠKho":2939,"ĠPro":2940,"Ġthuyá»ģn":2941,"ĠHLV":2942,"Ġáº¡":2943,"load":2944,"ĠÄĳuá»ķi":2945,"ĠTá»īnh":2946,"ĠÃ¡i":2947,"ĠkhÃ³c":2948,"Ġhuynh":2949,"Ġgáº¡o":2950,"ĠHuáº¿":2951,",...":2952,"ĠTrÃªn":2953,"ĠcÆ°Æ¡ng":2954,"38":2955,"Ġbáº¯n":2956,"apore":2957,"ĠÄĳuÃ´i":2958,"Ġtáº£ng":2959,"ĠXÃ¢y":2960,"ĠCáº§u":2961,"Ġtháº¥m":2962,"ĠGiao":2963,"ĠVÃµ":2964,"77":2965,"Ġhoang":2966,"ĠsÃ¡nh":2967,"Ġno":2968,"ĠLÆ°u":2969,"ĠchÃŃn":2970,"Ġhiáº¿m":2971,"pl":2972,"Ġvinh":2973,"ĠrÃ¡c":2974,"ĠtÃºc":2975,"ÃĤ":2976,"ĠBÃ¡n":2977,"TP":2978,"ĠBÃ¡c":2979,"ber":2980,"ast":2981,"ĠDN":2982,"ĠthÃ¹ng":2983,"Ġ300":2984,"!!":2985,"ĠSÆ°":2986,"Ġmiáº¿ng":2987,"ĠDuy":2988,"%,":2989,"ĠÄĳáº¡p":2990,"ĠTam":2991,"ĠDi":2992,"ĠÄĳá»ĳt":2993,"âĢ¦]":2994,"Ġkhen":2995,"Ġphun":2996,"Ġgiáº·t":2997,"ĠThÃ¡ng":2998,"21":2999,"ĠHá»¯u":3000,"Ġcá»Ŀ":3001,"Ã¹m":3002,"á»įa":3003,"ĠDÅ©ng":3004,"NhÆ°":3005,"ĠÄĳáºŃp":3006,"Ġcá»ĳt":3007,"ĠCl":3008,"Do":3009,"ĠAnd":3010,"Ġ90":3011,"ĠbÃ¡t":3012,"á»ıng":3013,"Ġcáº¥m":3014,"ĠthÃ¢m":3015,"Ġnáº¥m":3016,"ĠCÃ¹ng":3017,"Vá»ģ":3018,"ĠGiáº¥y":3019,"ĠbÃ¬":3020,"ĠMy":3021,"MÃ¡y":3022,"Ġnháº¯n":3023,"ĠApp":3024,"ĠVá»ģ":3025,"Ġtháº£m":3026,"log":3027,"CS":3028,"Ġmá»ıng":3029,"ĠbuÃ´n":3030,"ha":3031,"ĠÄĲáº¥t":3032,"ĠKáº¿":3033,"xi":3034,"ini":3035,"ĠlÃ£ng":3036,"ow":3037,"Ġbá»ĳi":3038,"á»ıi":3039,"ans":3040,"Ġ*":3041,"ĠMa":3042,"ĠHá»ĩ":3043,"Ġ35":3044,"Ġáº¤n":3045,"Ġchuá»Ļt":3046,"XH":3047,"ĠxuÃ¢n":3048,"Ġchá»«ng":3049,"ĠÄĳÄ©a":3050,"ĠcÃ¡p":3051,"ĠhÃł":3052,"ĠTrá»įng":3053,"ĠCÅ©ng":3054,"Ġruá»Ļt":3055,"ĀĀĀĀĀĀĀĀĀĀĀĀĀĀĀĀĀĀĀĀĀĀĀĀĀĀĀĀĀĀĀĀĀĀĀĀĀĀĀĀĀĀĀĀĀĀĀĀĀĀĀĀĀĀĀĀĀĀĀĀĀĀĀĀĀĀĀĀĀĀĀĀĀĀĀĀĀĀĀĀĀĀĀĀĀĀĀĀĀĀĀĀĀĀĀĀĀĀĀĀĀĀĀĀĀĀĀĀĀĀĀĀĀĀĀĀĀĀĀĀĀĀĀĀĀĀĀĀ":3056,"km":3057,"ky":3058,"ĠthÃ³i":3059,"ĠÃļ":3060,"Ġhuá»ĳng":3061,"09":3062,"Ġtráº¡i":3063,"Ġhá»©a":3064,"ide":3065,"Ã¯":3066,"Ġchá»Ł":3067,"Ġbáº¡ch":3068,"Ġ[âĢ¦]":3069,"ke":3070,"ft":3071,"VÃ¬":3072,"ĠNÃ´ng":3073,"ĠtáºŃt":3074,"ĠbÃ¹":3075,"Ġvang":3076,"Ġká»ĭch":3077,"Ġbá»įc":3078,"ĠAir":3079,"Ġsex":3080,"Ġkm":3081,"NhÃł":3082,"ĠbÃ£o":3083,"Ġtiá»ĩc":3084,"ĠLÆ°Æ¡ng":3085,"Ġná»Ł":3086,"ĠTHPT":3087,"ĠCup":3088,"ĠdÃ¡n":3089,"ĠNgoáº¡i":3090,"):":3091,"ĠSá»Ń":3092,"ĠSingapore":3093,"ĠGD":3094,"Ġcáº£n":3095,"ĠÄĳai":3096,"ĠÄĲÆ°á»£c":3097,"ĠGiÃª":3098,"įt":3099,"Ġvong":3100,"ĠtÃ¡ch":3101,"ĠngÆ°á»¡ng":3102,"ĠBáº¡ch":3103,"Ġhi":3104,"ĠDÃ¹":3105,"ines":3106,"ĠvÆ°Æ¡ng":3107,"Ġquá»¹":3108,"Ġgá»¡":3109,"Ġhot":3110,"BÃłi":3111,"Ġáº£o":3112,"Ġong":3113,"ĠbÃ¡m":3114,"HÃ£y":3115,"ĠAm":3116,"Ġsanh":3117,"Ġáº¢nh":3118,"ĠNgÃ´":3119,"2014":3120,"ĠkhoÃ¡ng":3121,"sia":3122,"ĠUn":3123,"ĠCa":3124,"79":3125,"ost":3126,"out":3127,"ect":3128,"ump":3129,"ear":3130,"ĠLÃºc":3131,"Ġtrá»Ļi":3132,"ĠdÆ°á»Ŀng":3133,"ĠxÆ°á»Łng":3134,"Ġtrá»ĳng":3135,"ĠThá»©":3136,"ĠHÄĲ":3137,"Ġmáº£nh":3138,"ĠBr":3139,"OS":3140,"khÃ´ng":3141,"ĠlÃ²":3142,"ĠHuyá»ĩn":3143,"¡i":3144,"ĠHÃ¬nh":3145,"?âĢĿ":3146,"ĠchÄĥn":3147,"ĠTrÆ°Æ¡ng":3148,"ĠTiá»ģn":3149,"Ã©m":3150,"Ã¹y":3151,"ĠFacebook":3152,"Ġxoay":3153,"Ġ31":3154,"48":3155,"Ġsá»£i":3156,"Ð¸":3157,"Ġhá»Ĺn":3158,"ĠSamsung":3159,"Ġtáº©y":3160,"ĠCÃ¢u":3161,"ĠsÃºng":3162,"ĠdÃŃnh":3163,"ĠcÃ¡t":3164,"ĠtÃ¡o":3165,"78":3166,"ĠTÃ´n":3167,"ĠGr":3168,"áºł":3169,"ĠWin":3170,"ĠdÃ¢u":3171,"Ġhá»ķ":3172,"36":3173,"ps":3174,"ĠnhÃ¡nh":3175,"ss":3176,"oh":3177,"Ġlaptop":3178,"ĠInternet":3179,"ge":3180,"ĠTÃłu":3181,"Ġnháº£y":3182,"ĠQuan":3183,"ĠxÃ³a":3184,"Ġ2012":3185,"Ngh":3186,"Ġcá»¡":3187,"ĠCS":3188,"fe":3189,"ĠMal":3190,"ĠkÄ©":3191,"08":3192,"Ġngáº¯m":3193,"ĠcÃ¢":3194,"iá»ħu":3195,"Ġxá»©ng":3196,"arket":3197,"sa":3198,"Ġmen":3199,"CC":3200,"Ġbá»Ľt":3201,"la":3202,"ĠTriá»ģu":3203,"ĠTiáº¿ng":3204,"end":3205,"ÄĲÆ°á»£c":3206,"ĠngÆ°Æ¡":3207,"ĠMáº·c":3208,"ĠCáº£nh":3209,"ĠthÃ¡o":3210,"ĠBáº±ng":3211,"ĠLai":3212,"Ġfor":3213,"Ġtháº£":3214,"EO":3215,"Ġtiáº¿c":3216,"ĠngáºŃp":3217,"ive":3218,"ĠPark":3219,"old":3220,"IN":3221,"ĠvÃµ":3222,"ideo":3223,"ĠChiáº¿n":3224,"ĠmÆ°á»Ŀi":3225,"ĠÄĳáº¯c":3226,"Æ°á»¡i":3227,"Ġbá»ĥ":3228,"áº«y":3229,"Ġ45":3230,"á»ĳm":3231,"39":3232,"roup":3233,"ĠnhÃ´m":3234,"ice":3235,"Ġháº±ng":3236,"ĠghÃ©p":3237,"Ġmá»įc":3238,"ĠNÆ°á»Ľc":3239,"44":3240,"ĠWorld":3241,"Ġal":3242,"ĠsÄĥn":3243,"ĠgiáºŃn":3244,"Ġtá»±a":3245,"ĠPhá»¥":3246,"CO":3247,"ĠLá»Ļc":3248,"ĠmÆ°u":3249,"ĠphÃŃm":3250,"Ġphá»ıng":3251,"ach":3252,"LÃł":3253,"uk":3254,"ri":3255,"ĠLoan":3256,"Ġthan":3257,"ĠCháº¥t":3258,"ee":3259,"ĠCom":3260,"ĠvÃ¢n":3261,"ork":3262,"dow":3263,"ĠLá»ħ":3264,"Ġrá»§i":3265,"Ġtá»ıa":3266,"ĠkhoÃ¡n":3267,"ĠThÆ¡":3268,"wnload":3269,"ĠngÆ¡i":3270,"ĠTá»±":3271,"ĠToÃłn":3272,"ĠngÃłi":3273,"Ġchuá»Ļng":3274,"ĠAd":3275,"ĠHÃłnh":3276,"ED":3277,"ĠtÃ´m":3278,"ran":3279,"Ġnhá»ĭp":3280,"500":3281,"ĠMua":3282,"fa":3283,"roid":3284,"ĠtrÃºng":3285,"Ġtuá»ĩ":3286,"Ġháº§m":3287,"Cho":3288,"ĠHÆ¡n":3289,"ĠCN":3290,"ĠCÃ¡i":3291,"ĠÄĳam":3292,"ĠÃĿ":3293,"ĠÄĳeo":3294,"CÃ¡ch":3295,"Ġtháº±ng":3296,"ĠBH":3297,"Ġchim":3298,"ĠGal":3299,"Ġbáº©n":3300,"Ġgá»ĳi":3301,"obile":3302,"Ġcong":3303,"ĠhÃłn":3304,"ĠSy":3305,"ĠÄĲáº¡o":3306,"áº«m":3307,"ĠvÃ¡y":3308,"Ġtáº¿t":3309,"ÑĤ":3310,"ÄĲáº¿n":3311,"icro":3312,"Ġ02":3313,"69":3314,"ĠCha":3315,"oy":3316,"áº¾":3317,"ĠNG":3318,"ĠQua":3319,"Nhiá»ģu":3320,"á»§a":3321,"Ġvá»Ļi":3322,"ĠÄĳÃłm":3323,"Ġchuá»Ĺi":3324,"05":3325,"ĠxÄĥng":3326,"49":3327,"ĠmÃŃ":3328,"ĠdÃ¢m":3329,"ĠTiáº¿p":3330,"ies":3331,"ĠÄĳá»ģn":3332,"Ġdá»ĭu":3333,"Ġchap":3334,"áº¹t":3335,"Ġ2010":3336,"ĠchÄĥng":3337,"ĠchÆ°":3338,"ĠgiáºŃt":3339,"Ġcom":3340,"ĠÄĳÃł":3341,"07":3342,"Ġviá»ħn":3343,"Ġbáº¯c":3344,"ĠÄĲÄĥng":3345,"Ġkha":3346,"ĠDoanh":3347,"Ġngá»Ļ":3348,"ct":3349,"Iá»Ĩ":3350,"ĠBá»ĵ":3351,"ĠÃļc":3352,"ĠXin":3353,"ĠApple":3354,"Ġ2011":3355,"alo":3356,"Ġbáº¡o":3357,"AT":3358,"Ġná»ĵi":3359,"Ã£nh":3360,"CÅ©ng":3361,"ĠÄĳe":3362,"cÃ³":3363,"xy":3364,"Ġtriá»ĩt":3365,"ĠTÃ¬m":3366,"Ġgáº¡ch":3367,"ĠSo":3368,"ĠdÃłn":3369,"ĠCÄĥn":3370,"Ġnháº¡y":3371,"Ġdá»įc":3372,"go":3373,"ĠÄĳÃ¢":3374,"ĠCP":3375,"ĠCo":3376,"Ġváº¹n":3377,"ĠcáºŃy":3378,"ĠNghÄ©a":3379,"Ġnáº¡p":3380,"Ġpl":3381,"ĠtrÃŃch":3382,"ml":3383,"Ġmá»Ŀ":3384,"oll":3385,"ace":3386,"100":3387,"axy":3388,"Sá»±":3389,"ĠbÃ¡":3390,"ĠlÃ£m":3391,"2013":3392,"ĠïĢ":3393,"ÃĬ":3394,"Ġim":3395,"Ġmáº»":3396,"QÄĲ":3397,"áº¤":3398,"Ġngáº¡c":3399,"Ġlong":3400,"Ġcháº¥n":3401,"ĠthÃ´":3402,"Ġz":3403,"ĠcÃºng":3404,"Ġsay":3405,"Ġst":3406,"ĠnhÃ¢":3407,"Ġde":3408,"34":3409,"Ġá»ĳc":3410,"ĠThá»ĥ":3411,"Ð½":3412,"ĠVá»ĭ":3413,"man":3414,"ĠHá»£p":3415,"ĠTháº§y":3416,"Ġcáº¥t":3417,"ĠthÄĥng":3418,"37":3419,"Ġlá»ĩch":3420,"ĠtiÃª":3421,"Ġthá»£":3422,"amp":3423,"Thá»Ŀi":3424,"ĠII":3425,"so":3426,"áº¢":3427,"ug":3428,"con":3429,"Ġmáº¡n":3430,"ĠMá»įi":3431,"ĠMÃ£":3432,"ĠxÃ¡ch":3433,"Ġemail":3434,"ĠÃ¢n":3435,"ĠchÃºa":3436,"ment":3437,"ĠAS":3438,"Ġthuáº§n":3439,"02":3440,"Chá»ī":3441,"Ġbia":3442,"Ġnho":3443,"ĠThÆ°":3444,"arketing":3445,"Ġchá»§ng":3446,"Ġtá»į":3447,"ague":3448,"ĠÄĲá»ģ":3449,"ĠNgay":3450,"Ġmáº§m":3451,"Ġngá»įn":3452,"ĠXÃ£":3453,"ĠÄĳá»¥":3454,"Ġháº¹p":3455,"ĠTrá»Ŀi":3456,"ĠTÃ´":3457,"89":3458,"ĠLÃło":3459,"Æł":3460,"ĠkhÃ¡t":3461,"Ġlá»«a":3462,"Ġtá»įa":3463,"Ġká»ĩ":3464,"Ġ#":3465,"ĠGiá»Ľi":3466,"Ġhiáº¿n":3467,"Ġlang":3468,"06":3469,"ĠTháº£o":3470,"ĠTrump":3471,"ĠTháº¯ng":3472,"ĠThá»į":3473,"âĢ¦.":3474,"................":3475,"ĠSong":3476,"Ġphiá»ģn":3477,"Ġlam":3478,"ĠlÃºa":3479,"ĠBar":3480,"martphone":3481,"04":3482,"Ġchá»ĳi":3483,"ĠtÃ¡":3484,"ĠÄĳiá»ĩp":3485,"ĠNá»¯":3486,"ĠchÃ¡n":3487,"ĠtrÃ´i":3488,"Dá»±":3489,"ĠLao":3490,"ood":3491,"ome":3492,"ĠkÃŃ":3493,"ĠrÅ©":3494,"Ġhá»ĳi":3495,"ĠhiÃª":3496,"ĠngÃ³n":3497,"ÃĶNG":3498,"bum":3499,"ĠAi":3500,"ĠÄĳáº¯t":3501,"ĠbáºŃn":3502,"ino":3503,"ĠbÃºt":3504,"ĠVietnam":3505,"Ġ36":3506,"ÑĢ":3507,"ĠTT":3508,"Ġcáº¯m":3509,"ĠÃĶ":3510,"ĠVI":3511,"ĠTÄĥng":3512,"ĠnÃ©n":3513,"ĠHÆ°á»Ľng":3514,"ĠTÃŃnh":3515,"Ġsoi":3516,"ĠtrÆ°a":3517,"Ãĥ":3518,"uch":3519,"ĠDung":3520,"ara":3521,"ĠTruyá»ģn":3522,"pr":3523,"dows":3524,"BÆ°á»Ľc":3525,"AS":3526,"ĠEx":3527,"LB":3528,"ve":3529,"ĠHáºŃu":3530,"ĠtÃłng":3531,"ĠÄĲá»Ļng":3532,"Ġtháº¡ch":3533,"ens":3534,"Ġac":3535,"Ġbo":3536,"Giá»":3537,"85":3538,"ChÃŃnh":3539,"ĠÄĲá»Ļi":3540,"03":3541,"Trung":3542,"Ġsáº¡c":3543,"Con":3544,"Ġfile":3545,"Ġnáº¿p":3546,"Ñģ":3547,"Thá»±c":3548,"CT":3549,"Ġ03":3550,"Ġäº":3551,"ĠsÃ³t":3552,"ĠCá»¥":3553,"ĠTp":3554,"Ġquyáº¿n":3555,"ĠxÆ¡":3556,"Em":3557,"de":3558,"ĠlÆ¡":3559,"use":3560,"ĠtuÃ¢n":3561,"ĠÄĳÃºc":3562,"ĠThi":3563,"ĠÄĲÃ´":3564,"ĠVá»¥":3565,"ĠChÃ¡nh":3566,"ĠTÃ²a":3567,"ĠlÃ¡t":3568,"ĠWeb":3569,"ĠNÃªn":3570,"Ġtam":3571,"ĠViÃªn":3572,"ĠChá»ĭ":3573,"ĠcÆ°á»Ľc":3574,"per":3575,"Ġson":3576,"ĠBÃ¹i":3577,"ĠdÄ©":3578,"ne":3579,"Ġná»ĵng":3580,"ĠnhÆ°á»£ng":3581,"ĠHoÃłn":3582,"Ã¬a":3583,"ĠngÃ¢m":3584,"Ġdá»«a":3585,"Ġ32":3586,"ĠÆ¡i":3587,"Ġá»©c":3588,"me":3589,"onal":3590,"Ġlau":3591,"ama":3592,"rus":3593,"Ġcá»±u":3594,"Ġ150":3595,"ester":3596,"ÄĲáº¡i":3597,"ash":3598,"46":3599,"Ġxáº£":3600,"Ġsp":3601,"ĠChung":3602,"ĠDiá»ħn":3603,"ube":3604,"ure":3605,"ĠmÃ¬":3606,"ĠBiá»ĥn":3607,"ave":3608,"ĠGalaxy":3609,"ĠcÆ°á»Ľp":3610,"Ġsan":3611,"ĠCung":3612,"Ġhang":3613,"Ġtrá»Ļm":3614,"Ġcháº½":3615,"ĠhÃ¢m":3616,"ĠBáº¥t":3617,"Ġbáº¥m":3618,"xit":3619,"ĠSer":3620,"ĠDÆ°á»Ľi":3621,"Æ°á»£n":3622,"ĠDiá»ĩn":3623,"iss":3624,"ĠnÃ¡m":3625,"Æ°Æ¡n":3626,"ĠvÄ©":3627,"Ġnháº«n":3628,"ĠMÃ¬nh":3629,"ĠSon":3630,"ĠOnline":3631,"Ġchiáº¿t":3632,"Ġká»ģ":3633,"BÃ¡n":3634,"ĠNÃ³i":3635,"ĠPar":3636,"Ġhoáº£ng":3637,"ĠNai":3638,"ivi":3639,"ĠChuyÃªn":3640,"ĠDanh":3641,"uá»ĵn":3642,"SÃ¡ng":3643,"ĠkhÃ©o":3644,"Ġmá»ĵ":3645,"Ġsoáº¡n":3646,"ĠKiá»ĥm":3647,"ÄĲá»ĵng":3648,"ER":3649,"sh":3650,"ĠÄĳiÃª":3651,"ma":3652,"Ġkhuyáº¿t":3653,"ĠPhim":3654,"ĠÄĳá»ĩm":3655,"ĠÄĲinh":3656,"yl":3657,"VÃł":3658,"Trang":3659,"ĠNhac":3660,"aysia":3661,"Ġrá»¡":3662,"Ġchai":3663,"ĠtrÃ¡ng":3664,"da":3665,"ĠSun":3666,"ĠKiáº¿n":3667,"ĠPhil":3668,"nÄĥm":3669,"Ġtop":3670,"76":3671,"Ġbá»ķng":3672,"ĠLáº¡t":3673,"ĠCar":3674,"Ġtráº¡m":3675,"Ġ08":3676,"Ġngá»įc":3677,"ĠbÃº":3678,"GiÃ¡":3679,"Ġtrá»ĳn":3680,"Ġchuyá»ģn":3681,"Ġchanh":3682,"Ġbe":3683,"Ġváº·t":3684,"Ġlá»Ļc":3685,"Ġtriá»ģu":3686,"ĠAndroid":3687,"Ġnháº¡t":3688,"ĠTrÃŃ":3689,"Ġthiá»ĩp":3690,"Æ°á»Łi":3691,"ivers":3692,"ĠTÄ©nh":3693,"Ġcáº£ng":3694,"Ð¾Ð":3695,"aw":3696,"CÃ²n":3697,"Ġdá»įa":3698,"In":3699,"á»Ĳ":3700,"ĠVÃŃ":3701,"ĠvuÃ´ng":3702,"32":3703,"Ġheo":3704,"NT":3705,"Ġkhá»©":3706,"ĠCuá»Ļc":3707,"ĠGI":3708,"Ġchá»ĳt":3709,"á»ĭt":3710,"ĠsÃ¡u":3711,"Ġtia":3712,"Ġmá»Ļng":3713,"ica":3714,"sp":3715,"ipp":3716,"Ġná»¥":3717,"Ġtáº§n":3718,"ĠBe":3719,"ĠlÃ³t":3720,"ĠmÆ°Æ¡i":3721,"ĠmÃ¢y":3722,"iver":3723,"Ġinternet":3724,"ÄĲáº·c":3725,"ico":3726,"ust":3727,"ĠvÃª":3728,"ĠtÃºy":3729,"Ġmá»ī":3730,"ota":3731,"Ġcá»¥m":3732,"ĠÄĳáº¯p":3733,"ier":3734,"ĠCÆ°á»Ŀng":3735,"GB":3736,"ĠCáº£":3737,"Ġleo":3738,"Ġmuá»Ļn":3739,"Ġxáº¡":3740,"Ġhá»ıa":3741,"assage":3742,"ĠTiÃªu":3743,"ĠDÆ°á»£c":3744,"ĠBáº¿n":3745,"ĠtráºŃt":3746,"Ġkhoan":3747,"ĠThá»ĳng":3748,"ĠchÃ¢m":3749,"ĠMá»¥c":3750,"rol":3751,"ĠTinh":3752,"rid":3753,"ĠnhiÃª":3754,"ĠTrÃł":3755,"ĠbiÃª":3756,"Ġkháº©n":3757,"ĠInd":3758,"Ġráº¯n":3759,"ĠTV":3760,"Ġsen":3761,"land":3762,"ĠKá»¹":3763,"Ġmáº¡o":3764,"Æ¯á»":3765,"ĠsÃ´":3766,"Ġsmartphone":3767,"ĠtÃŃm":3768,"ĠvÃ¢":3769,"ata":3770,"ãĤ":3771,"ĠThá»¥y":3772,"ĠLoáº¡i":3773,"áº»o":3774,"ĠTháºŃt":3775,"ĠTS":3776,"tein":3777,"ĠÃªm":3778,"uro":3779,"Ġváº¡n":3780,"Ġam":3781,"Ġtiá»ħn":3782,"ĠLáº¡c":3783,"ĠxÃ³m":3784,"á»ĥn":3785,"ĠthÃ¡p":3786,"orn":3787,"ĠÃĤm":3788,"£n":3789,"ĠhoÃł":3790,"Ġmáº¿n":3791,"ĠmÃ¡":3792,"Ġlá»ıng":3793,"Ġdownload":3794,"47":3795,"ĠCÃ¡t":3796,"Ġbáº¯p":3797,"Ġshow":3798,"ĠÄĳÃ³i":3799,"ĠÄĳoáº¡t":3800,"ĠMalaysia":3801,"ĠWindows":3802,"ial":3803,"son":3804,"ath":3805,"Ġcay":3806,"Ho":3807,"NÄĲ":3808,"Ġ..":3809,"ĠNghe":3810,"Ġrao":3811,"Thiáº¿t":3812,"ĠmÃ¹":3813,"!âĢĿ":3814,"ĠTrá»ĭ":3815,"ĠbÃ³n":3816,"Ġrung":3817,"ĠCá»Ńa":3818,"ĠkhÃ¡i":3819,"ĠSao":3820,"ĠtÃª":3821,"86":3822,"Ġliá»ģu":3823,"Ġbáº¿n":3824,"ĠtrÆ°á»£t":3825,"Ġtháº§m":3826,"ĠÄĲT":3827,"Ġmod":3828,"lex":3829,"Tá»ķng":3830,"ĠkhÃ³i":3831,"Ġshop":3832,"ĠÄĲá»Ĺ":3833,"ĠRes":3834,"ĠbÃ´i":3835,"Ġvan":3836,"Ġngáº§m":3837,"ade":3838,"Ġrá»±c":3839,"Ġ05":3840,"Ġgiam":3841,"ca":3842,"ĠchÃ¡nh":3843,"ĠniÃªm":3844,"ĠlÃŃnh":3845,"ĠÄĲá»":3846,"á»¥t":3847,"ĠKiá»ģu":3848,"ĠrÃło":3849,"Ġnga":3850,"Ġkhe":3851,"Ġbá»ĵn":3852,"ĠthÃ¢":3853,"ium":3854,"DÃ¹":3855,"ĠviÃª":3856,"SD":3857,"ĠchÃ©p":3858,"ID":3859,"á»µ":3860,"ĠkhÃ¢u":3861,"áº±n":3862,"ĠTe":3863,"Ġmáº£ng":3864,"ĠngÃµ":3865,"ĠHay":3866,"UY":3867,"Ġtháº¥u":3868,"aser":3869,"Ġdá»įn":3870,"Ġbá»Ĺng":3871,"app":3872,"ĠdÃ£":3873,"tÃ´":3874,"Ġven":3875,"ON":3876,"ĠchÃ¬m":3877,"ĠTáº¥n":3878,"ĠÄĲiá»ĥm":3879,"Ġcá»ĳng":3880,"ĠUy":3881,"Ġclick":3882,"ĠChÃºc":3883,"ool":3884,"Ġtour":3885,"ĠQuá»³nh":3886,"AR":3887,"TrÆ°á»Ŀng":3888,"Ġtao":3889,"Ġhuyá»ģn":3890,"ĠlÃŃt":3891,"ĠTháº¡nh":3892,"Ġcháº£":3893,"ĠtiÃªm":3894,"he":3895,"59":3896,"Ġnáº¡":3897,"ĠÄĳáº¡n":3898,"Máº·c":3899,"ĠphÆ¡i":3900,"ãĥ":3901,"ĠlÃ¢y":3902,"ĠlÆ°á»¡i":3903,"CÃ´":3904,"ĠÄĳá»Ĺ":3905,"ĠTham":3906,"Ġngá»±a":3907,"ĠHuyá»ģn":3908,"Ġchinh":3909,"ĠYÃªu":3910,"ĠÃ¡m":3911,"ote":3912,"ĠPhÆ°á»Ŀng":3913,"ĠCLB":3914,"Ġmá»ĳc":3915,"ĠghÃ©":3916,"Ġcá»ĳc":3917,"bo":3918,"Ľn":3919,"Ġ$":3920,"ym":3921,"ĠÃ´n":3922,"TM":3923,"Ġquáº¡t":3924,"ĠCanada":3925,"ĠdÃ¢ng":3926,"ĠmÃ²n":3927,"ÃŃa":3928,"ĠcÃ£i":3929,"trong":3930,"ĠxÃ´ng":3931,"ĠGiÃªsu":3932,"ĠlÃ´i":3933,"ĠÆ¡":3934,"ĠrÃ¨n":3935,"ĠDáº§u":3936,"pt":3937,"Ġnáº§y":3938,"ĠnÃ´":3939,"Ġbáº£y":3940,"Ġfan":3941,"ones":3942,"ngÆ°á»Ŀi":3943,"ĠBÄĲ":3944,"ĠÄĲá»ĵ":3945,"ime":3946,"ĠThÃŃch":3947,"NN":3948,"ngÃły":3949,"VÃło":3950,"thÃ¡ng":3951,"Ġlá»ĵng":3952,"ĠThÃ¢n":3953,"Hai":3954,"ĠHuá»³nh":3955,"ĠtrÆ¡n":3956,"ĠSu":3957,"ith":3958,"ĠquÃ¡i":3959,"á»Ńu":3960,"ĠvÃ¡ch":3961,"ĠLá»ĭch":3962,"áº¬":3963,"ĠNhu":3964,"ĠMá»Ľi":3965,"agen":3966,"enn":3967,"ĠVÃło":3968,"IC":3969,"ĠLá»£i":3970,"ĠSan":3971,"ĠNhi":3972,"áº¯k":3973,"ĠmÃ³ng":3974,"ĠnÃ¢u":3975,"Ġthoa":3976,"aph":3977,"att":3978,"Ġgam":3979,"ĠMáº¡nh":3980,"GT":3981,"tral":3982,"Ġao":3983,"Ġtháº¯t":3984,"Ġser":3985,"67":3986,"CÃ¹ng":3987,"Ġtre":3988,"Ġgiáº¥u":3989,"__":3990,"ĠMÃ´i":3991,"ĠDÃ¹ng":3992,"Ġhoan":3993,"Ġ400":3994,"ĠcÆ°á»£c":3995,"Ġkhiáº¿u":3996,"Ã²m":3997,"ChÆ°Æ¡ng":3998,"Ġ04":3999,"ĠchiÃªu":4000,"ĠÄĳá»ĵn":4001,"ĠÄĲÃ£":4002,"ĠLam":4003,"HÃł":4004,"ĠtrÃłng":4005,"Má»Ĺi":4006,"ĠCáº£m":4007,"ĠâĢĿ":4008,"31":4009,"Ġsofa":4010,"**":4011,"ria":4012,"ES":4013,"Ġlá»ĵ":4014,"ĠEl":4015,"Ġli":4016,"Ġ2019":4017,"ĠLy":4018,"ĠmÃ©t":4019,"Ġváº¯ng":4020,"ashi":4021,"ĠTriá»ĩu":4022,"ose":4023,"Xem":4024,"Ġtá»Ľ":4025,"âĢ¦âĢ¦âĢ¦âĢ¦":4026,"Ġthiá»ģn":4027,"Ġre":4028,"Ġinox":4029,"Ġoxy":4030,"Ġlink":4031,"Ġá»ĵn":4032,"ake":4033,"2012":4034,"Ġmassage":4035,"Ġtang":4036,"ĠÄĳáº»":4037,"Ġkhoáº»":4038,"Ĥn":4039,"ĠHiá»ĩu":4040,"Ngay":4041,"ĠPV":4042,"ĠNhá»Ŀ":4043,"Ġinch":4044,"ĠthoÃ¡i":4045,"ĠSim":4046,"ĠlÄĥng":4047,"Ġná»ģ":4048,"ĠkhÃ´n":4049,"IS":4050,"ĠThay":4051,"coin":4052,"Thá»©":4053,"??":4054,"ĠNháº¡c":4055,"Ġcm":4056,"Ġkg":4057,"ĠÄĲá»«ng":4058,"ĠcháºŃu":4059,"ĠÃł":4060,"ern":4061,"ĠFor":4062,"ĠTy":4063,"ĠÄĲáº·ng":4064,"ĠHá»ĵi":4065,"Ġ2009":4066,"ĠtrÆ°Æ¡":4067,"ĠHot":4068,"ĠkhoÄĥn":4069,"87":4070,"MT":4071,"BC":4072,"ĠlÃµi":4073,"Ġcua":4074,"CÄĥn":4075,"Ġpháº¿":4076,"Ġváº£":4077,"ĠsÆ°á»Ľng":4078,"ĠLeague":4079,"Ġ2008":4080,"ĠÄĳá»Ľn":4081,"Ġbá»ĳc":4082,"Tháº¿":4083,"Ġxáº¿":4084,"ba":4085,"ĠÄĳÃ¡y":4086,"Ġkhá»ķng":4087,"Ġsáº¹o":4088,"ĠThá»ĭnh":4089,"ĠMá»Ļc":4090,"ĠMV":4091,"ĠsÆ°u":4092,"lock":4093,"ĠRáº¥t":4094,"ĠTrá»ĭnh":4095,"PS":4096,"ĠÄĳu":4097,"Ġclip":4098,"Ġmau":4099,"oto":4100,"Ġlá»£n":4101,"act":4102,"ĠIs":4103,"ĠxÃŃ":4104,"Ġmá»ķ":4105,"int":4106,"OT":4107,"ĠViettel":4108,"Chá»§":4109,"Ġme":4110,"ĠlÄĥn":4111,"95":4112,"ĠVÅ©ng":4113,"ish":4114,"ĠĠĠĠ":4115,"ĠSÃ¡ng":4116,"ĠSe":4117,"ĠkhoÃ¡c":4118,"Káº¿t":4119,"ĠngÆ°":4120,"Ġdáº¡o":4121,"ĠvÄ©nh":4122,"ĠhÃ£i":4123,"ĠchiÃªn":4124,"ĠÄĳá»ĵi":4125,"GD":4126,"omes":4127,"ĠThÄĥng":4128,"ĠÆ°á»Ľt":4129,"ike":4130,"ĠAc":4131,"ĠtrÃ¢n":4132,"Ġxi":4133,"ĠquÃ©t":4134,"ĠEd":4135,"ĠSÄ©":4136,"Táº¥t":4137,"Ġhá»įng":4138,"Ġtem":4139,"arao":4140,"ĠHáº¡nh":4141,"ĠÄĲi":4142,"ĠTuyÃªn":4143,"ĠTháº¡ch":4144,"Ġnháº§m":4145,"ĠÄĳÃ¢m":4146,"ĠbÄĥn":4147,"ign":4148,"ali":4149,"ĠHÃ´m":4150,"Sáº£n":4151,"mp":4152,"Ġkhoai":4153,"Ġhao":4154,"ĠsÃ¢m":4155,"Ġaxit":4156,"Ġcafe":4157,"Ġphá»ķi":4158,"ĠÄĳáº§m":4159,"ĠTÃªn":4160,"ĠchÃ¨":4161,"ĠMi":4162,"ĠCol":4163,"Ġ38":4164,"ĠCá»©":4165,"ind":4166,"ĠHoáº·c":4167,"ĠsÆ°Æ¡ng":4168,"ĠÄĲÆ¡n":4169,"vi":4170,"64":4171,"ĠNÆ¡i":4172,"ĠÆ°ng":4173,"pe":4174,"Ġthá»ķi":4175,"ĠgÅ©i":4176,"Ġ2000":4177,"NÃ³i":4178,"gr":4179,"Ġvirus":4180,"áº¥ng":4181,"ions":4182,"ĠHar":4183,"VáºŃy":4184,"Ġ2020":4185,"ĠnhÅ©ng":4186,"Ca":4187,"ĠHa":4188,"onda":4189,"ĠphÃ¡o":4190,"ĠvÆ°Æ¡n":4191,"ĠnhÄĥn":4192,"ĠPhÆ°á»£ng":4193,"Ġbom":4194,"EC":4195,"Ġxay":4196,"chi":4197,"ĠngoÃ¡i":4198,"Ġláº¥p":4199,"ĠPlus":4200,"ĠlÃª":4201,"ĠPháº£i":4202,"Ġhung":4203,"ĠHoÃłi":4204,"mar":4205,"ĠvÃº":4206,"IM":4207,"BS":4208,"ĠtrÄ©":4209,"ĠLá»¥c":4210,"ĠVÃłng":4211,"ĠDe":4212,"ĠcÃ¡m":4213,"na":4214,"ano":4215,"mi":4216,"ĠháºŃn":4217,"tu":4218,"ĠHe":4219,"iá»ģng":4220,"ĠThiáº¿u":4221,"ĠBao":4222,"ĠMÃł":4223,"ĠnÃ¡t":4224,"ĠquÃ¡t":4225,"ĠMac":4226,"cel":4227,"araoke":4228,"Ġpháº³ng":4229,"LÄĲ":4230,"outube":4231,"uyen":4232,"ĠMáº«u":4233,"ĠMob":4234,"Ġlá»©a":4235,"Ġmm":4236,"ĠCr":4237,"sen":4238,"ĠVÃ´":4239,"Ġáº¥p":4240,"HÃ´m":4241,"Ġlá»¡":4242,"ifi":4243,"ĠCháº³ng":4244,"Ãį":4245,"ree":4246,"ĠIS":4247,"ĠMÃ´n":4248,"ĠTÃ¹ng":4249,"ĠchÃª":4250,"ðŁ":4251,"Ġnáº¯p":4252,"má»Ļt":4253,"tre":4254,"bank":4255,"Ġkáº½":4256,"300":4257,"ET":4258,"ont":4259,"ĠlÆ°á»¡ng":4260,"ĠgÃ¡nh":4261,"54":4262,"Ġup":4263,"ĠnhÆ°á»£c":4264,"Ġnháº¯m":4265,"Ġkhoe":4266,"84":4267,"Ġthun":4268,"Ġsáº¥y":4269,"EL":4270,"olf":4271,"Ġte":4272,"uat":4273,"CÃ¢u":4274,"Ġgai":4275,"Ġham":4276,"ĠLED":4277,"Ġtivi":4278,"Ġláº§u":4279,"ĠchÃ©n":4280,"ĠDr":4281,"ĠHS":4282,"Ġtá»¥ng":4283,"ĠRá»ĵi":4284,"ĠÃ³c":4285,"kho":4286,"ĠKit":4287,"ary":4288,"ĠkhÃ´i":4289,"ĠCamp":4290,"ĠHáº±ng":4291,"ĠKiÃªn":4292,"ana":4293,"ĠToÃ¡n":4294,"2011":4295,"ĠThiá»ĩn":4296,"ĠMicro":4297,"ĠmÅ©":4298,"ĠgÃ¬n":4299,"ĠSc":4300,"ĠThá»ķ":4301,"ock":4302,"ĠBÃłn":4303,"IV":4304,"ĠlÃ¢n":4305,"ĠTÃº":4306,"Ġnhan":4307,"Ġvisa":4308,"Ġviet":4309,"Ġad":4310,"ĠMay":4311,"ĠSai":4312,"Ġá»Ľt":4313,"Ġváº¡ch":4314,"Ġváº¥t":4315,"ĠngÃło":4316,"ĠFPT":4317,"Ġnang":4318,"ĠdÃ²":4319,"74":4320,"ĀĀĀĀĀĀĀĀĀĀĀĀĀĀĀĀĀĀĀĀĀĀĀĀĀĀĀĀĀĀĀĀĀĀĀĀĀĀĀĀĀĀĀĀĀĀĀĀĀĀĀĀĀĀĀĀĀĀĀĀĀĀĀĀĀĀĀĀĀĀĀĀĀĀĀĀĀĀĀĀĀĀĀĀĀĀĀĀĀĀĀĀĀĀĀĀĀĀĀĀĀĀĀĀĀĀĀĀĀĀĀĀĀĀĀĀĀĀĀĀĀĀĀĀĀĀĀĀĀĀĀĀĀĀĀĀĀĀĀĀĀĀĀĀĀĀĀĀĀĀĀĀĀĀĀĀĀĀĀĀĀĀĀĀĀĀĀĀĀĀĀĀĀĀĀĀĀĀĀĀĀĀĀĀĀĀĀĀĀĀĀĀĀĀĀĀĀĀĀĀĀĀĀĀĀĀĀĀĀĀĀĀĀĀĀĀĀĀĀĀĀĀĀĀĀĀĀĀĀĀĀĀĀĀĀĀĀĀĀĀĀĀĀĀĀĀĀĀĀĀĀĀĀĀĀĀ":4321,"ĠgiÃ¡n":4322,"Ġquyá»ĥn":4323,"IA":4324,"Há»Ļi":4325,"BÃł":4326,"Tag":4327,"ĠÄĳiÃªn":4328,"Ġdáº¯t":4329,"Ġtiá»ĩm":4330,"ÄĲÃ³":4331,"ĠCuá»ĳi":4332,"Ġä¹":4333,"ĠXuáº¥t":4334,"LC":4335,"Ġ55":4336,"we":4337,"va":4338,"Ġgiá»įt":4339,"ĠHÃ¡n":4340,"Ġnhá»©c":4341,"Ġ|--":4342,"¨ng":4343,"ĠcÃµi":4344,"ĠSEO":4345,"ĠChÃ¢n":4346,"ĠBÄĲS":4347,"ĠbÆ¡":4348,"ĠMiá»ģn":4349,"á»ıa":4350,"Ġchuá»ĳi":4351,"Ġhá»Ł":4352,"ĠTÃ´ng":4353,"--------":4354,"ĠphÃ¢":4355,"Ġláº¡m":4356,"ĠnÆ°Æ¡ng":4357,"ĠUSB":4358,"ase":4359,"Ġvs":4360,"ĠTO":4361,"ĠvÆ°á»Ľng":4362,"ĠSyria":4363,"Ġblog":4364,"ĠNghiÃªn":4365,"Ġ120":4366,"ĠkhoÃ¡i":4367,"Ġ06":4368,"nhÆ°":4369,"ĠDa":4370,"ĠToy":4371,"Ġá»ĳp":4372,"ics":4373,"Ġláº¯c":4374,"Ġrá»¥ng":4375,"Ġkhuy":4376,"ĠTráº»":4377,"EAN":4378,"Ġrá»Ļn":4379,"Cáº§n":4380,"Ġhiáº¿u":4381,"Ġtá»±u":4382,"gon":4383,"Ġcai":4384,"ĠGame":4385,"Ġhiá»ģn":4386,"ĠmÄĥng":4387,"Ġqui":4388,"/.":4389,"ĠsÃºt":4390,"ĠghÃ©t":4391,"Ġ07":4392,"ĠláºŃu":4393,"Ġngáº§n":4394,"Ġxá»ķ":4395,"AC":4396,"Ġnhá»ī":4397,"ĠReal":4398,"náº¿u":4399,"ĠhoÃłi":4400,"ĠNháºŃn":4401,"ĠÄĳun":4402,"Ġxá»ī":4403,"ĠOr":4404,"Ġmá»Ļc":4405,"Ġman":4406,"Ġngá»©a":4407,"ĠNguyá»ĩt":4408,"ner":4409,"Ġnu":4410,"ĠdÆ°a":4411,"ĠGroup":4412,"Ġlá»ģ":4413,"ĠLá»Ŀi":4414,"ute":4415,"ĠPhÃ¢n":4416,"eth":4417,"Video":4418,"Ġdai":4419,"ĠtÆ¡":4420,"Kho":4421,"ĠTim":4422,"Ġhoáº¡i":4423,"áº·m":4424,"63":4425,"âĢ¢":4426,"ĠFl":4427,"Ġlá»Ļn":4428,"Xe":4429,"Ġmini":4430,"ta":4431,"Ġngá»£i":4432,"ĠFr":4433,"ĠAs":4434,"GS":4435,"Ġdiá»ĩu":4436,"ĠHÄĲND":4437,"ĠrÃł":4438,"Ġ34":4439,"ĠGiá»Ŀ":4440,"Ġthoáº£ng":4441,"72":4442,"bps":4443,"áº¦":4444,"âĢĭ":4445,"book":4446,"Ġláº·p":4447,"Ġtá»ıi":4448,"ĠlÃ¹i":4449,"ĠbÃ´":4450,"reen":4451,"Ã½t":4452,"Ġ75":4453,"ĠtrÄĥng":4454,"Ġgiang":4455,"Ġbá»ıng":4456,"ĠChá»©ng":4457,"ĠCÃł":4458,"ĠIP":4459,"Ġngoan":4460,"ĠÄĲáº¿":4461,"Ġmáº¯m":4462,"ĠrÃ¨m":4463,"83":4464,"oan":4465,"ĠÃģnh":4466,"ollagen":4467,"Ġnhá»ĭ":4468,"TH":4469,"aster":4470,"ĠbuÃ´ng":4471,"Ġ600":4472,"Ġchay":4473,"ĠtÃ¹ng":4474,"ĠÄĳáº¯n":4475,"Ġ33":4476,"phcm":4477,"ĠÃģo":4478,"ĠShop":4479,"Ġtrá»į":4480,"Ġled":4481,"ĠmÃ¨o":4482,"Ġcháº©n":4483,"ĠmÃ´ng":4484,"ĠnhÃ£":4485,"ohn":4486,"ĠcÃ´n":4487,"ĠgÃ£":4488,"Ġtá»ĭnh":4489,"ĠHonda":4490,"ĠluÃ¢n":4491,"ĠPhilipp":4492,"ĠHiá»ģn":4493,"LÆ°u":4494,"onesia":4495,"ĠrÃ¡p":4496,"ĠMad":4497,"Qua":4498,"báº¥t":4499,"ĠgiÆ¡":4500,"ĠsÆ°ng":4501,"ĠCal":4502,"Chiá»ģu":4503,"ĠhÆ°u":4504,"Ġsh":4505,"ĠCA":4506,"ĠSÃ¡ch":4507,"ĠCáº©m":4508,"ĠTrinh":4509,"ĠlÃ©o":4510,"Ġ39":4511,"ek":4512,"ero":4513,"Ġnguyá»ĩt":4514,"Dá»ĭch":4515,"itcoin":4516,"ĠIt":4517,"Ġbong":4518,"ĠGold":4519,"LÃºc":4520,"Ġbar":4521,"ĠLÃ£nh":4522,"Ġtuyáº¿t":4523,"KH":4524,"ĠtÃ¢":4525,"LÃłm":4526,"ĠTháº©m":4527,"ĠQU":4528,"min":4529,"ĠChr":4530,"Ġkeo":4531,"undai":4532,"ĠKiáº¿m":4533,"ĠPC":4534,"Ġmá»ı":4535,"ÃĬN":4536,"ĠlÃ¹ng":4537,"Ġruá»Ļng":4538,"ĠVáºŃn":4539,"ĠÄĳÃ¹a":4540,"sub":4541,"ĠNhÆ¡n":4542,"NhÃ¢n":4543,"Ġthá»ĭnh":4544,"UBND":4545,"Ð»":4546,"ĠPhá»ĳ":4547,"ĠToyota":4548,"ĠMo":4549,"Ġ250":4550,"ale":4551,"soft":4552,".[":4553,"ĠMÃłu":4554,"ĠTop":4555,"Pháº§n":4556,"Bá»ĩnh":4557,"arden":4558,"Ġquá»·":4559,"edia":4560,"Ġ37":4561,"ĠhÃ²n":4562,"Ġbai":4563,"ĠNhÃ¬n":4564,"kin":4565,"ĠSiÃªu":4566,"ThÃłnh":4567,"PhÃ¡t":4568,"Ġthuáº«n":4569,"ĠCáº¥p":4570,"giá»":4571,"ĠtÃ¡m":4572,"ĠxÃło":4573,"ĠÃ¢u":4574,"ĠdÃ£y":4575,"Nam":4576,"Ġhá»¥":4577,"MÃ¬nh":4578,"ĠTÃ¡c":4579,"ĠÄĳc":4580,"ĠTrÃ¡i":4581,"ï¼":4582,"Khu":4583,"uchia":4584,"Ġ320":4585,"Tiáº¿p":4586,"Ġbuá»ĵng":4587,"ĠchiÃªm":4588,"Ã¹n":4589,"NháºŃn":4590,"ĠTÃŃn":4591,"ĠchuÃ´ng":4592,"Ġngá»¥":4593,"ĠSH":4594,"ĠQuÃ¡n":4595,"82":4596,"ĠCÃ¢y":4597,"ĠxÃ¡":4598,"Ġcá»§ng":4599,"Ġká»ī":4600,"eu":4601,"ä¸":4602,"ĠÄĲiá»ģn":4603,"2010":4604,"Ġ2007":4605,"Ġnáº¡i":4606,"Ġdá»ĳc":4607,"ĠTN":4608,"?\"":4609,"ona":4610,"ĠThá»«a":4611,"Ġmarketing":4612,"Ġhttps":4613,"Ġlá»įt":4614,"ĠASEAN":4615,"TN":4616,"Ġmo":4617,"Ġbá»ī":4618,"atch":4619,"ert":4620,"ĠnghiÃªng":4621,"ĠQuyá»ģn":4622,"ĠBu":4623,"ĠbÃ¹ng":4624,"org":4625,"ÄĲáº§u":4626,"ĠlÆ°á»Ŀng":4627,"Ġlogo":4628,"ĠmÃłi":4629,"Ġmáº¡":4630,"vÃł":4631,"ĠdáºŃp":4632,"ĠchÃªnh":4633,"Ġmáº·n":4634,"ĠkhÃ©p":4635,"Ġve":4636,"ĠmuÃ´n":4637,"Ġrá»ī":4638,"ChÃło":4639,"ĠÄĲáº£o":4640,"Ġphanh":4641,"ĠkhoÃ¡":4642,"Ġxoa":4643,"CB":4644,"ĠphÃ´":4645,"Ġå¤":4646,"ĠTháº¥t":4647,"73":4648,"Ġfull":4649,"Thá»§":4650,"ĠParis":4651,"Ġ65":4652,"Ġnáº£y":4653,"ĠÄĲÃ¨n":4654,"ĠXanh":4655,"43":4656,"à¸":4657,"Ġtro":4658,"ĠBáº£ng":4659,"ĠÄĳáº±ng":4660,"ĠIndonesia":4661,"ene":4662,"ere":4663,"Ġtráº¯c":4664,"ĠYáº¿n":4665,"ieu":4666,"Ġ;":4667,"Ġæľ":4668,"Ġprotein":4669,"Cuá»Ļc":4670,"ĠmÃ²":4671,"ĠthÃ¨m":4672,"Ġq":4673,"ĠnÃ©m":4674,"ĠNa":4675,"BÃ¬nh":4676,"Ġcuá»Ļn":4677,"ĠBang":4678,"Ġplay":4679,"ĠTháºŃm":4680,"62":4681,"ley":4682,"ĠCO":4683,"Ġdá»ĳi":4684,"Viet":4685,"ĠxÃł":4686,"ĠcÆ°á»¡ng":4687,"ĠthÆ°a":4688,"ĠHá»Ĺ":4689,"ĠÄĳÃłnh":4690,"42":4691,"Ġráº¯c":4692,"ĠEn":4693,"lu":4694,"ĠVáº¥n":4695,"for":4696,"Ġcáº¯p":4697,"ĠKÃŃch":4698,"LiÃªn":4699,"ĠVáºŃt":4700,"ĠBHXH":4701,"ĠLáºŃp":4702,"ĠvÃ²i":4703,"ĠInter":4704,"ĠmÆ°á»£n":4705,"Ġtriáº¿t":4706,"ĠFord":4707,"á»ĺ":4708,"EN":4709,"ĠÄĲá»įc":4710,"Ġsá»ī":4711,"Ġkiáº¿p":4712,"ĠLÄĥng":4713,"Ġbá»Ļi":4714,"enz":4715,"ĠPan":4716,"Ġrá»ĳt":4717,"ire":4718,"Ġkaraoke":4719,"Ġrá»ĵng":4720,"Ġdáº»o":4721,"Ġná»ĳt":4722,"ĠTá»·":4723,"ĠThÃªm":4724,"Ġis":4725,"ĠxÄĥm":4726,"ĠCen":4727,"ĠYork":4728,"Ġbáº¥y":4729,"uyÃª":4730,"Æ¯u":4731,"ĠHáº§u":4732,"ext":4733,"Ġyáº¿t":4734,"ĠTáº¿":4735,"ĠmÄĥ":4736,"ĠVinhomes":4737,"ĠXuyÃªn":4738,"ĠPhá»§":4739,"ĠhÃ²":4740,"Há»ĩ":4741,"Chá»ĭ":4742,"che":4743,"ĠChá»£":4744,"ĠkÃ¨o":4745,"Ġcont":4746,"agr":4747,"ĠvÃ³c":4748,"raz":4749,"ĠKhang":4750,"Ġchá»£t":4751,"Ġ48":4752,"ĠNo":4753,"FF":4754,"áº¿ch":4755,"ĠMer":4756,"á»Ĭ":4757,"Ġlung":4758,"ĠthÃ¬a":4759,"ĠCá»Ńu":4760,"ĠvÃ¢y":4761,"Ġä½":4762,"Ġwin":4763,"199":4764,"ize":4765,"ĠMÃ¹a":4766,"á»ĩn":4767,"Ġsuá»ĳi":4768,"ĠThÃ¡p":4769,"ĠngÃ´":4770,"www":4771,"ĠLH":4772,"Ġláº¥n":4773,"Ġtru":4774,"ĠBay":4775,"Ãºm":4776,"Ġcáº¯n":4777,"Ġnghá»ĭch":4778,"Ðº":4779,"Ġcar":4780,"ĠhÆ¡":4781,"ĠAng":4782,"Ġdá»ĵi":4783,"ĠhÃ¡i":4784,"ĠOne":4785,"ĠcÃłnh":4786,"Ġpho":4787,"Ġcá»įc":4788,"ka":4789,"QuÃ½":4790,"Ġkhá»Ń":4791,"ĠTÆ°á»Ŀng":4792,"ĠtÆ°á»Ľi":4793,",..":4794,"56":4795,"ason":4796,"ĠSÃ´ng":4797,"lymp":4798,"Ġåħ":4799,"ĠCampuchia":4800,"Ãĵ":4801,"áº¿m":4802,"Ġrá»ħ":4803,"ĠHP":4804,"iano":4805,"ĠÄĳáº·n":4806,"ĠthiÃª":4807,"Ġle":4808,"ThÃ¡ng":4809,"ĠSony":4810,"col":4811,"ĠÄĳiá»ģn":4812,"ĠnÃ´n":4813,"Ġ<":4814,"ĠLá»ĩ":4815,"ames":4816,"Ban":4817,"ĠTuyáº¿t":4818,"Ġná»©t":4819,"ĠmÃºa":4820,"ĠláºŃt":4821,"ĠGS":4822,"Ġsá»ĳc":4823,"ĠMod":4824,"ĠxÃŃch":4825,"Ľt":4826,"ĠBÃ¡":4827,"Ġ1000":4828,"ĠGu":4829,"less":4830,"ĠMau":4831,"ĠMÃ´":4832,"áº»m":4833,"TX":4834,"&#":4835,"ĠmÆ°á»£t":4836,"ĠÄĲáº¡t":4837,"ĠJohn":4838,"oly":4839,"QT":4840,"ĠxÃ¡m":4841,"ĠbÃ³p":4842,"ĠCai":4843,"ĠPrem":4844,"YT":4845,"Ġnhang":4846,"ĠÄĤn":4847,"HÃ¬nh":4848,"ĠTrÃ¬nh":4849,".,":4850,"Ġthuá»·":4851,"Ġmp":4852,"ĠHi":4853,"ĠPhilippines":4854,"Viá»ĩt":4855,"ĠÆ¯":4856,"Ġngá»Ļt":4857,"âĢĶ":4858,"Ġhat":4859,"ĠLiÃªm":4860,"let":4861,"cÃ¡c":4862,"==":4863,"Ġ64":4864,"ux":4865,"ĠÄĳáº¯ng":4866,"ence":4867,"Ġcá»ĵn":4868,"58":4869,"eck":4870,"ĠlÆ°á»Ľt":4871,"Ġ99":4872,"SN":4873,"ĠNghiá»ĩp":4874,"list":4875,"Pad":4876,"Ġtphcm":4877,"ĠBÃ¡ch":4878,"Xin":4879,"ĠTM":4880,"Ġmanh":4881,"ĠCháº¯c":4882,"Ġxen":4883,"ĠÄĳá»Ľi":4884,"ÄĤ":4885,"Ġfacebook":4886,"lÃłm":4887,"ĠrÃ´":4888,"press":4889,"Ġthá»īnh":4890,"ĠQuá»¹":4891,"Ġæĺ":4892,"Ġráº¡ng":4893,"ĠThuá»ĳc":4894,"ĠCT":4895,"Má»įi":4896,"ĠMon":4897,"Ġtui":4898,"CD":4899,"IT":4900,"Ġtrinh":4901,"Ġkhoáº£nh":4902,"ĠthÃ¡m":4903,"Ġtoa":4904,"ĠMax":4905,"./.":4906,"ĠSch":4907,"ott":4908,"iel":4909,"ĠngÆ°ng":4910,"ĠRo":4911,"á»°":4912,"ĠmÃ¢u":4913,"ÃĮ":4914,"Ġkiá»ĩt":4915,"ĠOlymp":4916,"ĠLáº§n":4917,"ĠTranh":4918,"ĠKitÃ´":4919,"KhÃ¡ch":4920,"bao":4921,"US":4922,"ĠHiáº¿u":4923,"Ġnhá»Ł":4924,"ĠTáº§n":4925,"ĠKhai":4926,"ĠTáº¡o":4927,"ĠHotline":4928,"Ġnghiá»ĩn":4929,"Ġ2006":4930,"ĠSeo":4931,"á»Ńng":4932,"ĠThÃºy":4933,"bon":4934,"earl":4935,"Ġhotline":4936,"á»¤":4937,"Ġrun":4938,"ĠVáº¡n":4939,"ĠthiÃªng":4940,"=\"":4941,"AL":4942,"Ġdá»ĵn":4943,"Ġlui":4944,"ngh":4945,"ĠnÆ°Æ¡":4946,"Há»įc":4947,"ĠPal":4948,"Ġ800":4949,"sea":4950,"Ġgu":4951,"ĠtrÆ¡":4952,"ĠCÄĲ":4953,"Ġuá»ĳn":4954,"Ġvá»Ł":4955,"ĠIII":4956,"ĠChiáº¿c":4957,"Ġluá»ĵng":4958,"ĠGarden":4959,"gia":4960,"ĠTHCS":4961,"ĠTre":4962,"ĠÄĲan":4963,"low":4964,"Ġhá»¥t":4965,"Ġview":4966,"ĠRiÃªng":4967,"Ġsi":4968,"ict":4969,"ĠÄĳáº¡m":4970,"ĠDiá»ĩp":4971,"ĠxÆ°ng":4972,"ĠsÃ©t":4973,"ĠNÄĥng":4974,"ĠRob":4975,"PhÃ²ng":4976,"ĠHyundai":4977,"ĠkiÃªng":4978,"ĠBáº¡c":4979,"Ġviá»ģn":4980,"ki":4981,"ĠQuáº£":4982,"Â»":4983,"Ġä¸į":4984,"ĠgÃ¡c":4985,"ĠchÃ¡o":4986,"Ġhe":4987,"ĠÆ°":4988,"ĠgÃµ":4989,"Ġyáº¿n":4990,"ĠAP":4991,"ĠÄĲÃłn":4992,"ĠMÆ°á»Ŀi":4993,"cho":4994,"dr":4995,"ĠVua":4996,"tra":4997,"ĠxÃ´i":4998,"onald":4999,"Ġchá»Ńi":5000,"ĠhÃª":5001,"ĠSá»©c":5002,"udio":5003,"DA":5004,"Ġkhiáº¿t":5005,"ĠÄĳáº¡c":5006,"ĠHuá»ĩ":5007,"Gia":5008,"hoáº·c":5009,"400":5010,"57":5011,"Ġgo":5012,"ĠkiÃª":5013,"ĠdÅ©ng":5014,"ory":5015,"Ġtrá»«ng":5016,"Ġdá»Ļi":5017,"cr":5018,"agon":5019,"ĠBi":5020,"ital":5021,"Ġtáº¡":5022,"ĠÄĳinh":5023,"ĠTáº£i":5024,"ĠÄĲÃ´i":5025,"ĠChá»įn":5026,"Ġdá»Ł":5027,"Ġä¸įbáº¥t":5028,"tá»«":5029,"Ġdáº£i":5030,"Thanh":5031,"Ġwww":5032,"ĠTÆ°Æ¡ng":5033,"An":5034,"Ġbáº¿":5035,"Ġloi":5036,"ĠXS":5037,"ĠCá»ĳ":5038,"ĠNguá»ĵn":5039,"ĠBÃ¡t":5040,"chá»ī":5041,"ĠlÃ¢":5042,"OR":5043,"ĠTruyá»ĩn":5044,"CÆ¡":5045,"Ġ42":5046,"ĠÄĳá»įng":5047,"ĠCÃ¡":5048,"ĠÃ´tÃ´":5049,"ĠÄĲÃ¡nh":5050,"ĠÄĳan":5051,"enc":5052,"Ġres":5053,"Ġby":5054,"etro":5055,"Ġdáº¡i":5056,"Ġcáº¡n":5057,"ĠSup":5058,"ĠTÃ¹y":5059,"lines":5060,"iverside":5061,"Ġcuá»ĵng":5062,"ĠÄĳÃŃnh":5063,"Giáº£i":5064,"Má»Ľi":5065,"ĠkÃ©p":5066,"ĠÄĳá»¥c":5067,"Ġlá»¥":5068,"Ġchip":5069,"Ġki":5070,"MB":5071,"ane":5072,"ĠxÃ³t":5073,"Ġchá»ĳn":5074,"ĠXi":5075,"Ġgas":5076,"ĠMe":5077,"ĠchÃ¬a":5078,"ĠtÃł":5079,"okia":5080,"Ba":5081,"Cá»¥":5082,"ya":5083,"Ġcanxi":5084,"ji":5085,"Ġrá»ĩt":5086,"ĠCáºŃp":5087,"ĠDiá»ĩu":5088,"ĠÄĳá»©t":5089,"ĠMU":5090,"Ġcháº·ng":5091,"ower":5092,"ger":5093,"Ġtaxi":5094,"ĠÄĳáº¿m":5095,"li":5096,"ĠsÆ°á»Ŀn":5097,"ĠkhÆ¡i":5098,"Ġyou":5099,"ĠkiÃªm":5100,"TÃ¬nh":5101,"ĠFull":5102,"52":5103,"Ġá»¨ng":5104,"ĠÄĲiá»ĥn":5105,"Tui":5106,"ĠlÅ©y":5107,"Ta":5108,"áºłI":5109,"ÄĲÃ£":5110,"NhÃ¬n":5111,"BTC":5112,"ĠAus":5113,"Sá»Ł":5114,"AG":5115,"mer":5116,"Ġ49":5117,"Ġdá»ĩt":5118,"ĠAt":5119,"ĠhÆ°ng":5120,"Ġxao":5121,"ura":5122,"The":5123,"Ġkhoang":5124,"á»ĩm":5125,"ĠViá»ħn":5126,"ĠWh":5127,"ĠNgÅ©":5128,"ĠEU":5129,"ĠSen":5130,"Ġ2005":5131,"ĠÄĳá»¥ng":5132,"Lu":5133,"ĠrÃ¢":5134,"ĠrÃ¡o":5135,"NguyÃªn":5136,"Ġcá»±":5137,"ĠWebsite":5138,"ĠSá»Ńa":5139,"ĠnhÃŃ":5140,"Cuá»ĳi":5141,"áº¤T":5142,"ĠMicrosoft":5143,"ĠTuá»ķi":5144,"ari":5145,"INH":5146,"600":5147,"ĠChÆ°a":5148,"ĠBÃŃch":5149,"tin":5150,"Ġni":5151,"ĠhoÃłnh":5152,"ĠNgÃ£i":5153,"Ġgá»«ng":5154,"ĠXÃ´":5155,"Ná»Ļi":5156,"HÆ¡n":5157,"ae":5158,"ĠÃło":5159,"Mua":5160,"ĠgÃ£y":5161,"ĠèĢ":5162,"ĠLá»±c":5163,"vÃ´":5164,"ĠGáº§n":5165,"Ġdáº¹p":5166,"Ġngá»±":5167,"ĠHang":5168,"ĠÄĲáº·t":5169,"Iáº¾":5170,"nháº¥t":5171,"Ñĥ":5172,"41":5173,"Ġná»į":5174,"800":5175,"TÃ¬m":5176,"Ġky":5177,"ĠvÃ¡n":5178,"Ãļ":5179,"FA":5180,"ĠTá»©":5181,"Má»¹":5182,"ĠBÆ°á»Ľc":5183,"Ġtáº£n":5184,"53":5185,"TháºŃt":5186,"ance":5187,"ĠPhÃ¹":5188,"ĠLáº¡i":5189,"ĠcÃºi":5190,"ĠbÃłng":5191,"ĠbÃ¡ch":5192,"ĠNghi":5193,"Ġnhá»¥c":5194,"Máº·t":5195,"MP":5196,"thá»ĭ":5197,"81":5198,"Ġá»ĳm":5199,"ĠsÃºc":5200,"ĠAb":5201,"á»Ľn":5202,"elsea":5203,"ĠquÃ£ng":5204,"ann":5205,"ĠÄĳáº¯m":5206,"ĠÄĲáº¹p":5207,"áº¢nh":5208,"port":5209,"ti":5210,"Ġphe":5211,"ĠchÃ¢":5212,"ĠÄĲÃ¡":5213,"Ġcá»į":5214,"Ġå¾":5215,"hip":5216,"ĠÄĲáº¯k":5217,"Ġcá»Łi":5218,"ĠgiÃ²n":5219,"ĠBÃ¢y":5220,"2009":5221,"Ġháº¡ch":5222,"Tham":5223,"ĠxÆ°á»Ľc":5224,"lin":5225,"ĠVideo":5226,"Ġvá»ĭt":5227,"MS":5228,"eng":5229,"].":5230,"ega":5231,"ĠHáº¯n":5232,"ĠKÃŃnh":5233,"Ġlá»į":5234,"Ġá»§":5235,"ĠVal":5236,"tralia":5237,"Ġhá»ĳ":5238,"cÃ´ng":5239,"AP":5240,"ĠvÃłnh":5241,"RO":5242,"ĠBÃ³ng":5243,"Ġquáº§y":5244,"ĠChiá»ģu":5245,"mail":5246,"ĠNÃłng":5247,"ĠHoÃł":5248,"Cua":5249,"ĠHiáº¿n":5250,"Ġdáº·n":5251,"ĠBá»ĭ":5252,"ise":5253,"'s":5254,"ĠThá»©c":5255,"ĠbÃ£":5256,"Ġgáº¯t":5257,"Sá»Ń":5258,"ĠTai":5259,"ĠKá»·":5260,"ĠCÆ°":5261,"Tags":5262,"wit":5263,"ĠHÃłm":5264,"tá»±":5265,"Ġvo":5266,"ĠComp":5267,"ĠnghiÃª":5268,"Tin":5269,"ĠCáºŃu":5270,"ĠtrÃ¢u":5271,"uong":5272,"Ġeo":5273,"Ġráº½":5274,"ĠDÃ²ng":5275,"ĠCá»§a":5276,"ler":5277,"BÃ¡o":5278,"Ãºn":5279,"ors":5280,"album":5281,"Ġbá»ĵ":5282,"ĠSaigon":5283,"ï¿½ï¿½":5284,"ĠsÃ¡p":5285,"Ġnhá»Ŀn":5286,"ĠCty":5287,"ĠbÃ¹n":5288,"ĠSte":5289,"ĠTay":5290,"ĠLÆ°á»£ng":5291,"Ġbáº¡t":5292,"Ġ43":5293,"ĠngÃ¢y":5294,"Ġvoi":5295,"ĠLG":5296,"ĠtÃ¡nh":5297,"ĠSam":5298,"ĠBo":5299,"Ìģ,":5300,"Ġau":5301,"ĠAirlines":5302,"táº£i":5303,"room":5304,"razil":5305,"ita":5306,"Ġkhá»ĳng":5307,"gh":5308,"ĠBlack":5309,"ĠrÃ¢u":5310,"PhÆ°Æ¡ng":5311,"ĠvÆ°á»£ng":5312,"ode":5313,"ced":5314,"ĠEuro":5315,"ited":5316,"Ġháº£":5317,"ĠTrÃ¬":5318,"ĠTá»ĳt":5319,"ĠtÃ³m":5320,"ĠSky":5321,"ĠBV":5322,"ĠChÃº":5323,"Ġit":5324,"vent":5325,"ĠMadrid":5326,"igh":5327,"Ġstr":5328,"Hoa":5329,"CuaTui":5330,"ĠItal":5331,"ĠCB":5332,"ĠCap":5333,"ĠNhacCuaTui":5334,"Ġdá»Ĺ":5335,"ĠbÃ¡u":5336,"ĠtrÃ¹m":5337,"ts":5338,"Ġlen":5339,"Ġgáº¡t":5340,"rl":5341,"ÃĤN":5342,"ĠBá»ĳ":5343,"ĠStar":5344,"ĠHÃĢ":5345,"KT":5346,"ĠThiá»ģn":5347,"Ġ700":5348,"á»£p":5349,"iew":5350,"aul":5351,"Ġmáº¹o":5352,"ĠKhÃª":5353,"ĠDá»¥ng":5354,"ĠLand":5355,"ĠChamp":5356,"ĠGÃ²":5357,"ĠgÃłng":5358,"CÃ¡i":5359,"nhÃ¢n":5360,"âĢ¦âĢĿ":5361,"Ġnhá»Ļn":5362,"ĠSal":5363,"Kinh":5364,"di":5365,"Ġcáº¥y":5366,"ĠSÃ¡u":5367,"ĠChá»©c":5368,"ĠlÆ°":5369,"ĠtÃ²":5370,"Ġkáº¹o":5371,"ĠViÃª":5372,"Ġacid":5373,"ĠphÃ¬":5374,"ĠÄĳÃ²n":5375,"ĠçĦ":5376,"TVT":5377,"Ġthon":5378,"61":5379,"Chi":5380,"ĠTÆ°á»Ľng":5381,"Ġtrá»ħ":5382,"ena":5383,"ĠCháº¿":5384,"ĠdÃª":5385,"Ġxoáº¯n":5386,"2008":5387,"AND":5388,"71":5389,"ĠgiÃłn":5390,"Ġoff":5391,"Ġåı":5392,"ĠÄĳÄĥ":5393,"ĠPháº©m":5394,"ĠNote":5395,"ĠMáºŃu":5396,"Ġvá»ī":5397,"Ġxá»ĭt":5398,"ĠNS":5399,"ĠPhÃ¹ng":5400,"Ġgá»ī":5401,"á»¦":5402,"wer":5403,"ola":5404,"Quy":5405,"Ġá»§i":5406,"ĠTrÃºc":5407,"ĠnhÃ¬":5408,"TB":5409,"Báº£n":5410,"Ġke":5411,"rom":5412,"ĠOb":5413,"Sá»ĳ":5414,">>":5415,"TÃŃnh":5416,"ĠNhÄ©":5417,"MÃ¹a":5418,"Ġbá»įt":5419,"ĠÄĳÃ¹i":5420,"ĠVá»«a":5421,"ÄĲiá»ĥm":5422,"ĠiPad":5423,"ney":5424,"ĠGiÃ¡p":5425,"ĠKiá»ĩt":5426,"ĠPhá»¥c":5427,"Thu":5428,"ÃĿ":5429,"ĠDV":5430,"Ġsá»ıi":5431,"AI":5432,"Ġgay":5433,"ĠChelsea":5434,"Ġlaser":5435,"Ġloss":5436,"les":5437,"oss":5438,"Ġdong":5439,"ĠMarketing":5440,"ĠÄĲáº¥ng":5441,"ĠLang":5442,"eal":5443,"ĠOff":5444,"ĠCamera":5445,"ĠVNÄĲ":5446,"QG":5447,"MÃ´":5448,"á»Ľc":5449,"ĠTuyá»ĥn":5450,"ĠMobile":5451,"VÄĥn":5452,"by":5453,"ĠAustralia":5454,"Ġcollagen":5455,"ĠBÄĥng":5456,"ĠKy":5457,"Ġlá»¥a":5458,"Ġrang":5459,"Ġxáº¯n":5460,"ĠGiÃºp":5461,"ĠTráº¡ch":5462,"ĠYou":5463,"Ġuáº¥t":5464,"Ġplaylist":5465,"ĠBitcoin":5466,"ĠBáº£y":5467,"ĠBrazil":5468,"ĠRiverside":5469,"ĠÄĲÃºng":5470,"HÆ°á»Ľng":5471,"ĠBÃ©":5472,"ĠÄĳiÃªu":5473,"Æ°Æ¡m":5474,"ĠcháºŃt":5475,"ĠMang":5476,"oáº¡n":5477,"ashing":5478,"ĠChuyá»ĩn":5479,"ĠChÃ¹a":5480,"ĠViáº¿t":5481,"!\"":5482,"Ġvá»Ĺ":5483,"DC":5484,"Ġkiá»ģm":5485,"ĠGh":5486,"Ġkhuáº¥t":5487,"Ġháº»m":5488,"kr":5489,"ĠhÃŃt":5490,"ĠBS":5491,"ĠbÄĥ":5492,"Ġnháº¥p":5493,"Ġfl":5494,"EM":5495,"Thay":5496,"Ġalbum":5497,"Ġlossless":5498,"ĠNews":5499,"ife":5500,"erry":5501,"ĠIran":5502,"Bank":5503,"Ġ95":5504,"Máº«u":5505,"ĠMil":5506,"Äģ":5507,"ĠSÃ³c":5508,"ĠxÃ¬":5509,"ifone":5510,"ĠVill":5511,"ĠMá»©c":5512,"ational":5513,"Ġngáº«u":5514,"Ġngáº¡ch":5515,"Ġwifi":5516,"ins":5517,"ĠTruy":5518,"ĠlÃ¡nh":5519,"Ġláº·n":5520,"TáºŃp":5521,"Ġlog":5522,"ĠKem":5523,"ĠmÃ£nh":5524,"Ġåį":5525,"¯a":5526,"Ġchá»Ľ":5527,"ĠMuá»ĳn":5528,"ashington":5529,"ĠTriá»ĥn":5530,"Ġnhá»įn":5531,"ĠtrÃ¡n":5532,"ĠQuÃ¡":5533,"ĠgáºŃt":5534,"ron":5535,"Ġnáº¿n":5536,"ĠbÃ³c":5537,"Nguyá»ħn":5538,"ĠtÃº":5539,"ĠdÃło":5540,"ĠlÆ°Æ¡":5541,"ĠchÃ©m":5542,"way":5543,"ĠðŁ":5544,"Ġspa":5545,"))":5546,"ĠThuáºŃt":5547,"ĠLá»Ļ":5548,"Ġlá»Ļt":5549,"Ġtap":5550,"aki":5551,"ĠCÃºc":5552,"Ġkáº¹t":5553,"ings":5554,"AD":5555,"Ġä»":5556,"aphone":5557,"Ġlanh":5558,"onaldo":5559,"ĠTrÆ°ng":5560,"ĠNi":5561,"ĠHá»Ļ":5562,"tá»©c":5563,"Ġsá»¥p":5564,"ĠÄĳá»ĳng":5565,"ĠÄĲÃłm":5566,"ĠTáº¡p":5567,"uatui":5568,"ĠmiÃªu":5569,"ĠBáº¿p":5570,"ll":5571,"Ġgá»Ļi":5572,"que":5573,"Ġlá»Ł":5574,"rael":5575,"ĠhÆ°á»Ľc":5576,"unt":5577,"ooth":5578,"KS":5579,"Ġnan":5580,"Ráº¥t":5581,"cuatui":5582,"ĠxÃ´":5583,"Ġ85":5584,"ÄĲá»ĭa":5585,"erm":5586,"ĠGreen":5587,"ĠkhÃŃa":5588,"ĠLiá»ĩu":5589,"Ġdáº·m":5590,"ĠMC":5591,"Ġpost":5592,"ĠHÃ£ng":5593,"Ġkhao":5594,"ĠGT":5595,"ĠquÃŃ":5596,"Ġkbps":5597,"ĠTá»§":5598,"ĠIm":5599,"ĠCNTT":5600,"Ġïĥ":5601,"ĠSang":5602,"ĠVá»ĩ":5603,"ĠchÃł":5604,"AO":5605,"ĠVan":5606,"ream":5607,"ĠKháº£":5608,"ban":5609,"Ġgolf":5610,"Ġdá»Ŀi":5611,"bur":5612,"Ġmuá»Ĺi":5613,"ĠKÃ½":5614,"aza":5615,"98":5616,"ĠRom":5617,"Le":5618,"ĠTour":5619,"Ġxáº£o":5620,"Ġgen":5621,"ĠnhÆ°á»Ŀng":5622,"Ġtrá»ĩt":5623,"ĠNhaccuatui":5624,"ĠChuyá»ĥn":5625,"ĠMáº¡ng":5626,"ĠhÃ´ng":5627,"ĠNhÃ³m":5628,"ĠmÃ¢m":5629,"ĠSÃ¢n":5630,"ĠHiá»ĥu":5631,"ĠLÃ£o":5632,"Ġnghiá»ĩt":5633,"Du":5634,"Vá»ĭ":5635,"ĠMáº¡c":5636,"å¤":5637,"Ġnháº·t":5638,"Ġ47":5639,"ĠVP":5640,"Ġgá»ĳm":5641,"ĠTuáº§n":5642,"ĠÂ«":5643,"Ġ44":5644,"Ġluá»Ļc":5645,"theo":5646,"ĠKháº£i":5647,"Æ¡ng":5648,"ĠBro":5649,"ĠTá»³":5650,"Ġniá»ĩu":5651,"ĠSP":5652,"ives":5653,"Ġvuá»ĳt":5654,"ĠPet":5655,"ĠtÃ¡t":5656,"Ġá»Ĳ":5657,"ĠLiÃªu":5658,"ĠTá»ĳi":5659,"ĠHN":5660,"Ġráº¡p":5661,"ĠVÃĢ":5662,"AY":5663,"ĠÄĳÃ£ng":5664,"otel":5665,"Ġngáº¯t":5666,"ĠDonald":5667,"ĠKhÃŃ":5668,"NÆ°á»Ľc":5669,"isa":5670,"ĠDT":5671,"iforn":5672,"ĠdÃ©p":5673,"Ø§":5674,"Hz":5675,"ĠHong":5676,"Ġkháº½":5677,"uki":5678,"Ġtá»³":5679,"Home":5680,"ery":5681,"irc":5682,"gen":5683,"Ġlá»ĳp":5684,"HÃłng":5685,"................................":5686,"ĠkhiÃªm":5687,"ther":5688,"Ġgr":5689,"ĠÄĲá»ı":5690,"uto":5691,"itar":5692,"ĠSá»ĳng":5693,"Ġmodel":5694,"ĠâĨ":5695,"Há»ĵ":5696,"Ġnhá»ĭn":5697,"Ġlá»Ļi":5698,"ONG":5699,"arm":5700,"ĠchÃ´n":5701,"ĠHoáº¡t":5702,"ĠUá»·":5703,"Ġmy":5704,"ietnam":5705,"Ġsá»Ŀ":5706,"Ġgom":5707,"ĠWashington":5708,"áº¿ng":5709,"Ġcáº±m":5710,"ĠCÃĶNG":5711,"ĠBlu":5712,"ĠMich":5713,"ĠHan":5714,"ĠLá»Ľp":5715,"hay":5716,"ĠRa":5717,"tion":5718,"ĠCÆ°Æ¡ng":5719,"Cáº£m":5720,"ĠThuáº¿":5721,"ifornia":5722,"ĠcÃ³c":5723,"ondon":5724,"inho":5725,"Ġuá»·":5726,"ĠCháº¥p":5727,"Ġ46":5728,"Ġset":5729,"Ġgá»Łi":5730,"Ġmuá»Ĺng":5731,"Ġrá»ĥ":5732,"á»£t":5733,"ChuyÃªn":5734,"ĠDuyÃªn":5735,"Ġ41":5736,"ĠCro":5737,"Ġbanh":5738,"Ġgiáº¿ng":5739,"Ġcháº£o":5740,"oga":5741,"ĠTá»ĳng":5742,"ĠCor":5743,"ĠAM":5744,"car":5745,"Ġcard":5746,"ĠTrÄĥng":5747,"ĠMc":5748,"ĠÆ¯u":5749,"van":5750,"Ġas":5751,"Ġranh":5752,"ĠsÃ¹i":5753,"Ġngá»¥c":5754,"aomi":5755,"ĠKhá»ĳi":5756,"Ġä¸Ģ":5757,"Ġnhuyá»ħn":5758,"Ġex":5759,"otor":5760,"ĠchÃ¬":5761,"ĠGrand":5762,"ĠloÃ©t":5763,"ĠMin":5764,"ĠIsrael":5765,"Ġbá»Ļc":5766,"ĠBiáº¿t":5767,"ĠTá»ĭnh":5768,"ĠBÃ¡nh":5769,"ele":5770,"Ġtuá»³":5771,"Ġoan":5772,"ĠBiá»ĩt":5773,"%)":5774,"Ġkhiáº¿p":5775,"icon":5776,"Ġtá»ĵi":5777,"Ġtáº¡ng":5778,"Ġváº¯t":5779,"ĠMong":5780,"ĠÄĳÃ¨":5781,"ĠCD":5782,"ĠrÃ¡ch":5783,"Ñı":5784,"ĠbÆ°u":5785,"ĠRAM":5786,"So":5787,"á»Ķ":5788,"><":5789,"aka":5790,"ĠïĢ½":5791,"Ġ110":5792,"der":5793,"Æ¯Æł":5794,"Ñĭ":5795,"HD":5796,"ĠVND":5797,"Ġphot":5798,"ĠResort":5799,"DÆ°á»Ľi":5800,"Ġchá»įc":5801,"Ġ51":5802,"ĠmÃło":5803,"ĠphÆ°á»Ľc":5804,"Ġvá»©":5805,"ĠhÆ°Æ¡":5806,"ĠJe":5807,"vÃ¢n":5808,"ĠgÃ²":5809,"Ãµm":5810,"ĠchÃ¹m":5811,"alog":5812,"outh":5813,"ĠGiai":5814,"ĠCu":5815,"ĠArsen":5816,"ĠTho":5817,"ĠtoÃł":5818,"Ġ900":5819,"Ġcau":5820,"ainer":5821,"Ġmá»īm":5822,"Ġcá»Ľ":5823,"ĠVui":5824,"tÆ°Æ¡ng":5825,"ĠBÃ£i":5826,"ĠPer":5827,"ĠDav":5828,"istan":5829,"ĠGo":5830,"ĠHá»ıa":5831,"apa":5832,"ĠbÃºn":5833,"http":5834,"ĠTag":5835,"ĠÄĲá»Ļc":5836,"ĠPhiÃªn":5837,"ĠSil":5838,"Ġrong":5839,"ĠKháº¯c":5840,"ĠKhá»Łi":5841,",âĢĿ":5842,"uck":5843,"ĠVTV":5844,"ĠNhiá»ĩt":5845,"96":5846,"æľ":5847,"ĠCM":5848,"ĠOlympic":5849,"ĠNhuáºŃn":5850,"Ġnguá»Ļi":5851,"Ġat":5852,"ody":5853,"ĠchiÃª":5854,"ĠNgá»¯":5855,"ĠHome":5856,"St":5857,"ĠæŃ":5858,"ĠKhoáº£n":5859,"Ð°Ð":5860,"ĠçĶ":5861,"âľ":5862,"ĠEmail":5863,"Ġnhiáº¿p":5864,"ĠbuÃ½t":5865,"ĠxuÃ´i":5866,"51":5867,"phá»¥c":5868,"ĠShi":5869,"ĠTC":5870,"ater":5871,"UYá»":5872,"ĠRá»ĭa":5873,"ĠMess":5874,"Cl":5875,"Ġtest":5876,"ĠloÃ£ng":5877,"Ġ2004":5878,"ĠHO":5879,"ĠTráº¯ng":5880,"ĠiOS":5881,"Ġpr":5882,"ĠCas":5883,"Ġmá»§":5884,"Å©a":5885,"Ġviáº¿ng":5886,"ĠSV":5887,"ĠAngel":5888,"ĠlÆ°á»Ŀi":5889,"ĠSU":5890,"eta":5891,"ĠSE":5892,"ĠLondon":5893,"ĠsÆ°á»Łi":5894,"ĠMart":5895,"Æ¯á»ľ":5896,"ĠChampions":5897,"ĠPS":5898,"Cháº¥t":5899,"ĠNGH":5900,"TÆ°":5901,"Ġmuá»Ļi":5902,"Ġáº¢":5903,"Ġbá»«ng":5904,"ĠDis":5905,"ĠGiÃ¡ng":5906,"ĠMÃłn":5907,"ĠKhuyáº¿n":5908,"ĠrÃ©t":5909,"ĠÃĤn":5910,"ĠvÃ£":5911,"ĠNgÃ´i":5912,"ava":5913,"Ġkiá»ģu":5914,"giÃ¡":5915,"ĠnÃ¡ch":5916,"ĠBÃ¡i":5917,"ĠMá»Ŀi":5918,"ĠbÆ°á»Łi":5919,"Ġhiáº¿p":5920,"Ġä¸Ģnháº¥t":5921,"ĠJu":5922,"Danh":5923,"avel":5924,"ĠVIá»Ĩ":5925,"ĠKhoáº£ng":5926,"ĠRonaldo":5927,"ĠÄĳoan":5928,"ĠtÃºng":5929,"Chiáº¿c":5930,"Ġváº·n":5931,"Ġgieo":5932,"ĠtÄĥm":5933,"Ġcach":5934,"anmar":5935,"Ġnuá»ĳt":5936,"quy":5937,"Ġnhung":5938,"Ġbá»±c":5939,"za":5940,"HP":5941,"ĠGen":5942,"Ġgáº§y":5943,"thu":5944,"ual":5945,"ĠSÆ¡":5946,"ĠCalifornia":5947,"ĠMobifone":5948,"ĠDáº¡":5949,"aha":5950,"Báº£o":5951,"etooth":5952,"ĠnÃłn":5953,"lÃ´":5954,"Ġnghiá»ģn":5955,"PP":5956,"xx":5957,"ĠNhÃ£":5958,"ĠKr":5959,"cl":5960,"Ġday":5961,"Ġ52":5962,"ĠMÃ³n":5963,"ster":5964,"2007":5965,"ÄĲá»ģ":5966,"Ai":5967,"ÄĲÃºng":5968,"Ġcháº£i":5969,"Ġthoáº£":5970,"Ġliá»ħu":5971,"be":5972,"92":5973,"Æ¯ÆłNG":5974,"ANH":5975,"ĠSá»¹":5976,"ĠSuper":5977,"RE":5978,"DI":5979,"ÄĲá»«ng":5980,"ĠGTVT":5981,"Ġmá»ĵi":5982,"pool":5983,"lÃł":5984,"ÃĮNH":5985,"itan":5986,"ĠbÃ¨n":5987,"ĠPlay":5988,"Ġngá»¡":5989,"Ġque":5990,"ĠBá»ī":5991,"ĠThÃ¬":5992,"ush":5993,"DÃ¢n":5994,"kheo":5995,"Ġngáº·t":5996,"Ġvá»ĭnh":5997,"Ġsal":5998,"ÄĲÆ°á»Ŀng":5999,",\"":6000,"ĠDes":6001,"ĠgÃ¢n":6002,"Ġyoutube":6003,"Ġ2003":6004,"ĠsÃłnh":6005,"opy":6006,"ham":6007,"ĠEr":6008,"Äĳáº¡i":6009,"Ġgiáº·c":6010,"Ġmáº§u":6011,"Há»į":6012,"Ġnhuá»Ļm":6013,"amil":6014,"ĠQL":6015,"ĠVáº¥p":6016,".-":6017,"Ġvá»īa":6018,"ĠMP":6019,"ĠHIV":6020,"ishi":6021,"play":6022,"700":6023,"ĠâĢĶ":6024,"ÂŃ":6025,"able":6026,"ĠAN":6027,"ĠVinaphone":6028,"OV":6029,"ĠtÆ°á»Ľc":6030,"Báº¥t":6031,"Ġcá»«":6032,"ova":6033,"ĠTháº¥y":6034,"Ġ00":6035,"Ġkáº¹p":6036,"Ġsáº§m":6037,"ĠBM":6038,"%;":6039,"ĠOs":6040,"Ġor":6041,"Ġká»µ":6042,"ĠthÆ°Æ¡":6043,"ĠkhÃ¡nh":6044,"\":":6045,"ĠTower":6046,"nhÃł":6047,"mg":6048,"ixel":6049,"ĠÄĳuá»ĳi":6050,"ĠFran":6051,"ĠSpa":6052,"ĠLuÃ¢n":6053,"br":6054,"ĠdÃ¢":6055,"Ġghen":6056,"ĠMaria":6057,"ical":6058,"ĠKon":6059,"!!!":6060,"ĠThÃ¹y":6061,"ĠLÃ´":6062,"ĠçĦ¡":6063,"gent":6064,"ĠghÃª":6065,"Ġæĸ":6066,"Ġun":6067,"...]":6068,"ĠnÃ³n":6069,"ĠbÆ°á»Ľ":6070,"ĠkiÃªu":6071,"Ġlá»Ļng":6072,"Ġráº£i":6073,"Ġdang":6074,"ĠRed":6075,"TD":6076,"ĠLee":6077,"ÄĲá»©c":6078,"ement":6079,"Ġcomp":6080,"ĠNhanh":6081,"Nháº±m":6082,"ĠrÃ¡t":6083,"ĠÃ¡":6084,"Ġsc":6085,"\",\"":6086,"ĠgÃ³t":6087,"ĠXII":6088,"Ġláº«y":6089,"eview":6090,"ĠArsenal":6091,"ĠBlog":6092,"ĠgiÃ£":6093,"Ġkáº½m":6094,"ĠTáº·ng":6095,"Ã©c":6096,"ĠNokia":6097,"Ġgel":6098,"ĠUV":6099,"Cáº£":6100,"ĠTÃŃch":6101,"fo":6102,"ĠBTC":6103,"ĠTech":6104,"BÃ¡c":6105,"ĠVina":6106,"ĠĠĠĠĠĠĠĠ":6107,"Ġstress":6108,"ĠLáº¥y":6109,"Ġ180":6110,"Ġrá»§":6111,"ĠChia":6112,"ĠNay":6113,"ĠTrá»±c":6114,"ĠthÃªu":6115,"ford":6116,"Ġsá»¥n":6117,"ĠKang":6118,"ition":6119,"kyo":6120,"thi":6121,"Ġ72":6122,"lÆ°á»£ng":6123,"ANG":6124,"Ġnhá»ķ":6125,"nhá»¯ng":6126,"ĠchÃ©o":6127,"ĠpháºŃt":6128,"Ġå¦":6129,"ĠUyÃªn":6130,"ĠxÃłi":6131,"Ġbáº©m":6132,"ĠBHYT":6133,"ĠPhu":6134,"ĠKiá»ĥu":6135,"ĠDan":6136,"uz":6137,"ĠÄĲang":6138,"Ġcáº©m":6139,"Ġdá»¡":6140,"ĠkhiÃªu":6141,"ĠphiÃªu":6142,"ÄĲi":6143,"aine":6144,"Ġcode":6145,"Vá»«a":6146,"ĠdÃ¬":6147,"Bá»Łi":6148,"bin":6149,"DS":6150,"Ġvá»£t":6151,"Máº¹":6152,"ĠTri":6153,"ĀĀĀĀĀĀĀĀĀĀĀĀĀĀĀĀĀĀĀĀĀĀĀĀĀĀĀĀĀĀĀĀĀĀĀĀĀĀĀĀĀĀĀĀĀĀĀĀĀĀĀĀĀĀĀĀĀĀĀĀĀĀĀĀĀĀĀĀĀĀĀĀĀĀĀĀĀĀĀĀĀĀĀĀĀĀĀĀĀĀĀĀĀĀĀĀĀĀĀĀĀĀĀĀĀĀĀĀĀĀĀĀĀĀĀĀĀĀĀĀĀĀĀĀĀĀĀĀĀĀĀĀĀĀĀĀĀĀĀĀĀĀĀĀĀĀĀĀĀĀĀĀĀĀĀĀĀĀĀĀĀĀĀĀĀĀĀĀĀĀĀĀĀĀĀĀĀĀĀĀĀĀĀĀĀĀĀĀĀĀĀĀĀĀĀĀĀĀĀĀĀĀĀĀĀĀĀĀĀĀĀĀĀĀĀĀĀĀĀĀĀĀĀĀĀĀĀĀĀĀĀĀĀĀĀĀĀĀĀĀĀĀĀĀĀĀĀĀĀĀĀĀĀĀĀĀĀĀĀĀĀĀĀĀĀĀĀĀĀĀĀĀĀĀĀĀĀĀĀĀĀĀĀĀĀĀĀĀĀĀĀĀĀĀĀĀĀĀĀĀĀĀĀĀĀĀĀĀĀĀĀĀĀĀĀĀĀĀĀĀĀĀĀĀĀĀĀĀĀĀĀĀĀĀĀĀĀĀĀĀĀĀĀĀĀĀĀĀĀĀĀĀĀĀĀĀĀĀĀĀĀĀĀĀĀĀĀĀĀĀĀĀĀĀĀĀĀĀĀĀĀĀĀĀĀĀĀĀĀĀĀĀĀĀĀĀĀĀĀĀĀĀĀĀĀĀĀĀĀĀĀĀĀĀĀĀĀĀĀĀĀĀĀĀĀĀĀĀĀĀĀĀĀĀĀĀĀĀĀĀĀĀĀĀĀĀĀĀĀĀĀĀĀĀĀĀĀĀĀĀĀĀĀĀĀĀĀĀĀĀĀĀĀĀĀĀĀĀĀĀĀĀĀĀĀĀĀĀĀĀĀĀĀĀĀĀĀĀĀĀĀĀĀĀĀĀĀĀĀĀĀĀ":6154,"ĠâĨĴ":6155,"ĠÄĳao":6156,"ÃĲ":6157,"ĠPhá»ķ":6158,"»¿":6159,"Ġkhinh":6160,"ĠThoáº¡i":6161,"ĠÂ·":6162,"ĠKÃ´ng":6163,"Ġ54":6164,"ĠtriÃª":6165,"ĠÄĲá»ĳng":6166,"ĠVy":6167,"ĠåĲ":6168,"ĠVÃ²ng":6169,"ÐµÐ":6170,"ĠMyanmar":6171,"ĠMit":6172,"Ġback":6173,"ĠNgÃ´n":6174,"%/":6175,"ĠçĦ¡vÃ´":6176,"ĠAv":6177,"Ġkhay":6178,"ĠbÃ¢":6179,"Gáº§n":6180,"pa":6181,"150":6182,"ĠPGS":6183,"Ġsá»¥t":6184,"esterol":6185,"ĠTuáº¥t":6186,"DF":6187,"Ġchapter":6188,"Ġäºĳ":6189,"áº¦N":6190,"ĠSáº½":6191,"Ġtoan":6192,"97":6193,"ĠVitamin":6194,"ella":6195,"Äĳá»ĥ":6196,"Ġ360":6197,"Ġngáº¥t":6198,"bi":6199,"ĠMat":6200,"khoáº£ng":6201,"ĠvÆ°":6202,"Ġmore":6203,"BT":6204,"ĠBen":6205,"ĠrÃ²":6206,"ĠAT":6207,"ons":6208,"ĠLáº¡p":6209,"ĠäºĳvÃ¢n":6210,"Ġ63":6211,"Ġ1975":6212,"ĠMel":6213,"Ġus":6214,"Ġmicro":6215,"vá»Ľi":6216,"ĠChÄĥm":6217,"âĢ¦)":6218,"IP":6219,"ĠMáºŃt":6220,"ÄĳÃ£":6221,"Re":6222,"ĠMÆ°á»Ŀng":6223,"Ġhoáº¡":6224,"rm":6225,"ĠLáº¡ng":6226,"Ġnhai":6227,"ĠObama":6228,"acute":6229,"cedes":6230,"Náº±m":6231,"Ġen":6232,"ĠTÃ¡m":6233,"ĠdÆ°ng":6234,"ĠMáº¡ch":6235,"Ġseo":6236,"page":6237,"ĠhÃ£m":6238,"ĠAC":6239,"ĠSport":6240,"ÄĳÆ°á»£c":6241,"á»¨":6242,"ĠlÃ¡ng":6243,"Ġnhiá»ħu":6244,"ĠBer":6245,"ĠhÃ¢n":6246,"dro":6247,"oint":6248,"iverpool":6249,"Ġwith":6250,"otte":6251,"VÃŃ":6252,"ĠPhÃŃa":6253,"ĠåĪ":6254,"ĠMu":6255,"ĠTá»©c":6256,"Ġxá»ĳp":6257,"Ġæĺ¯":6258,"ĮC":6259,"94":6260,"ĠÆ°á»Ľp":6261,"ĠRang":6262,"......":6263,"ĠÄĲÃªm":6264,"NÃ³":6265,"ĠhoÃ£n":6266,"Ġtháº¡o":6267,"ĠChar":6268,"Ġhack":6269,"ĠhiÃªn":6270,"Phim":6271,"ĠQuáº§n":6272,"DL":6273,"ĠIV":6274,"ĠWord":6275,"Chu":6276,"Quyáº¿t":6277,"ĠcÃło":6278,"ĠGiáº£m":6279,"ĠYo":6280,"ĠSáº¯c":6281,"TiÃªu":6282,"há»¯u":6283,"Ġæĺ¯thá»ĭ":6284,"Ġdec":6285,"ĠMÃ´ng":6286,"ĠNáº±m":6287,"ĠUnited":6288,"py":6289,"Ġhuyá»ĩt":6290,"ĠNgÆ°á»£c":6291,"trung":6292,"á»ķn":6293,"ĠPremier":6294,"LÃ½":6295,"ĠmÃ¢":6296,"ĠPower":6297,"Quáº£ng":6298,"OL":6299,"CÄĲ":6300,"Tu":6301,"sau":6302,"ĠTokyo":6303,"Ġgáº§m":6304,"ĠVu":6305,"ĠKhÃ³a":6306,"ĠcÃºm":6307,"omb":6308,"äº":6309,"Ġgáº¥u":6310,"td":6311,"PhÃ³":6312,"ĠHol":6313,"ĠgiÃ²":6314,"cÃ´":6315,"ĠCá»ķng":6316,"ĠJack":6317,"ko":6318,"ĠThiÃªm":6319,"ĠEco":6320,"ĠNhung":6321,"ja":6322,"ĠMiá»ħn":6323,"Ġchá»Ľp":6324,"ĠKCN":6325,"ĠOp":6326,"ÃĴ":6327,"ĠTáº¡":6328,"Ġ@":6329,"ett":6330,"ĠGIÃģ":6331,"bal":6332,"Ġrá»Ļ":6333,"____":6334,"Ġ220":6335,"ĠcÆ°ng":6336,"ora":6337,"ĠMT":6338,"ĠMá»Ł":6339,"ĠTiáº¿t":6340,"ters":6341,"ĠBig":6342,"93":6343,"Ġcáº©u":6344,"err":6345,"Ġvn":6346,"pearl":6347,"ĠXiaomi":6348,"Ġkhuya":6349,"ĠKing":6350,"Giá»Ľi":6351,"ĠGl":6352,"aco":6353,"ĠÃĲá»©c":6354,"PN":6355,"thÃłnh":6356,"ĠcuÃ´":6357,"Ġnáº£n":6358,"ĠISO":6359,"ouse":6360,"ĠchÆ°á»Ľng":6361,"HS":6362,"ny":6363,"ĠMos":6364,"ĠÄĳÆ¡":6365,"DN":6366,"ates":6367,"ĠCá»©u":6368,"Ã³p":6369,"ĠhÄĥng":6370,"ani":6371,"ĠSi":6372,"TTg":6373,"ĠCÃģ":6374,"Ġ56":6375,"ĠNiÃªn":6376,"aya":6377,"Ġbalo":6378,"duc":6379,"Ġlá»ĵn":6380,"sinh":6381,"ami":6382,"Ġlay":6383,"Ġvá»±ng":6384,"Ġdr":6385,"MI":6386,"ĠGiáº£":6387,"ĠKong":6388,"PC":6389,"ĠCáº£ng":6390,"ĠBank":6391,"ĠKá»ĥ":6392,"2006":6393,"ĠbÃ©n":6394,"ĠLiá»ħu":6395,"Phá»¥":6396,"ips":6397,"ĠKhÃ¡c":6398,"Ġhoi":6399,"Ġdáº¡n":6400,"ĠTiá»ĩn":6401,"UNG":6402,"Ġéģ":6403,"Â²":6404,"Ġlá»Ńng":6405,"atin":6406,"Ġtháº£n":6407,"ĠHÄĲQT":6408,"ĠBiá»ĥu":6409,"Ġcá»Ĺ":6410,"ĠÃģp":6411,"CÃ¢y":6412,"air":6413,"ĠUkr":6414,"Tá»ķ":6415,"star":6416,"Ġchol":6417,"peria":6418,"ĠhÃ©t":6419,"ingroup":6420,"Ġquáº¥n":6421,"Ġtá»¥i":6422,"ĠGiÃ¡c":6423,"ĠDÄ©":6424,"Thá»ĭ":6425,"Ġel":6426,"ĠVÆ°á»Ŀn":6427,"Ĥ«":6428,"ĠmáºŃp":6429,"ĠnÆ°":6430,"ĠTÃ¡t":6431,"ĠAlex":6432,"Ġchá»ĳc":6433,"ĠMÃ¹i":6434,"ĠThuyáº¿t":6435,"oster":6436,"ĠGB":6437,"witter":6438,"biz":6439,"work":6440,"Sinh":6441,"ĠnÃłnh":6442,"anc":6443,"ĠmÃ¡c":6444,"ĠEng":6445,"TÃ¢n":6446,"ĠRá»ĵng":6447,"ser":6448,"ĠChuáº©n":6449,"GiÃ¡o":6450,"Ġ).":6451,"ĠSw":6452,"xÃ£":6453,"ĠDel":6454,"ĠView":6455,"ĠcÃºp":6456,"Ġ>>":6457,"ĠHiá»ĥn":6458,"ÑĮ":6459,"ĠMag":6460,"Ġtráº§y":6461,"USD":6462,"xin":6463,"exico":6464,"ĠChrist":6465,"áº¬T":6466,"áº®":6467,"ĠLiverpool":6468,"ĠKi":6469,"shine":6470,"Ġiphone":6471,"Ġ--":6472,"ĠVá»ĭnh":6473,"ĠbÃ¬a":6474,"Ġcá»ĳi":6475,"ĠlÆ°á»£n":6476,"Ġcat":6477,"itt":6478,".)":6479,"CL":6480,"Ġnhá»įc":6481,"Ġxoang":6482,"ĠKhÃ¡m":6483,"ĠquyÃª":6484,"TÄĥng":6485,"TO":6486,"giáº£":6487,"ĠLi":6488,"men":6489,"ĠWal":6490,"ĠchÃ¨n":6491,"Pr":6492,"Ġ88":6493,"Lá»Ŀi":6494,"xem":6495,"ĠEle":6496,"ĠPin":6497,"pro":6498,"Tá»ĳi":6499,"ĠÄĳiá»ģm":6500,"Ġbáº¡":6501,"Ġsáº¿p":6502,"Ġ68":6503,"ĠvÃłn":6504,"Láº§n":6505,"CCC":6506,"ĠShow":6507,"Ġná»ĩm":6508,"FC":6509,"Ġnoi":6510,"xe":6511,"ĠtÆ°Æ¡":6512,"ĠNgÃłnh":6513,"ĠngáºŃm":6514,"ĠWar":6515,"ĠSn":6516,"Ġngoáº¡n":6517,"ward":6518,"ĠVol":6519,"Ġsáº§u":6520,"Ġæķ":6521,"ĠAll":6522,"Ġthá»ı":6523,"ĠMÃª":6524,"Ġcontainer":6525,"PhÃ¡p":6526,"ĠNet":6527,"ĠchÃ³i":6528,"Ġchui":6529,"âĢ¦âĢ¦âĢ¦âĢ¦âĢ¦âĢ¦âĢ¦âĢ¦":6530,"agrave":6531,"?âĢĿ.":6532,"ĠVingroup":6533,"wood":6534,"áº½n":6535,"Ġje":6536,"ator":6537,"ĠÄĲá»Ŀi":6538,"Ġsty":6539,"ony":6540,"over":6541,"Ġsá»«ng":6542,"ĠPha":6543,"du":6544,"ThÃ¡i":6545,"ĠMore":6546,"HoÃłng":6547,"Má»¥c":6548,"ĠEver":6549,"asonic":6550,"Ġ130":6551,"Ġhost":6552,"ĠTrÃłng":6553,"Ġgiu":6554,"BA":6555,"ĠMá»«ng":6556,"Ġdes":6557,"Ġvá»©t":6558,"ii":6559,"ĠTáº§ng":6560,"ĠvÃ´i":6561,"ĠSá»¯a":6562,"ĠchuyÃª":6563,"ĠGP":6564,"Nghe":6565,"Hy":6566,"ĠÄĳá»Ļn":6567,"ÄĲá»Ļi":6568,"ĠBos":6569,"ĠÄĳÃłng":6570,"ĠGeo":6571,"Ġnhat":6572,"fÃ©":6573,"ĠSl":6574,"combank":6575,"TA":6576,"ĠláºŃn":6577,"ĠRead":6578,"Huyá»ĩn":6579,"html":6580,"azon":6581,"Ġsho":6582,"Ġcholesterol":6583,"ĠSÃłn":6584,"ĠÃ¢":6585,"ĠHill":6586,"ĠphÃ¡c":6587,"dotel":6588,"phi":6589,"ThiÃªn":6590,"900":6591,"cc":6592,"NV":6593,"ĠCÃ´n":6594,"Ġthá»ĳi":6595,"Æ°á»Ŀm":6596,"Ġquáº¥y":6597,"ThÃªm":6598,"Ġloan":6599,"zu":6600,"ept":6601,"Com":6602,"pha":6603,"Ġgá»¥c":6604,"ĠTháºŃp":6605,"ĠTáº¡ng":6606,"ado":6607,"ĠTá»ĳ":6608,"Ġkhá»ĳc":6609,"ĠnÃªm":6610,"Ġ350":6611,"QH":6612,"ĠÃģi":6613,"ĠPhÃŃ":6614,"ĠgáºŃy":6615,"Äĳá»ĳi":6616,"ĠIntel":6617,"fr":6618,"ĠxÃ©":6619,"áº¶":6620,"Ġgym":6621,"áº¢N":6622,"ific":6623,"Ġcr":6624,"giá»Ŀ":6625,"ĠPhá»¥ng":6626,"Ġ=>":6627,"Ġ53":6628,"my":6629,"ĠngÆ¡":6630,"gentina":6631,"Ġå¸":6632,"Nhá»Ŀ":6633,"Ġmáº¯ng":6634,"eed":6635,"ĠHÃ²n":6636,"ĠLed":6637,"Ġ1900":6638,"Ġsáº£nh":6639,"ĠAg":6640,"ĠMercedes":6641,"Háº§u":6642,"ĠcÃºc":6643,"ĠCEO":6644,"QL":6645,"mÃ´n":6646,"CV":6647,"evel":6648,"BÃłn":6649,"Ġnhá»ĵi":6650,"Ġráº¡n":6651,"ĠLaser":6652,"Ġkhan":6653,"iga":6654,"Ġform":6655,"ĠJo":6656,"ĠchÆ°ng":6657,"ĠgiÃ¡ng":6658,"Cá»Ńa":6659,"ĠPlaza":6660,"ĠMexico":6661,"ĠVá»£":6662,"ĠID":6663,"ĠnháºŃu":6664,"ourinho":6665,"ĠLuáºŃn":6666,"Ġthá»¥c":6667,"ĠliÃªng":6668,"ĠNháºŃp":6669,"ĠLÄĲ":6670,"Ġâľ":6671,"ĠnhÃ¡y":6672,"224":6673,"Ġblock":6674,"ĠMobi":6675,"Ġgirl":6676,"ction":6677,"ĠSmart":6678,"ĠnÃª":6679,"Ġsil":6680,"utin":6681,"day":6682,"oshi":6683,"Ġcáº·n":6684,"Ġ58":6685,"ĠFLC":6686,"ĠÄĳÅ©a":6687,"ĠSol":6688,"ĠxuÃ¢":6689,"MA":6690,"Ġtháº¯p":6691,"ĠTÆ°á»Łng":6692,"áº¬N":6693,"ĠtoÃ¡t":6694,"ĠTom":6695,"Ġchat":6696,"Ġæľī":6697,"Ġrá»Ĺi":6698,"Ġrob":6699,"thanh":6700,"ĠNÃºi":6701,"ĠDavid":6702,"ĠnhÃ¡i":6703,"box":6704,"Ġphai":6705,"ĠViÃªm":6706,"AV":6707,"TE":6708,"Ġ62":6709,"ĠvÃ¡c":6710,"ĠÄĲáº£m":6711,"lic":6712,"Ġlá»¥t":6713,"ĠÄĲá»ĳc":6714,"Ġtáº¡c":6715,"ĠnhÅ©":6716,"ĠLCD":6717,"uild":6718,"word":6719,"ĠrÃ²ng":6720,"ĠMr":6721,"ĠmÃ©p":6722,"Ġthiáº¿p":6723,"ĠSá»ķ":6724,"Ġtháº¯n":6725,"Ġ%":6726,"Cam":6727,"ĠNAM":6728,"ĠTuyáº¿n":6729,"ima":6730,"ĠKar":6731,"ĠkhÃŃt":6732,"ĠWest":6733,"ĠRoy":6734,"250":6735,"ĠLÃ¡":6736,"2019":6737,"Ġåľ":6738,"Ġráº£nh":6739,"Ġngoa":6740,"ĠTQ":6741,"oria":6742,"ĠNghiÃªm":6743,"Ġä¹ĭ":6744,"Tiá»ĥu":6745,"ĠWill":6746,"ĠnhÃłm":6747,"ĠTráº¥n":6748,"ĠthÃŃnh":6749,"Ġep":6750,"osa":6751,"Ġæľīhá»¯u":6752,"cher":6753,"Ġå¿":6754,"Ġmobile":6755,"ĠâĢĭ":6756,"ĠChá»¯":6757,"ĠUnivers":6758,"ican":6759,"ille":6760,"Ġkhuáº¥y":6761,"Ġbá»ķn":6762,"Ġphá»Ł":6763,"Ġtáº¥u":6764,"ĠTY":6765,"ĠrÃ£":6766,"Ġcomment":6767,"ĠLáº¯p":6768,"Ġè¦":6769,"Ġbus":6770,"ĠhÃ³c":6771,"Â°":6772,"Iá»ĨN":6773,")-":6774,"GA":6775,"Äĳá»ĵng":6776,"ĠYam":6777,"Ġvá»Ľt":6778,"ĠCont":6779,"Ìī,":6780,"ĠBinh":6781,"Ġquá»³":6782,"ĠPCCC":6783,"Ġä¹ĭchi":6784,"ĠnÃ¡o":6785,"ĠHotel":6786,"Ġev":6787,"ÃĢN":6788,"ĠHTX":6789,"Chia":6790,"Ġmon":6791,"ĠXÃ¡":6792,"ĠChá»ĳng":6793,"ĠNov":6794,"ĠArgentina":6795,"ĠÄĲÃ¡ng":6796,"ĠCá»±c":6797,"Ġdata":6798,"PháºŃt":6799,"ĠTum":6800,"',":6801,"ĠQuáº¿":6802,"ĠTwitter":6803,"Buá»ķi":6804,"Ġbá»Ľi":6805,"Ġnew":6806,"Ġ~":6807,"ĠlÃ©n":6808,"Quan":6809,"Ġkhá»ĳn":6810,"berg":6811,"ĠTK":6812,"ĠIr":6813,"ĠkÃ©t":6814,"Ġphá»¥ng":6815,"ori":6816,"ĠphÃ´ng":6817,"Ìģ.":6818,"ĠÄĲen":6819,"Ġchuá»ĵng":6820,"Ġgoogle":6821,"Ġrá»Ľt":6822,"ĠrÆ°á»Ľc":6823,"½©":6824,"Ġcháº§n":6825,"ĠKha":6826,"Ġthat":6827,"Ġcity":6828,"Ġ2002":6829,"Ġháº¯c":6830,"Ġthá»§ng":6831,"ult":6832,"sá»±":6833,"ĠChÆ¡i":6834,"ĠWe":6835,"ĠnhÃ¡t":6836,"ĠmÃŃa":6837,"phÃºt":6838,"ĠTá»ĳc":6839,"Ġbá»ĩ":6840,"vá»ĭ":6841,"nhÆ°ng":6842,"ĠÄĳáºŃy":6843,"ĠCá»§":6844,"national":6845,"date":6846,"ĠNhiÃªn":6847,"TTQ":6848,"ToÃłn":6849,"ĠStr":6850,"Ġhorm":6851,"Ġngháº¹t":6852,"thá»Ŀi":6853,"Ġrá»Ĺng":6854,"á»ļ":6855,"ĠÐ¿":6856,"ĠVinpearl":6857,"Ġquáº¿":6858,"ĠMaster":6859,"Įnh":6860,"TÃªn":6861,"Ġgáº·t":6862,"Ġpiano":6863,"Ġniá»ģng":6864,"TÃłi":6865,"ĠVIá»ĨT":6866,"ĠSouth":6867,"Pháº£i":6868,"2005":6869,"ĠMourinho":6870,"âĸ":6871,"ĠDÃ¢y":6872,"ĠLÃłng":6873,"ĠKhÆ°Æ¡ng":6874,"Vá»¥":6875,"ĠInst":6876,"Ġpoly":6877,"ĠsáºŃp":6878,"ĠDao":6879,"ĠÄĳá»Ŀ":6880,"ged":6881,"ĠVict":6882,"ato":6883,"ĠTimes":6884,"ĠSG":6885,"ĠDáº§n":6886,"Æ¯á»ļ":6887,"Ná»¯":6888,"UB":6889,"Ġdau":6890,"ĠBus":6891,"Khoáº£ng":6892,"Loáº¡i":6893,"¥nh":6894,"Ġ125":6895,"ĠmiÃªn":6896,"ĠPa":6897,"huyá»ĩn":6898,"Chuyá»ĩn":6899,"ĠtuÃ½":6900,"Ah":6901,"ĠKhuÃª":6902,"Ġngá»ĳc":6903,"Ġare":6904,"ĠVÄĲ":6905,"Ġtháº£y":6906,"TÃ¡c":6907,"ÃģN":6908,"vÃ¬":6909,"ï»¿":6910,"Ġsize":6911,"Ġ128":6912,"crip":6913,"Ġ\\":6914,"Ġ57":6915,"ĠÄĳÃ¡i":6916,"Ġhoáº¡n":6917,"Ġnáº¿m":6918,"ĠMus":6919,"ning":6920,"Ġcá»«u":6921,"Ġquá»µ":6922,"táº¡i":6923,"Ġren":6924,"ĠGDP":6925,"Nguá»ĵn":6926,"ĠHáº¡t":6927,"BÃ¢y":6928,"ĠdiÃª":6929,"Chung":6930,"ealand":6931,"Ġlim":6932,"ĠHÃ¢n":6933,"IL":6934,"ĠMS":6935,"Ġruá»ĵi":6936,"Ġxua":6937,"ĠMiss":6938,"anda":6939,"mua":6940,"ĠHá»ķ":6941,"any":6942,"Ġcháº±m":6943,"Ġ59":6944,"ĠCV":6945,"ĠMessi":6946,"NQ":6947,"ĠKhanh":6948,"ÃĢI":6949,"ĠSÃ¡t":6950,"ÑģÑĤ":6951,"Ġcheck":6952,"ĠgáºŃp":6953,"ĠGa":6954,"Ġrá»ķ":6955,"ĠGolden":6956,"åı":6957,"ĠCenter":6958,"ĠHÃ´":6959,"ĠchoÃ¡ng":6960,"Ġcalo":6961,"Ġ1990":6962,"Fi":6963,"ĠSapa":6964,"ĠPM":6965,"ĠChinh":6966,"ĠLáº¯k":6967,"ĠoÃ¡n":6968,"Ġláº©u":6969,"Ġbáº«y":6970,"âĢ¦,":6971,"ĠLin":6972,"----------------":6973,"try":6974,"pad":6975,"ĠChÃłng":6976,"DÃ¹ng":6977,"Cháº¯c":6978,"oney":6979,"Ġkháº¯t":6980,"uba":6981,"Ġbáº»":6982,"Ġtháº¡c":6983,"Ġquyá»ĩn":6984,"Ġä¾":6985,"zada":6986,"TW":6987,"ĠPi":6988,"ĠRO":6989,"ĠthiÃªu":6990,"celona":6991,"eme":6992,"ĠHTC":6993,"Ġphiáº¿n":6994,"ĠCR":6995,"oli":6996,"ĠÄĳá»ĳ":6997,"sá»ĳ":6998,"Ġná»ī":6999,"Ġváº¥p":7000,"viáº¿t":7001,"ĠYoutube":7002,"tÃ¢m":7003,"Lá»ħ":7004,"viet":7005,"dex":7006,"ĠNÃ¢ng":7007,"gan":7008,"Ġhá»ĩt":7009,"Ġshowroom":7010,"Ġresort":7011,"ĠDáºŃu":7012,"win":7013,"ĠchÄĥ":7014,"ChÃº":7015,"ks":7016,"cá»ĳ":7017,"Ġnáº¥y":7018,"ĠGiá»ĳng":7019,"lor":7020,"lish":7021,"ÄĲáº¥t":7022,"á»£n":7023,"ida":7024,"Ġ->":7025,"DT":7026,"Ġphá»ĳt":7027,"ĠHam":7028,"Phong":7029,"Ġ66":7030,"ĠLaptop":7031,"ĠDO":7032,"ĠnghÃª":7033,"ĠTuyá»ĩt":7034,"ĠtrÃ¹":7035,"iness":7036,"ĠTra":7037,"ĠLá»Ľn":7038,"Ġcáº¡o":7039,"Co":7040,"Ġchen":7041,"ĠæĽ":7042,"ĠDH":7043,"ĠçĽ":7044,"yn":7045,"Ġmenu":7046,"sÆ°":7047,"ĠchÃ´":7048,"Ġngháº½n":7049,"ÄĲÃ¡nh":7050,"mÃ¡y":7051,"ject":7052,"atar":7053,"Ġstart":7054,"ĠAp":7055,"ĠTAND":7056,"jet":7057,"ĠVÃ¹ng":7058,"XD":7059,"ĠUN":7060,"Chá»įn":7061,"otov":7062,"ĠWi":7063,"ĠTrá»¥":7064,"ĠGar":7065,"Ġå¦Ĥ":7066,"chester":7067,"ĠmÄ©":7068,"2020":7069,"awa":7070,"eon":7071,"ÃĹ":7072,"Ġtab":7073,"ÄĲoÃłn":7074,"tÃ´i":7075,"áº¨":7076,"ĠXÃ©t":7077,"san":7078,"ĠliÃª":7079,"ĠlÅ©ng":7080,"Ġxáº»":7081,"ĠÄĳá»ĳm":7082,"Ð²":7083,"ĠvÃ²m":7084,"ĠCáºŃn":7085,"ĠhÃ©":7086,"Ġráº¡ch":7087,"120":7088,"ĠCTC":7089,"NháºŃt":7090,"Ġáº£":7091,"ĠsÃ¡o":7092,"EX":7093,"ĠVC":7094,"Ġnhá»Ľt":7095,"HN":7096,"Ġngáº£":7097,"Ġstyle":7098,"cá»§a":7099,"ChÆ°a":7100,"Báº±ng":7101,"chá»ĭ":7102,"cÃ¡i":7103,"ĠPR":7104,"ĠDinh":7105,"ds":7106,"QuáºŃn":7107,"NÃªn":7108,"ĠSm":7109,"ĠThÃŃ":7110,"ĠJun":7111,"ĠDÆ°":7112,"quáºŃn":7113,"ĠHel":7114,"ĠNgá»į":7115,"ĠcÃły":7116,"ĠLÄ©nh":7117,"ĠgÃ¡y":7118,"ci":7119,"ĠÄĲá»ģn":7120,"Ġtá»ĳng":7121,"ĠMá»Ļng":7122,"ĠMá»Ļ":7123,"Ġïģ":7124,"chÃºng":7125,"cÃ¡ch":7126,"ĠSho":7127,"Ġthuá»Ł":7128,"Ġ2001":7129,"cÄĥn":7130,"itr":7131,"ĠFu":7132,"ĠZealand":7133,"ĠPhao":7134,"BL":7135,"'.":7136,"ĠxÃ¡t":7137,"ĠJose":7138,"ĠXÃ¡c":7139,"Ġhinh":7140,"Æ¯á»ľNG":7141,"ELTS":7142,"ĠnhÃłn":7143,"subishi":7144,"á»¬":7145,"ĠlÃ¡ch":7146,"Ġwh":7147,"mark":7148,"Ġnung":7149,"tam":7150,"urn":7151,"ĠtrÃªu":7152,"ocopy":7153,"báº¡n":7154,"khi":7155,"ĪĴ":7156,"ĠNhá»Ľ":7157,"ÄĲÄĥng":7158,"ĠHiÃªn":7159,"NghiÃªn":7160,"city":7161,"Ġ1999":7162,"TK":7163,"Ġom":7164,"ĠcÃ²i":7165,"ĠLÃ²":7166,"Ġhoc":7167,"ware":7168,"Ġ160":7169,"Ġtá»¥t":7170,"Ġdep":7171,"esh":7172,"ael":7173,"Ġeuro":7174,"ĠrÃ£nh":7175,"Ġdecal":7176,"ĠPanasonic":7177,"ĠPhÃª":7178,"Ġrobot":7179,"âĢĻ.":7180,"Ġ98":7181,"Ġmail":7182,"Chiáº¿n":7183,"ĠVH":7184,"dio":7185,"ni":7186,"han":7187,"ĠÄĲáº±ng":7188,"Ġtáº¥p":7189,"ĠPutin":7190,"otovietnam":7191,"ĠcÆ°a":7192,"ĠMaz":7193,"Ġsanotovietnam":7194,"link":7195,"ĠDell":7196,"Ġçľ":7197,"ĠBuÃ´n":7198,"âĢĿ;":7199,"ĠLen":7200,"ĠGiáº£ng":7201,"ĠDong":7202,"ga":7203,"Ġvá»įt":7204,"ĠMetro":7205,"Ġ67":7206,"ĠRem":7207,"ĢN":7208,"ild":7209,"888":7210,"ĠbÃºp":7211,"][":7212,"ĠmuÃ´":7213,"ĠBarca":7214,"ĠBB":7215,"Ġ69":7216,"HÃłnh":7217,"sk":7218,"ÄĲiá»ĩn":7219,"ĠkÃ¬m":7220,"ĠsÄĥ":7221,"chain":7222,"Ġæ³":7223,"ĠThuÃª":7224,"TÆ°Æ¡ng":7225,"ĠNN":7226,"Ġben":7227,"ĠThao":7228,"ThÆ°Æ¡ng":7229,"ĠHá»ıi":7230,"ĠBMW":7231,"otton":7232,"ĠÆ¯á»Ľc":7233,"Sao":7234,"Ġsáº¥u":7235,"Ġmg":7236,"ĠHoÃ¡":7237,"ĠÃºy":7238,"ĠDiá»ħm":7239,"PL":7240,"ĠBuá»ķi":7241,"ĠXI":7242,"uis":7243,"ÄĳÆ°á»Ŀng":7244,"lad":7245,"plant":7246,"ĠÄĳÃ¨o":7247,"ĠUl":7248,"dÄ©":7249,"Ã²e":7250,"ĠTuá»ĩ":7251,"ĠMáº¥y":7252,"ĠTráº¡m":7253,"ĠxÃŃu":7254,"ĠÃª":7255,"VC":7256,"kok":7257,"Ġdien":7258,"ĠXá»Ń":7259,"Ġtáº©m":7260,"tri":7261,"Ġlike":7262,"ĠCSGT":7263,"Ġ{":7264,"ĠAsia":7265,"ĠXa":7266,"ĠBáº¯t":7267,"ĠDai":7268,"Ġteen":7269,"qua":7270,"Ì£,":7271,"ĠRao":7272,"ĠMark":7273,"ĠNhá»ĭ":7274,"ĠBluetooth":7275,"Ġkhuynh":7276,"ĠPP":7277,"ĠhoÄĥ":7278,"ĠSec":7279,"ĠHá»ĮC":7280,"ĠItalia":7281,"ĠSunshine":7282,"ĠvÃŃt":7283,"Ká»ĥ":7284,"Read":7285,"Äĳa":7286,"Â«":7287,"MÃ£":7288,"raq":7289,"Pl":7290,"Xuáº¥t":7291,"Cháº³ng":7292,"form":7293,"ela":7294,"ĠCá»±u":7295,"!âĢĿ.":7296,"Ġapp":7297,"Ġcas":7298,"Ġ61":7299,"Ġcac":7300,"ĠVer":7301,"MC":7302,"á»¥i":7303,"ĠxÆ°á»Ľng":7304,"Â®":7305,"Ġngá»Ńa":7306,"ĠHung":7307,"Sá»Ńa":7308,"ĠJong":7309,"ĠGames":7310,"Ġnháº¥c":7311,"Ġgl":7312,"Ġlon":7313,"ĠClick":7314,"ĠïĢ«":7315,"ĠPT":7316,"ĠIELTS":7317,"Tráº£":7318,"HO":7319,"bit":7320,"ĠBarcelona":7321,"ĠMun":7322,"Pro":7323,"Diá»ħn":7324,"Tá»§":7325,"ĠxoÃłi":7326,"cÃ²n":7327,"Ġtáº£o":7328,"ĠnhÃºng":7329,"ĠchÃ¹i":7330,"ĠÄĳáº£":7331,"ĠSuz":7332,"ĠCÃ¢n":7333,"iger":7334,"ĠtÃ¡ng":7335,"Ġthá»Ńa":7336,"ĠAFF":7337,"sc":7338,"Ġbuá»ĳt":7339,"Ġmáº«n":7340,"Ġtá»§y":7341,"ette":7342,"Ġserver":7343,"ĠBal":7344,"ĠNÃ´":7345,"thiÃªn":7346,"RL":7347,"ĠGá»įi":7348,"Ġná»©c":7349,"ĠMed":7350,"Ġvip":7351,"orm":7352,"ĠAmazon":7353,"Ġcap":7354,"Ġthá»ģ":7355,"ĠVIP":7356,"ĠCanh":7357,"Ġ^":7358,"aby":7359,"gmail":7360,"ĠnÃ¨":7361,"SC":7362,"Tráº§n":7363,"Ġphá»ĵng":7364,"League":7365,"ĠForm":7366,"ven":7367,"Al":7368,"ĠChap":7369,"Ġæī":7370,"ĠTha":7371,"ĠtrÄĥn":7372,"ĠLÃ¢u":7373,"Ġ....":7374,"loud":7375,"ĠDá»¥c":7376,"ĠGiÃ³":7377,"Ġlá»«ng":7378,"Ġngáº¥m":7379,"ppo":7380,"IÃĬN":7381,"ĠThiá»ĩu":7382,"ÄĤn":7383,"ĠÃºt":7384,"Tiá»ģn":7385,"Ġå®":7386,"ĠNV":7387,"ĠBL":7388,"andal":7389,"ĠLÃªn":7390,"ĠTráºŃn":7391,"ĠInternational":7392,"Ġthá»ĳt":7393,"Diá»ĩn":7394,"EF":7395,"elf":7396,"oid":7397,"225":7398,"ĠèĢħ":7399,"ĠIraq":7400,"ĠNat":7401,"ĠNho":7402,"Ġbá»ĵng":7403,"Ġmáº©n":7404,"LuáºŃt":7405,"si":7406,"Ġliáº¿c":7407,"ĠUp":7408,"phong":7409,"ĠOanh":7410,"Â·":7411,"ĠgÃ²n":7412,"ury":7413,"ĠLiá»ĩt":7414,"ĠNÃły":7415,"ĠJet":7416,"Ġnhe":7417,"Ġmá»ĳt":7418,"ĠmÃ¹ng":7419,"ĠbÃ¡i":7420,"Ġå°":7421,"ĠPe":7422,"ĠTá»Ľi":7423,"ĠTrans":7424,"ision":7425,"Tiáº¿ng":7426,"ĠHer":7427,"ĠSeoul":7428,"ĠÄĲá»ĵn":7429,"ĠOpt":7430,"ĠkhiÃª":7431,"ĠRich":7432,"ĠTrÃ£i":7433,"ĠHáº¡o":7434,"Ġtp":7435,"ĠèĢħgiáº£":7436,"Äĳá»ģ":7437,"Ġhd":7438,"Ġtrau":7439,"ĠST":7440,"Ġar":7441,"Ġhá»Ŀ":7442,"row":7443,"ĠcafÃ©":7444,"ĠéĽ":7445,"Ġsáº£ng":7446,"ĠGá»Ĺ":7447,"ĠAud":7448,"ĠMedia":7449,"kinh":7450,"ÃįNH":7451,"ĠEbook":7452,"Iá»Ĥ":7453,"Łd":7454,"ĠTá»ĭch":7455,"rit":7456,"ĠMas":7457,"lam":7458,"hiá»ĩn":7459,"Ġvá»¥n":7460,"Ġfree":7461,"Ġmá»ĵm":7462,"ĠLink":7463,"Bao":7464,"Ex":7465,"Ġ_":7466,"ĠPVC":7467,"ĠcháºŃp":7468,"ĠGTGT":7469,"king":7470,"ĠngÃ³":7471,"ĠJames":7472,"91":7473,"Ġáº¨":7474,"umb":7475,"ĠMÅ©i":7476,"ĠBill":7477,"ĠMáº¯t":7478,"ÃŃu":7479,"PhÃ¢n":7480,"ira":7481,"ĠCá»ĳc":7482,"ĠGeor":7483,"ovo":7484,"ĠThÃ´i":7485,"Ġbl":7486,"Ġmix":7487,"Muá»ĳn":7488,"ĠRiver":7489,"atia":7490,"Ġviettel":7491,"ĠKT":7492,"stem":7493,"ĠCentral":7494,"Ãµng":7495,"Cung":7496,"Ġtáº·c":7497,"ĠTD":7498,"ĠHá»Ļp":7499,"ĠHal":7500,"Ġcuá»ĳng":7501,"Ġbiáº¿u":7502,"Ġháº¡m":7503,"Ġmoi":7504,"Ġnhá»§":7505,"TÃ¹y":7506,"Ġthung":7507,"bÃ¡n":7508,"ĠÄĳáº¥m":7509,"ĠModel":7510,"Ġ73":7511,"áº³m":7512,"minh":7513,"Ġ86":7514,"ĠMB":7515,"ĠïĢŃ":7516,"rolet":7517,"ĠChÃło":7518,"ude":7519,"ĠLoa":7520,"å½©":7521,"Ar":7522,"Ġáº§m":7523,"ĠÎ":7524,"ĠResid":7525,"ĠÄĲo":7526,"ĠlÃ¬":7527,"Ġ[...]":7528,"ĠchÃ¨o":7529,"evrolet":7530,"ĠUkraine":7531,"ĠPHÃģ":7532,"XÃ¢y":7533,"ĠÄĳÃ´n":7534,"ĠÄĳÆ°":7535,"ĠÄĲá»ĩ":7536,"ĠBol":7537,"hy":7538,"ĠÄĳáº½":7539,"ĠChiÃªu":7540,"ĠGem":7541,"ĠPaul":7542,"Song":7543,"ĠShin":7544,"Kim":7545,"Ġáº¥u":7546,"iki":7547,"ĠTHU":7548,"á»ª":7549,"EP":7550,"ĠCÃ¡n":7551,"ĠhÃ¨n":7552,"ĠDiá»ĩm":7553,"cess":7554,"ĠXÆ°Æ¡ng":7555,"Ġ101":7556,"sm":7557,"get":7558,"ĠThÃ¡m":7559,"ĠBÃ¨":7560,"Ġnet":7561,"ĠdÃ´ng":7562,"ĠbÄĥm":7563,"ĠnÃ©":7564,"ĠHÃłi":7565,"ĠHáº£o":7566,"Ġkhá»ī":7567,"Ġbiáº¿ng":7568,"ĠdÆ°Æ¡":7569,"light":7570,"ĠTi":7571,"ĠQuá»·":7572,"ĠWhite":7573,"Ġ140":7574,"ÄĲÃ¨n":7575,"ahoo":7576,"ĠXX":7577,"ĠphÆ°á»£ng":7578,"ĠDay":7579,"ĠMazda":7580,"Ĥº":7581,"Trao":7582,"Ġ]":7583,"Ġlá»Ŀ":7584,"ĠngÃ³i":7585,"ĠDVD":7586,"ĠTravel":7587,"ĠSS":7588,"ĠSant":7589,"tron":7590,"ÄĲÃ´i":7591,"sanh":7592,"ĠArch":7593,"Ġ96":7594,"Thuá»ĳc":7595,"Ġap":7596,"Ġèĩ":7597,"Ãģo":7598,"ĠsÃłi":7599,"ĠmÃºt":7600,"ĠGam":7601,"Ġ92":7602,"ViÃªm":7603,"eco":7604,"ĠxoÃ¡y":7605,"ĠPhÃ³ng":7606,"ĠGV":7607,"ĠÄĳÃ¡n":7608,"ĠTrÃ²":7609,"Váº¥n":7610,"ala":7611,"Ġ82":7612,"ĠBT":7613,"0000":7614,"ç¥":7615,"Ġlá»¯":7616,"ĠKhÃºc":7617,"ĠnÃ£y":7618,"Æ¯á»¢":7619,"Ġná»Ļ":7620,"ech":7621,"ĠPost":7622,"ĠrÃ¡n":7623,"ĠÄĲÃ¡p":7624,"tream":7625,"ĠGiá»¯a":7626,"Ġthis":7627,"áº¦U":7628,"isco":7629,"Ð¾Ð²":7630,"HC":7631,"ield":7632,"Ġhá»ĳt":7633,"ĠGÃł":7634,"Ġ450":7635,"Ġ81":7636,"à¤":7637,"¸ı":7638,"ese":7639,"ĠLÃ¢n":7640,"ĠnghÃªnh":7641,"ĠTÆ¯":7642,"AA":7643,"ĠThÃº":7644,"ĠMitsubishi":7645,"Ġhen":7646,"Äĳáº§u":7647,"ĠæĪ":7648,"MÃłu":7649,"ats":7650,"ĠthuÃ´":7651,"Ġcá»Ńu":7652,"Ġhan":7653,"ĠComment":7654,"ĠTui":7655,"rÃ´":7656,"ĠQuÃ´":7657,"Äĥk":7658,"burg":7659,"ival":7660,"ĠMen":7661,"Ġå¤§":7662,"ĦN":7663,"ago":7664,"ÃŃp":7665,"BM":7666,"ĠRanh":7667,"ĠAss":7668,"ĠKÃªnh":7669,"illa":7670,"chá»§":7671,"ĠbÆ°á»Ľm":7672,"yo":7673,"ĠCSVN":7674,"ĠRam":7675,"Ġ240":7676,"ĠrÃ³t":7677,"Tá»±":7678,"Ġná»ĥ":7679,"Ġ78":7680,".....":7681,"Báº£ng":7682,"ru":7683,"åħ":7684,"há»įc":7685,"ila":7686,"quan":7687,"cean":7688,"ĠHÃ¡t":7689,"Ġkhang":7690,"ĠvÄĥng":7691,"ika":7692,"Ġbá»į":7693,"Ġguitar":7694,"ĠFI":7695,"Ñĩ":7696,"ĠvÃ¡":7697,"ken":7698,"ĠManchester":7699,"ĠBangkok":7700,"Ġhá»§":7701,"ĠBÃŃnh":7702,"Giá»Ŀ":7703,"Ã¤":7704,"Ġ71":7705,"ĠIN":7706,"gin":7707,"aint":7708,"ĠHÃ³c":7709,"Ġab":7710,"ĠçĤº":7711,"Ġsá»įc":7712,"ys":7713,"thá»Ń":7714,"«sÆ°":7715,"ĠSC":7716,"],":7717,"ĠKáº»":7718,"ĠTrÃ¡nh":7719,"Ġhá»ķng":7720,"ĠTÃºi":7721,"Ġå¦ĤnhÆ°":7722,"TR":7723,"Ġsáº¡m":7724,"á»°C":7725,"cao":7726,"hai":7727,"ĠKe":7728,"ĠXV":7729,"ĠCuba":7730,"ŁdÃ£":7731,"2000":7732,"ĠTÆ°á»£ng":7733,"Ġä¹ŁdÃ£":7734,"Háº£i":7735,"eral":7736,"po":7737,"Rá»ĵi":7738,"ĠphÃ´i":7739,"ĠToÃł":7740,"Kiáº¿n":7741,"ĠGel":7742,"ĠAB":7743,"Ġphotocopy":7744,"board":7745,"2004":7746,"RiÃªng":7747,"ĠKia":7748,"ĠMTV":7749,"ÄĲÃł":7750,"Sim":7751,"Ġgá»įt":7752,"ĠRáº»":7753,"ĠbÃªnh":7754,"Ġkhong":7755,"vÄĥn":7756,"Ġquai":7757,"ĠÄĲÃ´n":7758,"Ġbáº§y":7759,"</":7760,"ĠBÃłng":7761,"Ġthá»ģm":7762,"ĠMilan":7763,"ĠÑģ":7764,"ME":7765,"tÄĥng":7766,"NhÃ³m":7767,"¥c":7768,"%),":7769,"ĠvÃ¢ng":7770,"mo":7771,"ĠxÃ´n":7772,"mobile":7773,"ĠAR":7774,"thiáº¿t":7775,"Ġ84":7776,"ĠLau":7777,"ĠKhÃ´i":7778,"ĠHuÃ¢n":7779,"ĠLá»¯":7780,"ĠkÃŃp":7781,"ĠHouse":7782,"QuÃ¡":7783,"ĠMichael":7784,"ĠÄĲáºŃu":7785,"ading":7786,"ĠthuÃ¢":7787,"ĠArt":7788,"CáºŃu":7789,"ĠDC":7790,"Ġtháº¯m":7791,"ĠÄĲáº¥u":7792,"ĠMotor":7793,"emon":7794,"ĠmiÃª":7795,"ĠSO":7796,"ĠFin":7797,"Äĳi":7798,"Ġhanh":7799,"ations":7800,"Ð¼":7801,"Ġvung":7802,"ĠClin":7803,"ĠUá»ĳng":7804,"Ġnuá»ĳi":7805,"Ġrem":7806,"%).":7807,"thÆ°á»£ng":7808,"ĠbÃ³i":7809,"cÆ¡":7810,"Įh":7811,"thÆ°á»Ŀng":7812,"ĠçĶŁ":7813,"ÄĲáº·t":7814,"ĠCÃłng":7815,"Ġamin":7816,"ÄĤN":7817,"ĠGháº¿":7818,"ï¸ı":7819,"ĠMTTQ":7820,"áº¢I":7821,"ĠSX":7822,"Ġgiá»ı":7823,"Ġäºº":7824,"ĠPas":7825,"ĠVáº«n":7826,"fer":7827,"áº©ng":7828,"á»Ĩ":7829,"SV":7830,"Ġpháº¥t":7831,"ĠBÆ°u":7832,"can":7833,"ĠÐ²":7834,"ĠTÃ½":7835,"ĠCat":7836,"ĠMor":7837,"ĠgÃ¢":7838,"Ġ76":7839,"ĠØ":7840,"MO":7841,"ĠAmer":7842,"ĠRoyal":7843,"ange":7844,"Ġváº§n":7845,"III":7846,"Ġå¸«sÆ°":7847,"Ġchá»«":7848,"Ġhuá»·":7849,"ÃĻ":7850,"ÄĲá»įc":7851,"ĠBCH":7852,"acom":7853,"ÄĲÆ¡n":7854,"ĠnÄĥ":7855,"Lá»ĭch":7856,"ader":7857,"ĠVÄ©":7858,"ĠTráº£":7859,"ĠphÃłm":7860,"arch":7861,"ĠLuÃ´n":7862,"ĠSá»©":7863,"ĠCáº£i":7864,"Ġvá»Ŀ":7865,"ĠÄĳoa":7866,"Ġ79":7867,"vo":7868,"Æ£":7869,"Ġyoga":7870,"Giao":7871,"DÃ²ng":7872,"ĠkhoÃ¡t":7873,"Ġdc":7874,"Ġxá»ĩ":7875,"HÃ£ng":7876,"SA":7877,"ĠXu":7878,"ĠPhá»ĳi":7879,"Ġtá»¥y":7880,"ilm":7881,"ista":7882,"HÄĲ":7883,"ĠThai":7884,"ĠtrÆ°":7885,"ĠdÃ¨":7886,"Ġngáº¡o":7887,"ĠVn":7888,"ÄĲÃªm":7889,"ĠQuyÃªn":7890,"Ġdat":7891,"SP":7892,"no":7893,"ÄĲá»ĵ":7894,"ĠÄĲiá»ĩp":7895,"ĠYamaha":7896,"Háº¯n":7897,"Ġbá»ĭt":7898,"Ġdá»©a":7899,"ĠâĢ¦.":7900,"PTNT":7901,"ĠsÃºp":7902,"ĠSak":7903,"ĠNor":7904,"olog":7905,"ĠAI":7906,"Ġá»©":7907,"ÄĲa":7908,"ĠhÃ¡o":7909,"ĠGá»Ńi":7910,"ÐµÐ½":7911,"ĠDá»ħ":7912,"Ġsl":7913,"ĠNgÆ°":7914,"ĠtrÃ³i":7915,"Net":7916,"ĠâĢĭâĢĭ":7917,"Ġyour":7918,"fl":7919,"ĠChÃ¡u":7920,"ĠnhÃ³c":7921,"Ġsáº¡t":7922,"ĠSÃ¢m":7923,"Ġhormone":7924,"kim":7925,"ĠThan":7926,"ĠmÃªnh":7927,"Ġ89":7928,"ThÆ°á»Ŀng":7929,"LL":7930,"doc":7931,"tháº¿":7932,"ĠçĶŁsanh":7933,"ĠATM":7934,"áº¾T":7935,"Ġhcm":7936,"Ġchan":7937,"ĠçĤºvi":7938,"YÃªu":7939,"ĠVisa":7940,"ĠLÃ²ng":7941,"Ġtá»īa":7942,"tech":7943,"ĠVá»įng":7944,"Ġtháº³m":7945,"Ġcopy":7946,"ĠBlue":7947,"ĠHT":7948,"ĠFC":7949,"Ġflash":7950,"ÙĦ":7951,"allet":7952,"Ġåī":7953,"====":7954,"ĠgÃ´":7955,"Ġnháº¹n":7956,"ĠHigh":7957,"Ġcty":7958,"ĠGrab":7959,"å¤©":7960,"the":7961,"issan":7962,"ĠTur":7963,"ĠvÃµng":7964,"ĠVAT":7965,"ye":7966,"ÌĢ,":7967,"ĠPremium":7968,"ĠChiáº¿t":7969,"reat":7970,")âĢ¦":7971,"ĠSum":7972,"ĠKiá»ĩn":7973,"ound":7974,"Ġcotton":7975,"ĠTáº¥m":7976,"ĠTan":7977,"Ġná»Ľi":7978,"ĠOm":7979,"ĠThuá»·":7980,"å®":7981,"Ġmin":7982,"...)":7983,"lobal":7984,"khu":7985,"cript":7986,"ĠTel":7987,"Ġkhiáº¿m":7988,"ever":7989,"Âº":7990,"ĠLib":7991,"nb":7992,"ST":7993,"ĠLight":7994,"ÃĤY":7995,"ĠFree":7996,"Cáº§u":7997,"ĠGiÃły":7998,"thÃ´ng":7999,"appy":8000,"ĠMÆ¡":8001,"ĠÃ¹n":8002,"Tinh":8003,"Ġngáº¡t":8004,"âĢ¦..":8005,"Cáº£nh":8006,"Ġ1992":8007,"ĠtrÃ³c":8008,"ĠFed":8009,"ĠCroatia":8010,"ĠKHÃĶNG":8011,"ĠDon":8012,"ĠChÆ°":8013,"ĠRep":8014,"Ġ1995":8015,"ĠKo":8016,"CÃ¡":8017,"ĠmÃŃt":8018,"Ġseries":8019,"COM":8020,"tt":8021,"ĠLuyá»ĩn":8022,"Ġçķ":8023,"ennis":8024,"ĠäººnhÃ¢n":8025,"Ġdáº§m":8026,"ren":8027,"ĠInn":8028,"ĠCPU":8029,"ĠnÃ³c":8030,"Cao":8031,"giáº£i":8032,"Ġè«":8033,"Fone":8034,"ĠTor":8035,"chu":8036,"ĠNhiá»ĩm":8037,"JC":8038,"Ġ1998":8039,"ĠHÃ¨":8040,"Ġvá»¯a":8041,"treet":8042,"ĠHÃĢNG":8043,"Ġvali":8044,"ĠCle":8045,"ĠTháº¡c":8046,"à¹":8047,"ĠåĽ":8048,"Ġout":8049,"ĠIphone":8050,"Ġgiáº¥m":8051,"ati":8052,"ĠÄĲá»ķi":8053,"Ġ77":8054,"oma":8055,"LA":8056,"ĠLux":8057,"Ġtag":8058,"ĠSuzuki":8059,"Ġtruyen":8060,"ĠthÃ¢u":8061,"ĠThá»Ľi":8062,"nay":8063,"Ġmá»©t":8064,"Ġmá»³":8065,"Káº¿":8066,"ventus":8067,"ká»³":8068,"ĠsÃło":8069,"kiáº¿n":8070,"ĠAuto":8071,"wa":8072,"ĠNHNN":8073,"ĠbÃºa":8074,"Sh":8075,"ĠngÃłng":8076,"web":8077,"Ġghe":8078,"Ġthong":8079,"ĠCáº§m":8080,"ĠHua":8081,"Index":8082,"Nghá»ĩ":8083,"ĠlÃµm":8084,"Ġngá»Ŀi":8085,"order":8086,"ĠKhung":8087,"view":8088,"ĠnhÄ©":8089,"Ġ1997":8090,"ĠTháº»":8091,"ĠTIáº¾":8092,"ĠCÃ¡p":8093,"ĠnhÆ¡":8094,"hoa":8095,"ĠThÃ¬n":8096,"ĠNik":8097,"Ġmat":8098,"ĠBOT":8099,"Giáº¥y":8100,"PhÃº":8101,"oom":8102,"Ġchá»įi":8103,"IG":8104,"ĠcÃ²":8105,"ersion":8106,"TÃ³m":8107,"ĠlÃ³c":8108,"dong":8109,"Quáº£":8110,"ĠTrÃ¢n":8111,"edit":8112,"ĠgiÆ°":8113,"...\"":8114,"ĠZen":8115,"Tráº»":8116,"ĠNar":8117,"ĠTal":8118,"ĠMáº§m":8119,"ĠnÃ´i":8120,"uss":8121,"Ġtua":8122,"Ġshare":8123,"hÃł":8124,"agram":8125,"Ġæķħ":8126,"ric":8127,"ĠTráº£i":8128,"px":8129,"Ġteam":8130,"Ġtrá»ķ":8131,"trÃªn":8132,"LS":8133,"táº¥n":8134,"ider":8135,"Ġ87":8136,"Ġæ³ķ":8137,"ĠCTCP":8138,"ĠKhá»ķng":8139,"ieng":8140,"Ġngáº©ng":8141,"Ġæķħcá»ĳ":8142,"Ġnot":8143,"une":8144,"ĠnÃºm":8145,"á»ĲC":8146,"ĠHit":8147,"ĠSUV":8148,"Tháº§y":8149,"wei":8150,"ĠAPEC":8151,"ĠÄĳÃ²":8152,"ĠMáº¡i":8153,"ĠNháº±m":8154,"Kem":8155,"ling":8156,"Gh":8157,"ĠDownload":8158,"Ġèª":8159,"ĠDragon":8160,"ĠBox":8161,"Nghá»ĭ":8162,"ĠAf":8163,"amine":8164,"ĠHÃło":8165,"ĠcÄĥm":8166,"Ġsiáº¿t":8167,"OO":8168,"Ġváº¯c":8169,"Ġngáº«m":8170,"ĠFranc":8171,"âĢĶâĢĶ":8172,"Ġmiá»ĩt":8173,"elle":8174,"Ġnick":8175,"á»¤C":8176,"Ġur":8177,"ĠSuá»ĳi":8178,"357":8179,"Ġfrom":8180,"ĠThá»ĭt":8181,"ĠXperia":8182,"PA":8183,"BV":8184,"360":8185,"GÄĲ":8186,"ĠOffice":8187,"âĢĻ,":8188,"sá»Ł":8189,"ĠAsus":8190,"Book":8191,"Ġphen":8192,"tuáº§n":8193,"Ġå¤©":8194,"Ġbá»«a":8195,"Tiáº¿n":8196,"trang":8197,"Doanh":8198,"aacute":8199,"ĠÄĲá»ĺ":8200,"2003":8201,"ĠlÃ¬a":8202,"ĠÄĳá»±c":8203,"ĠHOT":8204,"ĠFan":8205,"Ġmá»ģ":8206,"PH":8207,"ĠHáº¡ng":8208,"read":8209,"ÃģY":8210,"ule":8211,"Äĳáº·c":8212,"cam":8213,"ĠrÄĥn":8214,"Ġshowbiz":8215,"KD":8216,"ĠHá»©a":8217,"aku":8218,"ece":8219,"Ġngá»¥y":8220,"apan":8221,"Cá»©":8222,"ĠSub":8223,"Ġgiá»ģng":8224,"Wh":8225,"nes":8226,"ĠnhÃło":8227,"Ġ74":8228,"999":8229,"ĠLÃĢ":8230,"Ġyáº¿m":8231,"ĠtrÆ°á»Ľng":8232,"ĠthÃł":8233,"ĠHá»£i":8234,"ĠLim":8235,"ĠAV":8236,"ĻĤ":8237,"nham":8238,"Ġphao":8239,"lywood":8240,"mon":8241,"Ġ^^":8242,"ĠmÃ©o":8243,"OA":8244,"ĠNgÆ°Æ¡i":8245,"Ġgio":8246,"den":8247,"gy":8248,"ĠåŃ":8249,"ĠtÆ¡i":8250,"tinh":8251,"Ġall":8252,"****":8253,"quang":8254,"ĠéĢ":8255,"ĠVo":8256,"Ġri":8257,"ĠNgÃ£":8258,"exus":8259,"ĠUr":8260,"ĠrÃ¹a":8261,"ble":8262,"ĠFlor":8263,"aba":8264,"ĠBook":8265,"gio":8266,"Ġhá»ĳc":8267,"ĠlÄĥm":8268,"ĠLove":8269,"TPO":8270,"back":8271,"Ġsite":8272,"ĠThá»¥c":8273,"LT":8274,"ĠxÃª":8275,"Chuyá»ĥn":8276,"Post":8277,"BÃŃ":8278,"ĠTá»«ng":8279,"Má»Ł":8280,"ĠÄĳáº«m":8281,"ĠChevrolet":8282,"ĠVNPT":8283,"Ã¼":8284,"ĠOcean":8285,"ĠBÃª":8286,"ĠBiáº¿n":8287,"ĠâĤ«":8288,"âĢĿâĢ¦":8289,"Ġlá»ĵi":8290,"tÃ¡t":8291,"á¹":8292,"Ġlá»¥y":8293,"ĠxoÃ¡":8294,"Ġneo":8295,"KÃŃnh":8296,"Ġpháº«n":8297,"ĠMÃ¡c":8298,"Ġngá»ı":8299,"KhÃ¡c":8300,"ĠngÃ¡n":8301,"ĠGÄĲ":8302,"ĠÄĳáº¥ng":8303,"ĠFe":8304,"mÃł":8305,"ĠArab":8306,"ĠTuÃ¢n":8307,"Ġhom":8308,"Ġsexy":8309,"right":8310,"HT":8311,"Ġsáº£":8312,"ĠChe":8313,"ĠSoi":8314,"ĠnhÃ¡":8315,"ĠPhot":8316,"ĠquyÃªn":8317,"ĠChina":8318,"ĠVietjet":8319,"eland":8320,"ĠVictoria":8321,"ĠItaly":8322,"ĠDig":8323,"trá»«":8324,"ious":8325,"UN":8326,"Ġváº«y":8327,"Ġ''":8328,"Láº¥y":8329,"rogen":8330,"tÃªn":8331,"ĠTuyá»ģn":8332,"Ġhá»·":8333,"tá»Ń":8334,"ĠBá»ĳn":8335,"ĠsÃ²ng":8336,"Ġráº§m":8337,"Tube":8338,"Ġmá»įt":8339,"ĠRock":8340,"Ġkhoáº¯n":8341,"Sá»¯a":8342,"Ġ83":8343,"ius":8344,"cer":8345,"ĠCore":8346,"Ġmac":8347,"ĠTáº£":8348,"Æ°á»Ľu":8349,"ĠCÃ¹":8350,"ĠCHá»":8351,"ĠOut":8352,"Ġ3000":8353,"ĠgÄĥ":8354,"Ġins":8355,"Ð´":8356,"Há»ĵi":8357,"oshop":8358,"uilding":8359,"101":8360,"ĠUniversity":8361,"Láº¡i":8362,"¤thá»Ń":8363,"ulin":8364,"ĠJuventus":8365,"ĠMini":8366,"Ġ),":8367,"vÃŃ":8368,"yc":8369,"Ġláº¡y":8370,"ĠÆł":8371,"aker":8372,"á»¨ng":8373,"Link":8374,"Ġtráº·c":8375,"danh":8376,"ĠPol":8377,"ĠHAG":8378,"ĠTIN":8379,"ift":8380,"Äĳá»ĭa":8381,"Ġion":8382,"ĠSL":8383,"Ġ1980":8384,"ĠIC":8385,"ĠnhÃ©t":8386,"ĠLos":8387,"Tháº¥y":8388,"ĠHáº¡n":8389,"ĠOppo":8390,"ĠTB":8391,"ĠBÃ´ng":8392,"Ġluyáº¿n":8393,"brid":8394,"bl":8395,"ĠCNC":8396,"Hu":8397,"ĠÃįt":8398,"Ġvest":8399,"ĠBlock":8400,"Ġmag":8401,"Ġchuá»Ļc":8402,"ĠÄĳá»ĳn":8403,"ĠNiá»ĩm":8404,"Ġ1996":8405,"ĠSur":8406,"hu":8407,"edan":8408,"bour":8409,"tai":8410,"ĴNG":8411,"cháº¥t":8412,"á»ĺI":8413,"Äĳáº¯c":8414,"Ġbox":8415,"ĠtuyÃª":8416,"cow":8417,"ĠCá»¦":8418,"Ġml":8419,"á»¨C":8420,"Cha":8421,"ĠÄĲáº¯c":8422,"dy":8423,"ĠLouis":8424,"ĠHarry":8425,"ĠThang":8426,"160":8427,"Ġandroid":8428,"UR":8429,"ĠSIM":8430,"Ġsáº¯n":8431,"ĠhÅ©":8432,"ĠchÃ¡t":8433,"ĠchÆ°á»Ľc":8434,"ĠLá»±a":8435,"ĠGhi":8436,"ĠThÃ©p":8437,"Ġgang":8438,"ĠCard":8439,"Ġadmin":8440,"ĠnhÃ´":8441,"ªth":8442,"ĠThuá»Ļt":8443,"Äĳáº¡o":8444,"tháº§n":8445,"ĠSá»Ńu":8446,"ĠchÃ³t":8447,"DR":8448,"ender":8449,"Ġgold":8450,"ĠmÃ¨":8451,"Ã¶":8452,"Ġcá»¥t":8453,"phouse":8454,"ĠquáºŃt":8455,"Tuá»ķi":8456,"ĠGÃ³c":8457,"Ġbáº©y":8458,"ple":8459,"Ġ1994":8460,"ĠtÄĥ":8461,"ĠsuÃ´n":8462,"ĠTáºłI":8463,"ĠBeau":8464,"ĠÃĶn":8465,"iana":8466,"tect":8467,"ĠJul":8468,"ĠNhÆ°á»£c":8469,"ĠNgÆ°u":8470,"Ġ105":8471,"ĠbÃŃt":8472,"ĠCÃºp":8473,"Ġ97":8474,"ĠhÃ¡":8475,"Ġá»Ķ":8476,"ĠPle":8477,"ĠÃĬ":8478,"Ġcasino":8479,"XX":8480,"ĠráºŃp":8481,"ĠWifi":8482,"1000":8483,"ĠYoung":8484,"ĠFort":8485,"ĠDÆ°á»¡ng":8486,"Ġnáº¡o":8487,"Ġnem":8488,"Ġtanh":8489,"ĠNano":8490,"ĠrÃªu":8491,"ĠVang":8492,"ĠCoc":8493,"pháº§n":8494,"GP":8495,"info":8496,"''":8497,"Báº¯c":8498,"Iá»ĨU":8499,"MÃłn":8500,"Ġmica":8501,"ĠcÃ´i":8502,"Long":8503,"Ġ108":8504,"Ġcá»Ļi":8505,"aria":8506,"ĠæŃ¤thá»Ń":8507,"off":8508,"âĢĺ":8509,"ĠCollagen":8510,"dep":8511,"ĠhÃ£nh":8512,"ĠkhÃ³e":8513,"cÅ©ng":8514,"ĠpH":8515,"Ġtáº»":8516,"ĠUng":8517,"ĠThá»Ń":8518,"ĠABS":8519,"KV":8520,"ĠRÄĥng":8521,"axi":8522,"Ad":8523,"Ġlá»ģu":8524,"ĠRáº¡ch":8525,"mÃ¬nh":8526,"Ġ93":8527,"ĠÄĲáº§m":8528,"Ġthá»ĳn":8529,"yan":8530,"Ġbik":8531,"Ġlá»ĳc":8532,"ĠrÄĥ":8533,"HÃłn":8534,"tv":8535,"chÆ°a":8536,"ĠDá»±a":8537,"ĠSnap":8538,"ĠMÃ£o":8539,"ChÃºc":8540,"Game":8541,"yÃªu":8542,"ĠCá»Ŀ":8543,"LÃª":8544,"Ġtrá»ı":8545,"aily":8546,"ids":8547,"ĠNhÆ°á»¡ng":8548,"ĠRÃµ":8549,"ĠCá»¦A":8550,"ĠgÃło":8551,"ĠGiá»¯":8552,"ĠTriáº¿t":8553,"ĠPu":8554,"Ġngáº©n":8555,"Ġthoai":8556,"ten":8557,"ĠCanon":8558,"Ġsup":8559,"zz":8560,"ument":8561,"MÃ³n":8562,"Ĩl":8563,"Máº¥y":8564,"PhiÃªn":8565,"Ġtá»ĩp":8566,"ĠtrÃ¡":8567,"thuá»Ļc":8568,"ĠPo":8569,"ĠlÃºng":8570,"enger":8571,"hire":8572,"ĠHen":8573,"Ġbung":8574,"La":8575,"Ġfr":8576,"ĠhÃ¡n":8577,"Ġcabin":8578,"á»ĬCH":8579,"ĠçŁ":8580,"ison":8581,"ated":8582,"ĠvÃ¹i":8583,"Ġváº£y":8584,"ĠVai":8585,"irst":8586,"ĠquÃ´":8587,"BÃ¡nh":8588,"ĠPearl":8589,"ĠÐ½":8590,"Ġtáº¯n":8591,"ĠrÆ°á»¡i":8592,"ĠAudio":8593,"ages":8594,"ĠNob":8595,"ĠvÃ£ng":8596,"ĠHá»ĺ":8597,"ĠSar":8598,"ĠÃĲáº¡i":8599,"ĠChá»ĵng":8600,"tho":8601,"NÃłng":8602,"???":8603,"Ġä»¥":8604,"ĠPac":8605,"ĠQuÃ¡ch":8606,"Ġ1993":8607,"amond":8608,"esel":8609,"Ġfix":8610,"ĠDec":8611,"ĠCondotel":8612,"NgÆ°Æ¡i":8613,"OC":8614,"++":8615,"(\"":8616,"ĠBur":8617,"Thiáº¿u":8618,"á»ľ":8619,"Ġhá»©c":8620,"ĠthÃ¡n":8621,"hang":8622,"INE":8623,"ating":8624,"May":8625,"ots":8626,"ĠDJ":8627,"its":8628,"Ġbook":8629,"Ġmel":8630,"ĠWilli":8631,"Ġhosting":8632,"amb":8633,"Ġkali":8634,"erson":8635,"LÃ¢m":8636,"ĠSchool":8637,"res":8638,"Ġthen":8639,"NgÃ´i":8640,"rop":8641,"OP":8642,"ĠæĽ°":8643,"XS":8644,"Ġä»¥dÄ©":8645,"Ġå¾Ĺ":8646,"ĠBá»ķ":8647,"Press":8648,"Web":8649,"Ãī":8650,"ĠVTC":8651,"ĠtÃ©":8652,"Ġmiáº¿u":8653,"NA":8654,"ĠVÄĲV":8655,"ĠÐ¸":8656,"ĠRanger":8657,"ThÆ°a":8658,"ĠæĽ°viáº¿t":8659,"ĠráºŃm":8660,"ï¼Į":8661,"Má»©c":8662,"ĠPak":8663,"Ġ2030":8664,"ÃĢNH":8665,"Bá»ĭ":8666,"ĠSeries":8667,"ĠTrÃ¢m":8668,"ĠDS":8669,"Ġ090":8670,"Ġbody":8671,"ĠæĹ":8672,"fin":8673,"VÃ²ng":8674,"umin":8675,"Ġå¾ĹÄĳáº¯c":8676,"Ġenz":8677,"ĠLiga":8678,"ÄĲH":8679,"ĠNHÃĢ":8680,"ĠtrÃºt":8681,"ĠPoly":8682,"ret":8683,",,":8684,"ĠThom":8685,"ĠMao":8686,"Ġxáº¥p":8687,"ĠÆ°Æ¡m":8688,"ĠGolf":8689,"XB":8690,"ĠServer":8691,"inch":8692,"Ġå¿ĥ":8693,"Ġ170":8694,"ĠMoscow":8695,"ĠStore":8696,"ĠBID":8697,"ĠVietcombank":8698,"ĠYouTube":8699,"ĠVNCH":8700,"TÃ¢y":8701,"Ġhuá»ĩ":8702,"ĠNá»ģn":8703,"ĠïĤ":8704,"Ġngháº¹n":8705,"ĠPop":8706,"ĠHáº¯c":8707,"ĠAD":8708,"ĠTX":8709,"ĠTex":8710,"Ìī.":8711,"Tp":8712,"Ġhá»Ļt":8713,"NÆ¡i":8714,"ĠChiá»ĥu":8715,"uters":8716,"Ġlogic":8717,"ING":8718,"ĠJava":8719,"ĠRobert":8720,"Ġnguoi":8721,"VÃ©":8722,"ager":8723,"ĠSá»Ĳ":8724,"báº£n":8725,"ĠvÃ£n":8726,"cast":8727,"ĠIT":8728,"ĠId":8729,"áº¢O":8730,"VOV":8731,"Ġ115":8732,"ĠLU":8733,"ĠTOP":8734,"trÆ°á»Ľc":8735,"earch":8736,"Ġá»ĳ":8737,"hot":8738,"ĠGian":8739,"nguyÃªn":8740,"Ġå±":8741,"Ġnao":8742,"ĠGioan":8743,"istics":8744,"ĠCit":8745,"ĠHDMI":8746,"ĠAk":8747,"ĠFB":8748,"ĠphÃ¡ch":8749,"obi":8750,"ĠLat":8751,"ĠOf":8752,"ĠCÄĲV":8753,"ĠrÆ¡m":8754,"Ġgiá»¥c":8755,"obe":8756,"ĠBR":8757,"Ġest":8758,"ĠchÃŃch":8759,"ĠOpen":8760,"yle":8761,"Ġ1945":8762,"IDS":8763,"cha":8764,"ĠCÃ¡m":8765,"IF":8766,"Ġå¯":8767,"...,":8768,"Ġwap":8769,"Ġsáº£o":8770,"cu":8771,"Ká»³":8772,"ĠGÃ³i":8773,"GiÃ¡m":8774,"Äĳiá»ģu":8775,"verter":8776,"jp":8777,"ffee":8778,"anel":8779,"Ġsub":8780,"TÃ¢m":8781,"GDVN":8782,"long":8783,"NgÃ¢n":8784,"ĠÃºp":8785,"ĠÄĳiáº¿u":8786,"edu":8787,"ĠLÃ£ng":8788,"ÄĤNG":8789,"ĠTá»µ":8790,"ĠNiáº¿t":8791,"ļĦ":8792,"ĠHat":8793,"ander":8794,"Ġchuyen":8795,"ÃģCH":8796,"Ġ91":8797,"Ġwas":8798,"ĠVá»ĳn":8799,"organ":8800,"ĀĀĀĀĀĀĀĀĀĀĀĀĀĀĀĀĀĀĀĀĀĀĀĀĀĀĀĀĀĀĀĀĀĀĀĀĀĀĀĀĀĀĀĀĀĀĀĀĀĀĀĀĀĀĀĀĀĀĀĀĀĀĀĀĀĀĀĀĀĀĀĀĀĀĀĀĀĀĀĀĀĀĀĀĀĀĀĀĀĀĀĀĀĀĀĀĀĀĀĀĀĀĀĀĀĀĀĀĀĀĀĀĀĀĀĀĀĀĀĀĀĀĀĀĀĀĀĀĀĀĀĀĀĀĀĀĀĀĀĀĀĀĀĀĀĀĀĀĀĀĀĀĀĀĀĀĀĀĀĀĀĀĀĀĀĀĀĀĀĀĀĀĀĀĀĀĀĀĀĀĀĀĀĀĀĀĀĀĀĀĀĀĀĀĀĀĀĀĀĀĀĀĀĀĀĀĀĀĀĀĀĀĀĀĀĀĀĀĀĀĀĀĀĀĀĀĀĀĀĀĀĀĀĀĀĀĀĀĀĀĀĀĀĀĀĀĀĀĀĀĀĀĀĀĀĀĀĀĀĀĀĀĀĀĀĀĀĀĀĀĀĀĀĀĀĀĀĀĀĀĀĀĀĀĀĀĀĀĀĀĀĀĀĀĀĀĀĀĀĀĀĀĀĀĀĀĀĀĀĀĀĀĀĀĀĀĀĀĀĀĀĀĀĀĀĀĀĀĀĀĀĀĀĀĀĀĀĀĀĀĀĀĀĀĀĀĀĀĀĀĀĀĀĀĀĀĀĀĀĀĀĀĀĀĀĀĀĀĀĀĀĀĀĀĀĀĀĀĀĀĀĀĀĀĀĀĀĀĀĀĀĀĀĀĀĀĀĀĀĀĀĀĀĀĀĀĀĀĀĀĀĀĀĀĀĀĀĀĀĀĀĀĀĀĀĀĀĀĀĀĀĀĀĀĀĀĀĀĀĀĀĀĀĀĀĀĀĀĀĀĀĀĀĀĀĀĀĀĀĀĀĀĀĀĀĀĀĀĀĀĀĀĀĀĀĀĀĀĀĀĀĀĀĀĀĀĀĀĀĀĀĀĀĀĀĀĀĀĀĀĀĀĀĀĀĀĀĀĀĀĀĀĀĀĀĀĀĀĀĀĀĀĀĀĀĀĀĀĀĀĀĀĀĀĀĀĀĀĀĀĀĀĀĀĀĀĀĀĀĀĀĀĀĀĀĀĀĀĀĀĀĀĀĀĀĀĀĀĀĀĀĀĀĀĀĀĀĀĀĀĀĀĀĀĀĀĀĀĀĀĀĀĀĀĀĀĀĀĀĀĀĀĀĀĀĀĀĀĀĀĀĀĀĀĀĀĀĀĀĀĀĀĀĀĀĀĀĀĀĀĀĀĀĀĀĀĀĀĀĀĀĀĀĀĀĀĀĀĀĀĀĀĀĀĀĀĀĀĀĀĀĀĀĀĀĀĀĀĀĀĀĀĀĀĀĀĀĀĀĀĀĀĀĀĀĀĀĀĀĀĀĀĀĀĀĀĀĀĀĀĀĀĀĀĀĀĀĀĀĀĀĀĀĀĀĀĀĀĀĀĀĀĀĀĀĀĀĀĀĀĀĀĀĀĀĀĀĀĀĀĀĀĀĀĀĀĀĀĀĀĀĀĀĀĀĀĀĀĀĀĀĀĀĀĀĀĀĀĀĀĀĀĀĀĀĀĀĀĀĀĀĀĀĀĀĀĀĀĀĀĀĀĀĀĀĀĀĀĀĀĀĀĀĀĀĀĀĀĀĀĀĀĀĀĀĀĀĀĀĀĀĀĀĀĀĀĀĀĀĀĀĀĀĀĀĀĀĀĀĀĀĀĀĀĀĀĀĀĀĀĀĀĀĀĀĀĀĀĀĀĀĀĀĀĀĀĀĀĀĀĀĀĀĀĀĀĀĀĀĀĀĀĀĀĀĀĀĀĀĀĀĀĀĀĀĀĀĀĀĀĀĀĀĀĀĀĀĀĀĀĀĀĀĀĀĀĀĀĀĀĀĀĀĀĀĀĀĀĀĀĀĀĀĀĀĀĀĀĀĀĀĀĀĀĀĀĀĀĀĀĀĀĀĀĀĀĀĀĀĀĀĀĀĀĀĀĀĀĀĀĀĀĀĀĀĀĀĀĀĀĀĀĀĀĀĀĀĀĀĀĀĀĀĀĀĀĀĀĀĀĀĀĀĀĀĀĀĀĀĀĀĀĀĀĀĀĀĀĀĀĀĀĀĀ":8801,"Ġliáº¿m":8802,"Ã³e":8803,"ĠKhiÃªm":8804,"ĠBre":8805,"LoÃłi":8806,"ĠnÃ²ng":8807,"ĠMá»ĩnh":8808,"Ġéĸ":8809,"Ġsá»į":8810,"Ġå¿ĥtÃ¢m":8811,"ĠPhÃłm":8812,"iku":8813,"ĠhÃ¢":8814,"chen":8815,"ĠNissan":8816,"ĠBy":8817,"ĠVir":8818,"AB":8819,"ĠÄĲau":8820,"ĠPat":8821,"Ġpart":8822,"ĠKey":8823,"ĠAudi":8824,"ness":8825,"Ġroi":8826,"Ġfol":8827,"ĠTW":8828,"ĠRi":8829,"Quyá»ģn":8830,"ĠTÃ³c":8831,"Æ°á»Ľn":8832,"Truyá»ĩn":8833,"ÄĲÃ¡ng":8834,"ĠColle":8835,"ĠCháº¥n":8836,"RP":8837,"ĠCÃ¡nh":8838,"ĠHollywood":8839,"ĠTitan":8840,"ĠèĪ":8841,"ker":8842,"láº§n":8843,"ottenham":8844,"set":8845,"Ġháº¯t":8846,"ember":8847,"ĠkÃ¨":8848,"umi":8849,"ĠNÃło":8850,"ĠÄĲB":8851,"Ġvá»Ľ":8852,"áºº":8853,"ĠvÃªnh":8854,"Há»Ĺ":8855,"ĠCáº¥u":8856,"âĢĿ:":8857,"Ġnano":8858,"Ġ000":8859,"achi":8860,"á»ıe":8861,"ĠéĿ":8862,"ĠBC":8863,"ĠTá»įa":8864,"ĠGiá»įng":8865,"ĠTráº¡i":8866,"Ñħ":8867,"ĠToshi":8868,"Quá»ĳc":8869,"Hoáº¡t":8870,"Vin":8871,"Ġline":8872,"Ġcá»§i":8873,"ĠcÃ¯":8874,"nd":8875,"ĠHuyáº¿t":8876,"ĠBayern":8877,"ĠReuters":8878,"ĠNáº¥m":8879,"Ġok":8880,"ĠTá»Ŀ":8881,"ĠÄĲáº³ng":8882,"Ġlá»£p":8883,"ĠtoÃ¡i":8884,"ĠlÄĥ":8885,"ogr":8886,"Tráº£i":8887,"ĠCá»Ń":8888,"ĠLÃ¡i":8889,"ĠtÃ²i":8890,"Cháº¿":8891,"Ġship":8892,"ĠKangnam":8893,"hÃ¬nh":8894,"Ġquáº¥t":8895,"ĠCá»±":8896,"ĠbÆ°ng":8897,"ÄĲÃ´ng":8898,"Ġä¸ī":8899,"bÃł":8900,"ĠPháº£n":8901,"Thi":8902,"Ġword":8903,"ĠÙ":8904,"ape":8905,"Æ¯á»ļC":8906,"Tá»įa":8907,"Ġvietsub":8908,"ĠEVN":8909,"ĠBin":8910,"ĠKen":8911,"ĠgÄĥng":8912,"NÃły":8913,"thá»±c":8914,"ĠMeg":8915,",âĢ¦.":8916,"Ġvv":8917,"ĠÄĲoáº¡n":8918,"ĠExpress":8919,"háº¡":8920,"ĠchÆ°á»Łng":8921,"ĠngÃ²i":8922,"sá»Ńa":8923,"PhÃŃa":8924,"táº¥t":8925,"212":8926,"Ġnil":8927,"ThÆ°":8928,"Minh":8929,"ĠvÃ¡ng":8930,"thá»§":8931,"SÆ¡n":8932,"Ġforum":8933,"iko":8934,"xuáº¥t":8935,"XÃ©t":8936,"Ġmake":8937,"ĠFrank":8938,"ĠFDI":8939,"Ġclass":8940,"ĠHoan":8941,"KhÃ³a":8942,"ĠShar":8943,"ĠJi":8944,"âĢĻâĢĻ":8945,"Ġoai":8946,"ĠphÆ°á»£t":8947,"ĠGáº·p":8948,"ĠPre":8949,"ÃĬU":8950,"ĠZing":8951,"ĠClub":8952,"cá»ķ":8953,"iter":8954,"ĠngÃ¡y":8955,"ĠsÃ¹ng":8956,"ington":8957,"ĠrÃªn":8958,"ĠBá»įn":8959,"ĠMir":8960,"ĠnÆ¡":8961,"round":8962,"Ġä¸Ń":8963,"ĠVat":8964,"Ġtá»Ļt":8965,"zo":8966,"ushi":8967,"ĠMoon":8968,"ĠBel":8969,"ĠDá»±ng":8970,"TÄĲ":8971,"ĠInstagram":8972,"ĠDáº«n":8973,"Ġsáº§n":8974,"Ġáº¯t":8975,"iff":8976,"Ġáº¿ch":8977,"ĠInox":8978,"ĠHAGL":8979,"bÃ¬nh":8980,"ĠSM":8981,"ĠPhaolÃ´":8982,"Hay":8983,"cent":8984,"Æ°á»£m":8985,"ĠÄĲá»īnh":8986,"ior":8987,"Ġá»ĵ":8988,"NÃ¢ng":8989,"Ġ1991":8990,"Ġcal":8991,"âĻ":8992,"GVN":8993,"ĠHuawei":8994,"Ġet":8995,"phim":8996,"á»Ģ":8997,"ĠGe":8998,"Ġsá»¡":8999,"Ġsá»§ng":9000,"ĠTab":9001,"vin":9002,"á»ļI":9003,"Ġah":9004,"ĠphÃłn":9005,"tá»īnh":9006,"Ġfanpage":9007,"ĠtÆ°ng":9008,"ä¸Ń":9009,"Ġcá»ĵng":9010,"ology":9011,"ĠJetstar":9012,"ĠNá»ķi":9013,"Kiá»ĥm":9014,"ient":9015,"110":9016,"ĠNoel":9017,"ĠCC":9018,"ĠMA":9019,"ĠÄĲÆ°Æ¡ng":9020,"âĺ":9021,"Ġèĭ":9022,"Ġsáº·c":9023,"TU":9024,"ĠAu":9025,"ĠPart":9026,"ms":9027,"ĠRu":9028,"ray":9029,"ĠBas":9030,"vel":9031,"350":9032,"xa":9033,"tÃ¡c":9034,"ĠSD":9035,"ÃĤM":9036,"ĠVen":9037,"ĠxÃ¡o":9038,"ĠVÆ°á»£ng":9039,"ĠCur":9040,"ĠBon":9041,"ION":9042,"ĠAF":9043,"ĠDáº¡y":9044,"Ġtoáº£":9045,"ĠColor":9046,"Ġpass":9047,"ĠHá»ĵn":9048,"báº£o":9049,"Ġvin":9050,"Ġtrá»ĩ":9051,"ĠTÃ¡o":9052,"ĠBáº§u":9053,"ĠTao":9054,"áº¤P":9055,"ĠEnter":9056,"ĠNhan":9057,"ĠcÆ°Æ¡":9058,"ĠÃ´i":9059,"Ġkhuáº¿ch":9060,"ĠSK":9061,"Ġdáº¥n":9062,"Ġtá»µ":9063,"ĠSat":9064,"Giá»ĳng":9065,"ĠRec":9066,"ĠMáº«n":9067,"ĠbÃºi":9068,"enter":9069,"ĠOl":9070,"Camera":9071,"ĠFIFA":9072,"bá»Ļ":9073,"gl":9074,"æĹ":9075,"pping":9076,"siÃªu":9077,"ÐµÑĢ":9078,"ĠLá»ĩnh":9079,"ĠmÃ¡ng":9080,"ĠNe":9081,"ĠmÆ°":9082,"ĠQuÃł":9083,"ĠquÃ½t":9084,")...":9085,"XÃ£":9086,"ĠĠĠĠĠĠĠĠĠĠĠĠĠĠĠĠ":9087,"EW":9088,"Ġbitcoin":9089,"Ġká»ĭ":9090,"ĠLenovo":9091,"Ġthoi":9092,"ĠHim":9093,"Ġgáº¯m":9094,"Ġcháº±ng":9095,"ĠBá»Ļt":9096,"ä»":9097,"ĠMacbook":9098,"ÌĤ":9099,"ĠnÆ°á»Ľu":9100,"idan":9101,"ĠSoc":9102,"Ġper":9103,"Ġreview":9104,"Ġ1970":9105,"EA":9106,"ĠÄĲÆ°a":9107,"Ġnáºµng":9108,"UYÃĬN":9109,"ãĢģ":9110,"Ġcháº¡p":9111,"Ġdáº«u":9112,"Ġ750":9113,"Ġ1080":9114,"Ġéĩ":9115,"Báº¯t":9116,"ĠSJC":9117,"Ġvun":9118,"ĽPháºŃt":9119,"Ġáº¡t":9120,"tiá»ģn":9121,"Ġray":9122,"osite":9123,"ĠStudio":9124,"ustin":9125,"ĠNap":9126,"Ð°Ð½":9127,"els":9128,"inja":9129,"ĠRÆ°á»£u":9130,"tha":9131,"ÄĲá»Ļ":9132,"of":9133,"ĠThá»¥":9134,"Ġchao":9135,"Tuyá»ĥn":9136,"phÃ¡t":9137,"ĠsuÃ½t":9138,"ĠDub":9139,"ĠthÃ²i":9140,"Ø±":9141,"ĠÃ¡ch":9142,"ĠnÃ£":9143,"ateg":9144,"ĠTáº§m":9145,"Ġbáº£":9146,"ĠJW":9147,"áº¬P":9148,"ĠTexas":9149,"ju":9150,"asy":9151,"ĠÄĳá»ĭt":9152,"vice":9153,"ĠMall":9154,"ĠXinh":9155,"Ġbá»©t":9156,"?.":9157,"Ġè¨":9158,"ĠQÃºy":9159,"Ġdan":9160,"ĠRáºŃp":9161,"ĠWordPress":9162,"ĠPok":9163,"ĠMÃ£i":9164,"omat":9165,"Ġháº¥u":9166,"ĠBÃ´":9167,"Ġkey":9168,"Ġ1800":9169,"Ġsá»ĩt":9170,"1975":9171,"Ká»¹":9172,"ä¹":9173,"ĠUSA":9174,"ĠTottenham":9175,"ÄĲang":9176,"Ġlá»±u":9177,"thÃ¢n":9178,"hÃłng":9179,"Nháº¯c":9180,"jo":9181,"âĢ¦âĢĿ.":9182,"åĲ":9183,"Trá»Ł":9184,"ĠKháº£o":9185,"ĠÄĲá»©ng":9186,"otion":9187,"may":9188,"SiÃªu":9189,"ĠnÃŃu":9190,"aly":9191,"ĠPhÃ¡":9192,"seo":9193,"Ġnai":9194,"ĠbÃ¹i":9195,"ÄĲáº¡o":9196,"LÃ£nh":9197,"oC":9198,"ĠLÃ¡ng":9199,"Ġráº«y":9200,"ESCO":9201,"ĠFace":9202,"HÃ²a":9203,"sÆ¡":9204,"Ġsá»§a":9205,"ĠLáº¡nh":9206,"ĠHuáº¥n":9207,"ĠngÃł":9208,"ĠFire":9209,"Ġéł":9210,"ĠNav":9211,"ĠExcel":9212,"ĠQue":9213,"Man":9214,"Ġï¿½":9215,"Ġè¦ĭ":9216,"ĠPho":9217,"Ġ1960":9218,"ĠngÃ¡ch":9219,"af":9220,"ãģ®":9221,"Ġden":9222,"ĠMur":9223,"á»£c":9224,"ĠTem":9225,"ady":9226,"Ġgiáº§y":9227,"Ġä½ĽPháºŃt":9228,"áº¶T":9229,"ĠLum":9230,"ways":9231,"ĠCafe":9232,"Ġyeu":9233,"Ġä½ķ":9234,"TrÃ¡i":9235,"EU":9236,"MÃł":9237,"ĠbÃ¨o":9238,"ATO":9239,"ĠVincity":9240,"ĠCHO":9241,"VTV":9242,"ĠOk":9243,"Ġreo":9244,"ĠDesign":9245,"ĠTÃł":9246,"Ġcarbon":9247,"MN":9248,"ĠthÃ©t":9249,"Ġè¡":9250,"ĠnÄĥn":9251,"ĠRá»Ńa":9252,"Ġdáº§y":9253,"oucher":9254,"Ġhon":9255,"Ġè¦ĭkiáº¿n":9256,"Ġcá»Ļ":9257,"ĠKTS":9258,"ĠClass":9259,"iac":9260,"sáº½":9261,"ental":9262,"ĠmÆ°á»Ľt":9263,"trÆ°á»Ŀng":9264,"Ġrá»ĳn":9265,"Ġmá»įng":9266,"khá»§ng":9267,"Ġphan":9268,"ĠChá»¯a":9269,"Ġhand":9270,"cÃ¹ng":9271,"ĠPN":9272,"ĠhoÃ¡n":9273,"ĠLS":9274,"Ġsá»¥c":9275,"uel":9276,"ĠvÆ¡i":9277,"ĠmÃ¡ch":9278,"ĠThÆ°á»Łng":9279,"phÃ¡p":9280,"Hi":9281,"dney":9282,"Ġä½ķhÃł":9283,"Ġcáº·c":9284,"ĠAndre":9285,"pháº£i":9286,"ĠnghÄ©nh":9287,"Ġtrá»įt":9288,"ĠEX":9289,"eymar":9290,"Ġ94":9291,"ĠMov":9292,"ĠTá»Ļi":9293,"ĠYoga":9294,"Ġngá»§i":9295,"ĠDÃłi":9296,"ĠnhÆ¡n":9297,"ĠsÃ³i":9298,"ĠÐ¾":9299,"Ġcatalog":9300,"Ġtriá»ģn":9301,"ĠPep":9302,"ĠLÆ°":9303,"Ġrep":9304,"ĠÃģn":9305,"ĠÄĳay":9306,"Ġ304":9307,"ĠrÃłnh":9308,"Ġdel":9309,"ĠSaudi":9310,"ĠtrÆ°á»£ng":9311,"ĠDiÃªn":9312,"ĠcÃ¹":9313,"toc":9314,"Cá»¥c":9315,"Ġpm":9316,"Dá»±a":9317,"ĠTHÃĶNG":9318,"ema":9319,"ĠCÃłi":9320,"Ġsum":9321,"Ġáº¯c":9322,"ĠMobiFone":9323,"ĠLip":9324,"Ġpar":9325,"ĠthuyÃªn":9326,"ĠTivi":9327,"ĠUB":9328,"Ġèģ":9329,"çļĦ":9330,"dis":9331,"ĠCry":9332,"ĠNu":9333,"Vi":9334,"Ġ111":9335,"EG":9336,"ĠchoÃłng":9337,"ĠVKS":9338,"130":9339,"Ġváº§y":9340,"Ġtráº§u":9341,"ston":9342,"thá»©c":9343,"ĠSA":9344,"ÄĲá»Ļng":9345,"ĠvÃ©t":9346,"ĠBá»©c":9347,"chÃŃnh":9348,"To":9349,"str":9350,"ĠMÃ¨o":9351,"ĠChÃŃn":9352,"Ġtáº©u":9353,"ĠTang":9354,"ĠPacific":9355,"Dr":9356,"ĠAut":9357,"ĠAct":9358,"Ġngá»Ńi":9359,"ĠDream":9360,"aga":9361,"ibank":9362,"ĠRad":9363,"ĠGÃ¡i":9364,"ĠSel":9365,"ĠÃį":9366,"ĠKáº¡n":9367,"Ġtuá»Ļt":9368,"bÃłn":9369,"Ġä¸Ńtrung":9370,"Ġá»ī":9371,"asc":9372,"ovic":9373,"ashion":9374,"ĠVa":9375,"ĠPay":9376,"Ġquáº©n":9377,"Pháº¡m":9378,"tiáº¿ng":9379,"KÃŃch":9380,"ĠGlobal":9381,"asa":9382,"ĠKQ":9383,"Giá»¯a":9384,"Ġmui":9385,"pi":9386,"thÃ¬":9387,"Ġ365":9388,"Nhanh":9389,"zy":9390,"ĠluÃ¢":9391,"Ġmá»Ľ":9392,"DÆ°Æ¡ng":9393,"ĠæīĢ":9394,"ĠquÃ¢y":9395,"Ġone":9396,"file":9397,"ĵng":9398,"Tranh":9399,"field":9400,"ĠLÃ´i":9401,"ĠMet":9402,"vá»ģ":9403,"ç¥¨":9404,"ĠCorp":9405,"ĠResidence":9406,"ĠÄĲÄĥk":9407,"ĠBosch":9408,"Ġoffline":9409,"ĠAngeles":9410,"VÆ°Æ¡ng":9411,"Ġoi":9412,"TráºŃn":9413,"Hoáº·c":9414,"Ġdáº»":9415,"rolux":9416,"Ġnáº·n":9417,"ĠRub":9418,"ĠBIDV":9419,"Ġláº½o":9420,"Dáº§u":9421,"tÃŃnh":9422,"Ġkhoanh":9423,"ĠLab":9424,"ĠcÆ°á»¡i":9425,"tÃ¬nh":9426,"Ġbit":9427,"Ġxui":9428,"ĠTU":9429,"df":9430,"ĠCuá»ĳn":9431,"tor":9432,"tÆ°":9433,"240":9434,"ĠxÃ¹":9435,"TTP":9436,"sch":9437,"Tai":9438,"ffet":9439,"ween":9440,"ĠtrÃ¡m":9441,"âĢĭâĢĭ":9442,"BH":9443,"ĠReg":9444,"ĠComplex":9445,"ĠVilla":9446,"ĠKS":9447,"á»®":9448,"App":9449,"ĠRos":9450,"ĠRS":9451,"ĠNhÃ¢m":9452,"OH":9453,"ews":9454,"ĠÄĳÆ°Æ¡c":9455,"emo":9456,"ĠCÃ¡o":9457,"ĠvÃ²":9458,"ĠBuilding":9459,"ĠtÃ¬":9460,"ĠNhá»±a":9461,"ĠWil":9462,"ze":9463,"Ġvir":9464,"ĠæīĢsá»Ł":9465,"ĠMartin":9466,"Linh":9467,"ĠSex":9468,"ĠEnglish":9469,"ĠKhá»ıe":9470,"uma":9471,"ĠtuÃ½p":9472,"ĠtÃ£":9473,"Vn":9474,"ram":9475,"ĠPort":9476,"shop":9477,"Ġváº©y":9478,"Ġmá»¥":9479,"gáº§n":9480,"ĠnáºŃp":9481,"Ġlives":9482,"ĠÄĲÃª":9483,"Ġlove":9484,"ĠZalo":9485,"ĠPen":9486,"Ġä¸ītam":9487,"ĠSÆ°Æ¡ng":9488,"ilet":9489,"ïĢ":9490,"ĠhÃ²m":9491,"ĠMah":9492,"ather":9493,"ros":9494,"ĠComm":9495,"online":9496,"ĠToshiba":9497,"BÄĲ":9498,"áºłN":9499,"nect":9500,"Ð¾ÑĢ":9501,"Ghi":9502,"Ġxiáº¿t":9503,"XVN":9504,"Ġoto":9505,"Ġmáº£i":9506,"ito":9507,"Ġtone":9508,"ĠTrÃ¹ng":9509,"Ġsáº£y":9510,"TÃ²a":9511,"Ð¿":9512,"phen":9513,"ĠNguy":9514,"QuÃ¢n":9515,"Ġáº¤t":9516,"Ġå¤§Äĳáº¡i":9517,"ÄĳÃ¡nh":9518,"arton":9519,"Quáº£n":9520,"ĠTrá»£":9521,"Ġ135":9522,"ĠNá»ĺI":9523,"ĠNÃł":9524,"bar":9525,"Nga":9526,"made":9527,"003":9528,"GDÄĲT":9529,"Má»Ŀi":9530,"ĠMÆ°a":9531,"lan":9532,"âŀ":9533,"Ġitem":9534,"ĠÄĳáº·ng":9535,"ding":9536,"ĠDom":9537,"Äĳiá»ĥm":9538,"Há»ıi":9539,"ĠTTC":9540,"ĠOai":9541,"nal":9542,"nÆ°á»Ľc":9543,"ĠxoÄĥn":9544,"Vá»£":9545,"ĠXá»©":9546,"!!!!":9547,"Ä¨":9548,"VP":9549,"khÃ¡ch":9550,"Ġteo":9551,"jpg":9552,"tháºŃp":9553,"Ġhá»ķi":9554,"under":9555,"Ġsam":9556,"ĠtrÃ¨o":9557,"hÃ´":9558,"ĠSydney":9559,"tim":9560,"ĠVFF":9561,"ĠVÃ©":9562,"ĠuyÃªn":9563,"EE":9564,"una":9565,"Ġtrá»£n":9566,"ĠSand":9567,"á»¸":9568,"ĠphÃ¨n":9569,"ĠPage":9570,"xu":9571,"Ġéģĵ":9572,"Äĳá»Ļ":9573,"ĠThÆ°a":9574,"ĠUber":9575,"ĠrÃ¹i":9576,"phÃ²ng":9577,"></":9578,"eek":9579,"Tuáº§n":9580,"Ġquáº§ng":9581,"iber":9582,"báº±ng":9583,"ĠáºŃp":9584,"dom":9585,"Posted":9586,"ĠOS":9587,"Ġá»Ĳc":9588,"Ġ188":9589,"243":9590,"ĠNghÄ©":9591,"fone":9592,"bet":9593,"Ġbáº§n":9594,"Di":9595,"ugin":9596,"Ġtiá»ĩt":9597,"Ġchá»ķ":9598,"ĠSir":9599,"ĠSaf":9600,"ĠXH":9601,"Tá»·":9602,"WC":9603,"xt":9604,"á»Į":9605,"Ġgiun":9606,"Ì£.":9607,"ĠJan":9608,"Biáº¿t":9609,"çĶ":9610,"ĠNguyen":9611,"Įnhi":9612,"Ġsá»¯ng":9613,"ĠèĢĮnhi":9614,"ĠLife":9615,"ĠKháº©u":9616,"dan":9617,"chÃ¢n":9618,"Bá»ĳ":9619,"dá»ĭch":9620,"iva":9621,"cÃ¡":9622,"ĠLeg":9623,"ĠLav":9624,"Ġá»Ĳng":9625,"PG":9626,"ĠPakistan":9627,"Ġváº¡t":9628,"Ġláº§y":9629,"dragon":9630,"ĠrÃŃt":9631,"Ġwe":9632,"aro":9633,"ĠdÆ¡":9634,"Ġmet":9635,"ĠGeorge":9636,"ĠMÃģY":9637,"ÃģO":9638,"Vietnam":9639,"ĠBusiness":9640,"ĠMá»ħ":9641,"sÆ¡n":9642,"ĠMega":9643,"Sang":9644,"ĠSav":9645,"å½©ç¥¨":9646,"https":9647,"áº¸":9648,"cont":9649,"Ġnat":9650,"ĠCáº©n":9651,"Báº¿p":9652,"Ġtráº¡ch":9653,"Ġtime":9654,"ĠNGHIá»Ĩ":9655,"Shop":9656,"ĠFre":9657,"?!":9658,"Tam":9659,"ĠthÄĥ":9660,"ĠStreet":9661,"ĥ½":9662,"Ġcoin":9663,"Ìĥ,":9664,"tis":9665,"BD":9666,"urity":9667,"ĠsÃ²":9668,"ĠbÃŃch":9669,"ĠSMS":9670,"Ĺı":9671,"220":9672,"ĠWon":9673,"ĠUNESCO":9674,"Â¯":9675,"ĠHaw":9676,"ĠXung":9677,"gram":9678,"Ġngá»«":9679,"ĠRoma":9680,"ĠHH":9681,"ĠCÃģC":9682,"ĠCoun":9683,"ĠCá»ı":9684,"tÃ¹y":9685,"ĠTá»ģ":9686,"åĽ":9687,"ĠOld":9688,"ĠWat":9689,"ĠURL":9690,"Ġcol":9691,"ĠContin":9692,"ets":9693,"Ġnháº§y":9694,"Thá»ĥ":9695,"ĠVene":9696,"wo":9697,"Ġ1989":9698,"Phi":9699,"uter":9700,"Ġyá»ĥ":9701,"ĠGuard":9702,"Ġ230":9703,"osh":9704,"Ġkheo":9705,"ĠGod":9706,"ĤN":9707,"Ġláº«m":9708,"Ġå·":9709,"ĠCang":9710,"Ġgá»ıi":9711,"ĠPSG":9712,"Ġduá»Ĺi":9713,"ĠsÆ°a":9714,"ĠComments":9715,"gá»įi":9716,"ĠNeymar":9717,"ĠcÃ¡u":9718,"Ġnguyá»ģn":9719,"LE":9720,"dá»±":9721,"ĠBBC":9722,"ĠCá»¥m":9723,".(":9724,"ĠNhÃłn":9725,"Ġav":9726,"ĠèŃ":9727,"ĠPháº¥n":9728,"lÃŃt":9729,"Ġtennis":9730,"ĠHun":9731,"ĠÐº":9732,"ido":9733,"ĠVig":9734,"reg":9735,"alaxy":9736,"ĠWC":9737,"ĠRau":9738,"IK":9739,"Ġnhá»ĳt":9740,"Ġzin":9741,"iller":9742,"estival":9743,"cos":9744,"ĠngÃ³ng":9745,"phÆ°Æ¡ng":9746,"ĠSung":9747,"ĠkÃ©n":9748,"Ġxá»ĭn":9749,"ChÃ¢n":9750,"cap":9751,"Ma":9752,"âĢĿ-":9753,"ĠhÆ°Æ¡u":9754,"ĠèĻ":9755,"Ġ1988":9756,"ĠtuÃ´":9757,"ister":9758,"Mang":9759,"pson":9760,"ify":9761,"ĠTáºŃn":9762,"urt":9763,"ĠDiamond":9764,"ĠLazada":9765,"Ġop":9766,"ĠTime":9767,"dam":9768,"ĠQuáº¡t":9769,"ĠtruyÃª":9770,"apter":9771,"led":9772,"ĠBat":9773,"ĠSEA":9774,"cal":9775,"ĠLÃ£":9776,"VA":9777,"span":9778,"ula":9779,"ĠHuynh":9780,"ĠDA":9781,"vis":9782,"ĠFun":9783,"Ġne":9784,"suzu":9785,"ĠChiáº¿u":9786,"Ser":9787,"ĠSáº¢N":9788,"ĠTrá»Ł":9789,"ĠUyá»ĥn":9790,",.":9791,"Ġlip":9792,"ĠPeter":9793,"Ġnhá»ĩn":9794,"teur":9795,"Ġvá»¥ng":9796,"ĠquÃ¢":9797,"ĠPDF":9798,"ãģĦ":9799,"ĠVincom":9800,"Ġsáº«m":9801,"ĠSqu":9802,"alk":9803,"123":9804,"ĠMÃ¡i":9805,"icÃ´":9806,"ĠBerlin":9807,"Ġphoto":9808,"ĠtÃŃa":9809,"ĠGiuse":9810,"ÃģC":9811,"ĠTown":9812,"ĠRap":9813,"Un":9814,"Ġsá»ĵi":9815,"234":9816,"Ġnháºµn":9817,"ĠBeach":9818,"ĠLÃłnh":9819,"Ġgluc":9820,"Ġhit":9821,"Sáº½":9822,"ĠRá»«ng":9823,"188":9824,"Ġtá»§i":9825,"ĠngÃ¹ng":9826,"å¹":9827,"Ġhuá»³nh":9828,"ĠRet":9829,"247":9830,"ĠPL":9831,"ĠBá»Ńu":9832,"ÆłN":9833,"ĠUE":9834,"NK":9835,"---":9836,"gá»ĵm":9837,"chá»©c":9838,"Ġnilon":9839,"ĠHU":9840,"Ġpixel":9841,"Ġchá»¯ng":9842,"GM":9843,"quá»ĳc":9844,"ĠTráº§m":9845,"Ġtráº»o":9846,"ĠSanh":9847,"ĠThá»ıa":9848,"ĠMÃ¢y":9849,"Ġmá»ĭ":9850,"Ġoxi":9851,"Ġ096":9852,"ĠBack":9853,"ĠÄĲam":9854,"320":9855,"ĠNhÃ£n":9856,"ÑģÐº":9857,"riday":9858,"Ġá»ķi":9859,"cept":9860,"unce":9861,"ĠSuy":9862,"Ġcháº¯p":9863,"ĠxÃ²e":9864,"ĠCHÃįNH":9865,"amilk":9866,"ĠSaint":9867,"Ġid":9868,"ĠOK":9869,"Ġsedan":9870,"ĠÄĲÃ¢u":9871,"ĠVÃłi":9872,"dÃ¢n":9873,"ĠMusic":9874,"ĠAgr":9875,"Ġ098":9876,"ĠPhÃ¡o":9877,"ĠCast":9878,"ĠÄĥ":9879,"âĢ¦).":9880,"ĠPalace":9881,"váº¥n":9882,"Ġtrans":9883,"ĠChÄĥn":9884,"Ġphone":9885,"æĸ":9886,"ĠCasio":9887,"strong":9888,"ĠTiáº¿u":9889,"ĠGPS":9890,"Ġ!!!":9891,"ĠâĪĴ":9892,"Ġ1954":9893,"OD":9894,"ĠQuÃª":9895,"ĠHarv":9896,"ĠtÃŃt":9897,"ĠYu":9898,"ffe":9899,"Ġ720":9900,"Ġmáº©u":9901,"áº¤N":9902,"ĠStart":9903,"Giai":9904,"Ġ5000":9905,"ĠDigital":9906,"ĠBern":9907,"ĠrÆ¡":9908,"ĠÄĲáº¥y":9909,"Ra":9910,"ĠKhac":9911,"Ġá»ıi":9912,"entine":9913,"Ġdáº¿":9914,"Ġmá»ĵng":9915,"Ġcáº¥n":9916,"ĠKore":9917,"ĠnhÃ¡m":9918,"450":9919,"HoÃłn":9920,"ĠDáº¥u":9921,"ĠrÃ¢m":9922,"ĠTTT":9923,"ThÃ¢n":9924,"ĠÄĳá»Ŀm":9925,"Ġsá»Ļ":9926,"iag":9927,"ism":9928,"ĠTer":9929,"ĠTouch":9930,"Ġnáº¯n":9931,"Lá»Ľp":9932,"ĠPhanx":9933,"á»ľI":9934,"Quáº§n":9935,"nÄĥng":9936,"ĠVá»ı":9937,"Ħ¢":9938,"inger":9939,"ĠSk":9940,"Báº¡ch":9941,"Ġ1968":9942,"letico":9943,"sao":9944,"ĠTÃ¡":9945,"[/":9946,"phÃ¢n":9947,"ĠVietin":9948,"ĠPhilips":9949,"ĠNext":9950,"ĠlÃºn":9951,"Ġuáº©n":9952,"Ġhá»ħ":9953,"ĠThÃºc":9954,"cung":9955,"Ġchá»ķi":9956,"ĠGHP":9957,"Ġoáº£i":9958,"Lá»£i":9959,"ĠNghá»ģ":9960,"giai":9961,"obs":9962,"ĠTeam":9963,"2002":9964,"mann":9965,"Ġnheo":9966,"HLV":9967,"ĠWall":9968,"nÃ³i":9969,"ĠIOS":9970,"Ġhydro":9971,"NgÃłnh":9972,"Berry":9973,"ĠÃºng":9974,"ĠTar":9975,"TML":9976,"face":9977,"ĠNgá»¥y":9978,"ĠHost":9979,"game":9980,"ĠPiece":9981,"VÅ©":9982,"Ġlick":9983,"Ġ123":9984,"ĠIsuzu":9985,"ĠÄĳong":9986,"ĠDáºŃt":9987,"Ġxá»Ļn":9988,"ĠControl":9989,"ĠÃļt":9990,"Ġsamsung":9991,"Ġjean":9992,"NS":9993,"ĠHá»įa":9994,"ĠNáº¯m":9995,"ĠTest":9996,"ĠFlash":9997,"mit":9998,"ĠNon":9999,"Ġblogger":10000,"ĠChuyáº¿n":10001,"Sá»ķ":10002,"Ġ}":10003,"Ġráº©y":10004,"Ġfe":10005,"vic":10006,"lott":10007,"\">":10008,"ĠPU":10009,"Ġcháº¯t":10010,"ĠÐ´":10011,"Ġâľħ":10012,"Bl":10013,"ĠSnapdragon":10014,"ĠTháº±ng":10015,"ĠÄĲoan":10016,"ĠmÃºi":10017,"ĠchÃ²m":10018,"Įnhá»ĭ":10019,"Ġsua":10020,"ĠLáº§u":10021,"ĠTak":10022,"Ġgram":10023,"Tá»īnh":10024,"ĠnhÃŃu":10025,"Ġmap":10026,"ĠJapan":10027,"ĠJin":10028,"nbsp":10029,"ĠABC":10030,"________":10031,"Ġbon":10032,"ĠnghÃłnh":10033,"ĠLuc":10034,"Ð±":10035,"ania":10036,"Ġ102":10037,"pol":10038,"244":10039,"Ġ1200":10040,"ĠÃ³ng":10041,"ĠchÃłi":10042,"ĠBá»ı":10043,"Ġjeans":10044,"ĠTÃło":10045,"ghan":10046,"Lá»±a":10047,"Ġ1500":10048,"now":10049,"rey":10050,"ÐµÑĤ":10051,"ĠES":10052,"ĠChiÃªm":10053,"Ġnuoc":10054,"ĠChim":10055,"Ġåĸ":10056,"Ġblu":10057,"ĠAz":10058,"uay":10059,"Váº«n":10060,"ĠMid":10061,"aa":10062,"ories":10063,"Top":10064,"Ġbass":10065,"Ġsilicon":10066,"Ġcháº£nh":10067,"ĠJung":10068,"ĠLog":10069,"ĠÄĲIá»ĨN":10070,"ĠReview":10071,"Ġgá»Ľm":10072,"ĠVÄĤN":10073,"Ġfont":10074,"emy":10075,"Ġxá»īu":10076,"ume":10077,"125":10078,"ĠSGK":10079,"\")":10080,"ĠtÃ½":10081,"Ġåĩ":10082,"ĠKÄĲT":10083,"ráº¥t":10084,"You":10085,"Ġ1982":10086,"PV":10087,"ĠSystem":10088,"Ġmem":10089,"ĠAh":10090,"Ġdown":10091,"Ġåįģ":10092,"ĠÃ¡t":10093,"ĠliÃªm":10094,"esus":10095,"Ġ103":10096,"ĠCel":10097,"Ġnau":10098,"ĠTá»ī":10099,"Ġhá»ī":10100,"Ġthá»ıi":10101,"ÃĴNG":10102,"ĠHáº¿t":10103,"Ġæĥ":10104,"ĠCy":10105,"ĠJean":10106,"Ġ650":10107,"Ġdá»Ļt":10108,"ĠnhÃºn":10109,"ency":10110,"wan":10111,"Ġtháº¹n":10112,"ĠðŁĺ":10113,"Ġomega":10114,"ĠNhÃ¬":10115,"giÃ¡o":10116,"well":10117,"ĠTrai":10118,"ĠWater":10119,"Ġbáº§m":10120,"Ġbikini":10121,"á»ģnh":10122,"ĠTHá»Ĭ":10123,"Ġ1986":10124,"Land":10125,"ĠäºĮnhá»ĭ":10126,"Da":10127,"ÄĲÃłn":10128,"ká»ĥ":10129,"ector":10130,"ĠTá»¥c":10131,"ĠXá»ķ":10132,"ĠHÆ¡i":10133,"ĠÄĳÃły":10134,"oxy":10135,"Viá»ĩn":10136,"ĠMont":10137,"ĠSmartphone":10138,"Sp":10139,"Ġdam":10140,"ĠCáº¯t":10141,"ĠAward":10142,"ĠNhá»ı":10143,"oot":10144,"ÙĨ":10145,"ĠÄĲÃ³ng":10146,"ĠliÃªu":10147,"Ġimplant":10148,"shi":10149,"ĠVáº£i":10150,"Tá»Ń":10151,"ĬthÆ°á»£ng":10152,"apixel":10153,"Nháº¡c":10154,"ĠCream":10155,"ĠÄĳá»Ĺi":10156,"loáº¡i":10157,"Ġxá»īn":10158,"ĠçĽ¸":10159,"alth":10160,"ĠPass":10161,"ĠbÆ°á»Ľu":10162,"ĠYahoo":10163,"ĠPhone":10164,"giáº£m":10165,"ĠDie":10166,"ĠHÃ´n":10167,"Ġláº¹":10168,"ĠCá»«":10169,"ĠRev":10170,"Ġtáº¡t":10171,"ĠQH":10172,"elfie":10173,"Giáº£m":10174,"ĠEth":10175,"Ġmar":10176,"ĠElect":10177,"¡n":10178,"Ġrá»įi":10179,"ĠvÅ©ng":10180,"750":10181,"Ġplus":10182,"ĠGym":10183,"Ġprotect":10184,"Ġváº¯n":10185,"ĠArchives":10186,"ĠgÃ¡n":10187,"Ġ210":10188,"ĠClinton":10189,"ĠæĢ":10190,"ĠFer":10191,"ves":10192,"VT":10193,"Ġhoay":10194,"ĠKan":10195,"ĠAlpha":10196,"Ġblockchain":10197,"ĠCáº·p":10198,"bá»ĭ":10199,"ĠChris":10200,"comm":10201,"Chá»©ng":10202,"ĠÄĲá»Ĭ":10203,"ĠQuay":10204,"Ð¾Ð»":10205,"Ġdis":10206,"Loa":10207,"ĠÏ":10208,"Táº£i":10209,"Ġes":10210,"ĠGHPGVN":10211,"=>":10212,"ĠASIA":10213,"ĠtrÃ¢":10214,"ĠSN":10215,"Khoa":10216,"Ġtáº¥c":10217,"ĠVlad":10218,"Ġvar":10219,"káº¿t":10220,"giá»Ľi":10221,"ThÃŃch":10222,"ĠRod":10223,"sáº£n":10224,"azz":10225,"Ġâĸ":10226,"Ġngoáº·t":10227,"ĠTPP":10228,"Ġupdate":10229,"Ð°ÑĤ":10230,"åĪ":10231,"ĠBud":10232,"ĠBec":10233,"NET":10234,"Ġshort":10235,"ĠHC":10236,"ÛĮ":10237,"ThÃ¡nh":10238,"ublic":10239,"ĠMÃ³ng":10240,"Ġáº¤y":10241,"Ġluá»ĵn":10242,"Triá»ĥn":10243,"tham":10244,"ĠgiÃ¢":10245,"ĠtrÃ²ng":10246,"pho":10247,"Há»£p":10248,"Kiá»ĥu":10249,"Sá»©c":10250,"ĠtrÃłm":10251,"ĠnhÄĥ":10252,"Truyá»ģn":10253,"ĠKhÃ³":10254,"Ġæĺİ":10255,"ĠngoÃ£n":10256,"Ġngao":10257,"ĠSÃ³ng":10258,"ĠNXB":10259,"ĠVÃłnh":10260,"ross":10261,"Ġbá»Ļn":10262,"âĿ":10263,"ichi":10264,"des":10265,"nghÄ©a":10266,"Ġmá»ĭt":10267,"ĠMá»ĳi":10268,"1945":10269,"Ġdon":10270,"á»ım":10271,"ĠKm":10272,"ĠJac":10273,"ÄĲÃ¡p":10274,"Ġdáº¡t":10275,"ĠPleiku":10276,"Ġsun":10277,"Ġhá»Ŀn":10278,"ĠcÆ¡ng":10279,"ĠchÃłm":10280,"ĠbÃłnh":10281,"Ġkhá»ıa":10282,"Ġlazada":10283,"ĠGirl":10284,"ĠXK":10285,"ĠPasteur":10286,"ĠÄĲÃ¡m":10287,"Nhu":10288,"ĠDaily":10289,"ĠAtletico":10290,"ĠCÄĲT":10291,"RA":10292,"îĢ":10293,"iso":10294,"don":10295,"Ġnáº¡t":10296,"ĠSakura":10297,"gu":10298,"ĠTon":10299,"Ġinsulin":10300,"ĠQUá»ĲC":10301,"ĠtuÃ´n":10302,"ĠHom":10303,"Äĳáº¥t":10304,"LáºŃp":10305,"ĠHappy":10306,"giao":10307,"gar":10308,"ution":10309,"RS":10310,"Ġ/>":10311,"Ġtáº±m":10312,"ĠTMCP":10313,"Ġ190":10314,"ghanistan":10315,"VáºŃn":10316,"chung":10317,"Ġ550":10318,"ĠBit":10319,"atus":10320,"ĠBá»ģ":10321,"Ġthiet":10322,"ĠKhá»ķ":10323,"Triá»ĩu":10324,"xÃŃt":10325,"eter":10326,"Ġuyá»ĥn":10327,"ĠâĢĺâĢĻ":10328,"ĠÄĳÃ³a":10329,"rah":10330,"ĠBá»ĥ":10331,"uri":10332,"ĠGuitar":10333,"Ġcarton":10334,"ĠMak":10335,"thá»©":10336,"Ġtoilet":10337,"irm":10338,"raft":10339,"Há»ĵng":10340,"acc":10341,"ĠCapital":10342,"Ġtoáº¡":10343,"ĠxiÃªn":10344,"ombia":10345,"Ð½Ñĭ":10346,"ris":10347,"ĠÃ¹":10348,"ĠThomas":10349,"TÃ´":10350,"Hiá»ĩp":10351,"ĠNan":10352,"witch":10353,"ĠPhÃ¡i":10354,"Ġstartup":10355,"ĠPA":10356,"ĠmÃ¬n":10357,"ures":10358,"á»ĲI":10359,"ĠFormosa":10360,"ĠCHÃļ":10361,"phá»¥":10362,"Ġnháº£":10363,"Táº¡o":10364,"ĠTL":10365,"Ġmain":10366,"ĠrÃ¹ng":10367,"ĠElec":10368,"Cá»ĳ":10369,"Ġthuy":10370,"ĠNgá»Ļ":10371,"ĠNgá»ĵi":10372,"ĠïĢ¨":10373,"Ġká»ģnh":10374,"Ġ1987":10375,"Ġsalad":10376,"2001":10377,"als":10378,"attle":10379,"ĠChrome":10380,"ience":10381,"ĠquÄĥng":10382,"ring":10383,"ĠmáºŃn":10384,"Ġsuyá»ħn":10385,"Ġåį³":10386,"chiáº¿n":10387,"aland":10388,"ĠÃ±":10389,"Ġpol":10390,"ĠUltra":10391,"ĠClip":10392,"ĠYang":10393,"Ġpage":10394,"ĠSSD":10395,"ĠTHÃĢNH":10396,"á»Ĵ":10397,"ĠTs":10398,"uts":10399,"Ġnguyá»ħn":10400,"Ġdáº¥y":10401,"Gháº¿":10402,"ÄĤM":10403,"Ġdáº±n":10404,"Ġec":10405,"Æ¯T":10406,"âĤ«":10407,"ĠMá»±c":10408,"CÃł":10409,"ĠSanta":10410,"uda":10411,"ĠCarl":10412,"Iá»ĢN":10413,"reak":10414,"Ġåį³tá»©c":10415,"Can":10416,"phÆ°á»Ŀng":10417,"ÄĳÄĥng":10418,"ove":10419,"Iá»Ģ":10420,"vietnam":10421,"á»Ŀng":10422,"Ġthá»Ľt":10423,"Ġcup":10424,"ĠâĻ":10425,"ĠNetwork":10426,"ĠSuá»ĳt":10427,"Ġnháº½":10428,"ĠbuÃ´":10429,"ĠBest":10430,"Ġthá»«ng":10431,"ĠSacom":10432,"Ġnhá»©t":10433,"Tá»Ľi":10434,"ĠJenn":10435,"ĠManh":10436,"ĠVillas":10437,"count":10438,"Kháº£":10439,"Ġcondotel":10440,"Iáº¾T":10441,"ĠxÃŃt":10442,"ittle":10443,"aroo":10444,"ĠGIA":10445,"ĠDubai":10446,"ĠGiá»ıi":10447,"pop":10448,"ĠHack":10449,"IO":10450,"ĠBeauty":10451,"ĠDem":10452,"ĠBlackBerry":10453,"ars":10454,"eller":10455,"val":10456,"ĠnÃł":10457,"tain":10458,"Ġæĺİminh":10459,"PE":10460,"itle":10461,"ÄĲau":10462,"Nha":10463,"ĠDj":10464,"ĠKhmer":10465,"ĠgÃºt":10466,"ĠCL":10467,"itor":10468,"anks":10469,"ĠnhÃ¢m":10470,"ĠGiÃªng":10471,"Ġhave":10472,"ĠMÄ©":10473,"ĠCÃĵ":10474,"ĠPhanxicÃ´":10475,"ills":10476,"bay":10477,"PM":10478,"Ġcrack":10479,"ĠBaby":10480,"ĠAfghanistan":10481,"ĠCost":10482,"Ġráº±m":10483,"áºłO":10484,"urs":10485,"Ġscandal":10486,"ĠNHáº¤T":10487,"ense":10488,"ĠçŁ¥":10489,"Ġå¹":10490,"Mong":10491,"ĠFA":10492,"Ġ116":10493,"loween":10494,"ĠNiá»ģm":10495,"Tháº§n":10496,"thay":10497,"ĠdÄ©a":10498,"ĠWatch":10499,"quÃ¡":10500,"ĠÃįch":10501,"ĠNgu":10502,"Tháº»":10503,"ĠHDV":10504,"irl":10505,"ĠNÃª":10506,"Ġdiesel":10507,"Ġestrogen":10508,"ĠBTS":10509,"990":10510,"ĠSINH":10511,"bes":10512,"Háº¡":10513,"ĠThÃ¡c":10514,"berry":10515,"Äĳá»ĭnh":10516,"Ġevent":10517,"ĠDoÃ£n":10518,"host":10519,"ĠLá»Ĺ":10520,"anin":10521,"ĠChÃłm":10522,"ĠØ§":10523,"ĠSev":10524,"Ġinter":10525,"ĠGM":10526,"linh":10527,"ĠdÃ£i":10528,"ĠJesus":10529,"Ġnail":10530,"ivo":10531,"Ġloay":10532,"ĠGÆ°Æ¡ng":10533,"ĠData":10534,"ĠxÆ°":10535,"ĠHQ":10536,"Ãģnh":10537,"BSCL":10538,"má»Ĺi":10539,"288":10540,"ĠÄĳÃ¹ng":10541,"ĠsÃ¡m":10542,"ĠkhÆ¡ng":10543,"kva":10544,"ĠJae":10545,"watch":10546,"Trá»Ŀi":10547,"imir":10548,"DV":10549,"Ġdá»ĥ":10550,"Ġmic":10551,"ĠchÆ¡":10552,"ĠlÃ¹n":10553,"ĠRen":10554,"ĠBBQ":10555,"ĠIns":10556,"bert":10557,"Ġchang":10558,"Tá»«ng":10559,"Ġ1979":10560,"phu":10561,"180":10562,"ĠAnt":10563,"Ġä¸ĬthÆ°á»£ng":10564,"Ġart":10565,"ĠbáºŃy":10566,"Ġgiá»Ĺ":10567,"nÃªn":10568,"Ġduong":10569,"oz":10570,"tay":10571,"táºŃp":10572,"æľŁ":10573,"Ġhoáº£":10574,"ĠLexus":10575,"ĠTele":10576,"ibaba":10577,"ĠStand":10578,"ÌĢ.":10579,"lá»£i":10580,"ening":10581,"Ġopt":10582,"ocus":10583,"ĠPHÃģT":10584,"Sá»ĳng":10585,"tá»ķ":10586,"aris":10587,"ĠVáº·t":10588,"lanh":10589,"ĠMs":10590,"áº¨M":10591,"ez":10592,"ĠkÃ¨n":10593,"ĠCook":10594,"Ġtáº¥y":10595,"SÃłn":10596,"ĠÄĲHQG":10597,"ĠNgá»±":10598,"Ġç¾":10599,"Ġdiá»ģu":10600,"ĠDisney":10601,"ĠThÃ¹ng":10602,"Ġ0938":10603,"ĠNm":10604,"amily":10605,"ku":10606,"Ġvon":10607,"ĠÄĲá»¨":10608,"ĠDL":10609,"ĠBor":10610,"ĠIreland":10611,"ĠKhÃ¡ng":10612,"Ġmax":10613,"ĠCer":10614,"ĠMáº¥t":10615,"Ġmáº¥u":10616,"ĠRichard":10617,"ĠIsland":10618,"Ġ1972":10619,"ĠBÃģN":10620,"ĠTrÃłm":10621,"Ġ2021":10622,"ete":10623,"ĠphÃło":10624,"izza":10625,"Ġèĩª":10626,"estay":10627,"há»£p":10628,"ThÃŃ":10629,"inal":10630,"ĠStan":10631,"icle":10632,"ĠNghá»ī":10633,"Ġæĸ¼":10634,"Ġváº©n":10635,"Tá»ĳt":10636,"vest":10637,"phan":10638,"ï¿½ï¿½ï¿½ï¿½":10639,"ĠBia":10640,"ĠVinamilk":10641,"ĠLive":10642,"ous":10643,"Ġ1985":10644,"Ġvis":10645,"ĠTechn":10646,"ĠXÆ°á»Łng":10647,"ÃĤm":10648,"ault":10649,"ground":10650,"bourne":10651,"Ġmien":10652,"Hiá»ĥu":10653,"ĠIQ":10654,"ĠGIá»":10655,"ĠFile":10656,"Ġ093":10657,"ĠngÃ¡t":10658,"City":10659,"ĠmÆ°Æ¡ng":10660,"ĠMunich":10661,"SH":10662,"Ġsk":10663,"BÃ©":10664,"ĠTRÆ¯á»ľNG":10665,"ĠHCV":10666,"ĠChang":10667,"Ġnghiáº¿n":10668,"ĠCong":10669,"ĠTáº·c":10670,"facebook":10671,"ĠSet":10672,"SO":10673,"rect":10674,"ĠColombia":10675,"ĠngáºŃy":10676,"ĠNATO":10677,"ĠDÃłnh":10678,"ĠNÆ°Æ¡ng":10679,"iep":10680,"ĠKaraoke":10681,"Ġnáº¡c":10682,"ĠEdge":10683,"ĠSkin":10684,"ĠMiáº¿u":10685,"Iá»ĦN":10686,"Ġdriver":10687,"å¥":10688,"ĠCSÄĲT":10689,"Mobile":10690,"CA":10691,"Dáº¡":10692,"Ġnháº±n":10693,"VÃ´":10694,"ĠGáº¡o":10695,"ĠNT":10696,"ĠÃĶi":10697,"ÃĢY":10698,"Ġæĸ¼Æ°":10699,"Ġnáº»o":10700,"ĠLO":10701,"ĠNguyÃª":10702,"ĠBKS":10703,"Ġphá»ĵn":10704,"Ġhacker":10705,"Ġthui":10706,"ĠsuÃ´ng":10707,"ĠVe":10708,"ique":10709,"ÄĲTB":10710,"ĠLAN":10711,"iston":10712,"ĠkhÄĥng":10713,"Ġ112":10714,"TháºŃm":10715,"key":10716,"Ġä¿":10717,"ĠKu":10718,"Ãģp":10719,"Ngá»įc":10720,"Ġchuá»ĳt":10721,"ĠmAh":10722,"bÃªn":10723,"tuy":10724,"áº¾N":10725,"ĠdÃ¬u":10726,"CK":10727,"elly":10728,"Ġvien":10729,"bá»ĩnh":10730,"ĠElectrolux":10731,"Ġgá»Ļp":10732,"ĠSÃ©c":10733,"Ġdich":10734,"sky":10735,"ĠOh":10736,"Ġbeta":10737,"ĠLá»Ĺi":10738,"ĠçŁ¥tri":10739,"Ġá»ķng":10740,"othi":10741,"ĠSoft":10742,"ily":10743,"Trá»±c":10744,"ĠåįģtháºŃp":10745,"Ġ2025":10746,"226":10747,"Ġpháº£":10748,"SE":10749,"Ġráº§y":10750,"Ġcuá»ĳc":10751,"ĠrÃ¬":10752,"ĠAU":10753,"ĠHA":10754,"iles":10755,"Ġnhuáº§n":10756,"RI":10757,"ãĥ¼":10758,"ĠHK":10759,"ĠCháº¡y":10760,"Ġåķ":10761,"Ġbá»¡":10762,"ÃĵA":10763,"ĠÄĲáºłI":10764,"video":10765,"Ġláº©n":10766,"ĠhuyÃª":10767,"ĠNguyá»ĩn":10768,"Bá»ĵ":10769,"ĠMap":10770,"Ngoáº¡i":10771,"¥nhÆ°á»£c":10772,"ĠPE":10773,"ĠLÄĲLÄĲ":10774,"ïģ":10775,"Ġpre":10776,"Mar":10777,"ĠcÃ¹i":10778,"ĠCMND":10779,"Ġváº¡":10780,"Ġchocol":10781,"ĠDur":10782,"ĠAmerican":10783,"ocirc":10784,"Ġstudio":10785,"Am":10786,"cá»©":10787,"Ġ1950":10788,"ÑĨ":10789,"ĠPhÃªrÃ´":10790,"FI":10791,"UP":10792,"ĠVá»¹":10793,"Äĳáº¿n":10794,"bÃłi":10795,"ĠlÆ°Æ¡n":10796,"Ġrock":10797,"á»£m":10798,"ĠNgáº¡n":10799,"Ġlá»µ":10800,"Ġpallet":10801,"Ð¸Ð":10802,"ĠÄĳÃºt":10803,"ĠNobel":10804,")(":10805,"ĠVáº»":10806,"ĠJam":10807,"ĠçĻ":10808,"ĠBá»Ŀ":10809,"ĠYáº¿u":10810,"Ġkháº¿":10811,"ViÃªn":10812,"Ġorder":10813,"Ġworld":10814,"Ġsmart":10815,"ylon":10816,"cÃ¢y":10817,"åľ":10818,"æĺ":10819,"bia":10820,"230":10821,"ĠOscar":10822,"sá»ĳng":10823,"On":10824,"ĠXIV":10825,"Ġbuá»ĵm":10826,"Ġèĩªtá»±":10827,"nghi":10828,"ChÃºa":10829,"ĠASIAD":10830,"ÙĪ":10831,"ais":10832,"Cá»Ļng":10833,"ÄĲá»©ng":10834,"Ġphat":10835,"Ð¾Ð¼":10836,"ĠGer":10837,"ĠVÃ¢ng":10838,"TrÆ°á»Łng":10839,"ĠThÃ´n":10840,"Ġwill":10841,"ĠhÃ³t":10842,"ThÆ°á»£ng":10843,"ĠCollege":10844,"eline":10845,"Ġkháº£i":10846,"ĠLot":10847,"táº¯c":10848,"ĠDen":10849,"For":10850,"CáºŃp":10851,"ĠSerie":10852,"uld":10853,"Ġnáº¥c":10854,"care":10855,"ĠCAO":10856,"á»ģm":10857,"ĠBlo":10858,"ĠkhÄĥ":10859,"365":10860,"Ġháº¥t":10861,"ural":10862,"Tá»Ŀ":10863,"ĠGiáº£n":10864,"Ġì":10865,"hÃłnh":10866,"Ġmotor":10867,"ĠNÃ´m":10868,"TrÃł":10869,":\"":10870,"ĠCá»ĳng":10871,"ĠMiÃªn":10872,"chiáº¿m":10873,"ĠÄĲá»ĺNG":10874,"Xu":10875,"ĠDaniel":10876,"ĠDuáº©n":10877,"ĠBÃºt":10878,"ĠVGA":10879,"ĠSáº§m":10880,"650":10881,"ĠDÆ°á»Ŀng":10882,"Ha":10883,"Ġdom":10884,"ĠBÃºp":10885,"ols":10886,"Ġspam":10887,"ted":10888,"Ġè§":10889,"oman":10890,"ĠLÃĿ":10891,"Ð°Ð»":10892,"hÆ°á»Ľng":10893,"ĠXU":10894,"imex":10895,"ask":10896,"ĠShe":10897,"550":10898,"Ġlive":10899,"210":10900,"BP":10901,"onic":10902,"LINE":10903,"ĠMail":10904,"GI":10905,"á»¤NG":10906,"uynh":10907,"SÃ¡ch":10908,"ĠDam":10909,"ĠLA":10910,"ĠÄĳÃ´la":10911,"ngoáº¡i":10912,"ĠBrid":10913,"chÆ°":10914,"Ġtiáº¿u":10915,"Ġbut":10916,"ÑĪ":10917,"Ġreg":10918,"Ġcover":10919,"ĠvÃºt":10920,"ĠcÃ¢m":10921,"yme":10922,"ĠbÃ¹a":10923,"dung":10924,"ĠNGHIá»ĨP":10925,"ĠTÃ³m":10926,"ĠWilliam":10927,"ĠTaxi":10928,"ĠHá»ĺI":10929,"Ġthit":10930,"Ġmuá»ĳng":10931,"ĠmÆ°á»Ľp":10932,"ĠUtd":10933,"ĠLá»ĵng":10934,"Ġchien":10935,"ĠhÃ©o":10936,"biá»ĩt":10937,"ĠDá»°":10938,"LO":10939,"nÃ³ng":10940,"ĠmáºŃu":10941,"ĠVIN":10942,"asp":10943,"Ġèĭ¥nhÆ°á»£c":10944,"Gb":10945,"aina":10946,"Chá»©c":10947,"ĠéģĵÄĳáº¡o":10948,"å¿":10949,"ĠDar":10950,"apphire":10951,"chuyá»ĩn":10952,"sai":10953,"Ġ0909":10954,"ĠHungary":10955,"Ġdt":10956,"aru":10957,"\\\"":10958,"Ġtitan":10959,"Ð¾Ð´":10960,"omo":10961,"Ùħ":10962,"Ġbá»ĭnh":10963,"Ġsalon":10964,"ĠÄĲK":10965,"Ġvá»«ng":10966,"acera":10967,"ĠCharles":10968,"ĠTrÃ¡c":10969,"ional":10970,"ĠSáº¯p":10971,"ĠCent":10972,"Sa":10973,"ved":10974,"ĠThoa":10975,"ites":10976,"ĠdÃ¹m":10977,"core":10978,"ĠNO":10979,"Ġsá»Łi":10980,"ĠmÆ°á»Ľn":10981,"iá»ĥng":10982,"stal":10983,"evelop":10984,"Äĳá»Ļc":10985,"Cuá»ĳn":10986,"HA":10987,"GV":10988,"ÐµÐ»":10989,"âĨ":10990,"ĠJord":10991,"Ġchocolate":10992,"Ġupload":10993,"ĠTÃºc":10994,"ĠyÃª":10995,"Ġcatalogue":10996,"ecirc":10997,"ĠTrÃ¡ch":10998,"Ġgáº£":10999,"ĠVios":11000,"ĠNTM":11001,"ingfa":11002,"ĠQual":11003,"Uá»ĳng":11004,"Ġauto":11005,"ĠLÆ°á»£t":11006,"Ġç©":11007,"ĠmÃºc":11008,"itz":11009,"ĠnhÃŃch":11010,"ĠngÃ¹i":11011,"words":11012,"ÆĴ":11013,"orning":11014,"egas":11015,"Æ¯á»¢NG":11016,"ĠHous":11017,"ĠAug":11018,"igo":11019,"khÃ³a":11020,"eld":11021,"ĠNag":11022,"SÆ°":11023,"Ġgiáº±ng":11024,"ĠÄĲáº¦U":11025,"ĠChá»Ĺ":11026,"ná»¯":11027,"ĠICO":11028,"Ġ104":11029,"Ġkáº»o":11030,"mAh":11031,"ÃĶI":11032,"ĠStud":11033,"zuela":11034,"ĠRay":11035,"dd":11036,"CE":11037,"thá»ĥ":11038,"ait":11039,"çī":11040,"ĠCáº¥m":11041,"ĠTrao":11042,"ĠConan":11043,"ffic":11044,"$-":11045,"ĠVladimir":11046,"ĠMI":11047,"ĠTá»Ļc":11048,"ĠFestival":11049,"há»Ļi":11050,"ĠÃī":11051,"cáº§n":11052,"ĠRai":11053,"Ġvá»¥t":11054,"ĠnháºŃm":11055,"ĠAth":11056,"xá»©":11057,"ĠCF":11058,"Ġphá»Ļng":11059,"ĠHon":11060,"ĠThá»īnh":11061,"á»¦y":11062,"ĠEv":11063,"Bá»©c":11064,"ights":11065,"mund":11066,"dar":11067,"666":11068,"RC":11069,"Ġthá»ī":11070,"ois":11071,"ĠLuxury":11072,"Ġtext":11073,"ChÃłng":11074,"ÄĲáº¹p":11075,"ĠBá»ķn":11076,"ĠTHÃģ":11077,"VTC":11078,"chuyÃªn":11079,"ĠnhoÃ¡ng":11080,"ĠçŃ":11081,"ĠOmega":11082,"Ġdiá»ħu":11083,"?\".":11084,"ĠNLÄĲ":11085,"Ġå±±":11086,"Ġmanga":11087,"Mai":11088,"ĠBÆ¡m":11089,"ĠDá»ĭ":11090,"ulf":11091,"trÃ¡i":11092,"ĠAgribank":11093,"Ġmáº¡t":11094,"ÃĨ":11095,"Ġbr":11096,"tÆ°á»Ľng":11097,"ĠLien":11098,"Ġcook":11099,"Ġáº¨m":11100,"ä½":11101,"áºª":11102,"ĠÄĲá»ĴNG":11103,"UT":11104,"Ġchá»ĵn":11105,"ĠchuÃ¢":11106,"VI":11107,"Ninh":11108,"Táº¿t":11109,"ĠÄĲBSCL":11110,"sy":11111,"Ġwhi":11112,"ĠThuáº§n":11113,"ĠCX":11114,"báº¯t":11115,"ĠPalm":11116,"ĠTRUNG":11117,"Ġ(+":11118,"Ġná»±c":11119,"ĠHTML":11120,"ĠnghÃ©n":11121,"Ġbá»ģnh":11122,"cáº£m":11123,"ĠãĢ":11124,"'t":11125,"Ġton":11126,"Ġ107":11127,"cáº£":11128,"Ġæ³ķphÃ¡p":11129,"ĠSteve":11130,"hoÃłn":11131,"uner":11132,"viÃªn":11133,"pm":11134,"ĠngÃ³t":11135,"ÄĲá»ĭnh":11136,"ATA":11137,"VietQ":11138,"ĠLotte":11139,"ĠngÆ°á»£ng":11140,"ĠWTO":11141,"align":11142,"ĠLumia":11143,"Ġ::":11144,"ĠVista":11145,"Ġname":11146,"Ñİ":11147,"ĠNghiá»ĩm":11148,"ĠVá»¤":11149,"Ġ280":11150,"Ġhá»Ļc":11151,"spot":11152,"ĠdÄĥm":11153,"Ġnom":11154,"ĠÄĲá»Ļt":11155,"ĠMek":11156,"ĠGiÃł":11157,"won":11158,"ĠCá»ĳt":11159,"ĠTÃĤM":11160,"Ġbluetooth":11161,"ĠImplant":11162,"ĠBá»ĵn":11163,"ĠXP":11164,"akh":11165,"ĠgiÃª":11166,"Ġsing":11167,"khai":11168,"ĠQatar":11169,"ĠATGT":11170,"ĠÄĲiÃª":11171,"1717":11172,"ĠRoll":11173,"UYá»ĤN":11174,"ĠVillage":11175,"ĠPrin":11176,"ĠVÆ°á»£t":11177,"ĠRedmi":11178,"Ġnokia":11179,"ÃĻNG":11180,"aus":11181,"Hiá»ĩu":11182,"Ġzalo":11183,"Ġéº":11184,"Ġáº¨n":11185,"Iá»ĢU":11186,"LED":11187,"ĠACB":11188,"Ġbá»ĭch":11189,"Ġtá»ĳp":11190,"NgÆ°á»£c":11191,"Ġpop":11192,"ÄĲoáº¡n":11193,"nik":11194,"EIC":11195,"åį":11196,"Ga":11197,"Ġnhá»įt":11198,"ĠdÃ£n":11199,"iti":11200,"ĠPiano":11201,"\":\"":11202,"ĠÄĳá»įa":11203,"zone":11204,"Ġ106":11205,"Ġradio":11206,"Ġamp":11207,"Lá»±c":11208,"kháº£":11209,"áº¢NG":11210,"ĠHÆ°":11211,"Láº¯p":11212,"ĠHanoi":11213,"rc":11214,"Ġ//":11215,"ĠPhiáº¿u":11216,"ĠFerr":11217,"ĠNorth":11218,"Ġthue":11219,"Ġngá»£p":11220,"GH":11221,"ĠMass":11222,"lÃªn":11223,"ĠbÃ¡ng":11224,"chuyá»ĥn":11225,"áº¤n":11226,"RÃµ":11227,"ĠBut":11228,"igr":11229,"ĠngÆ°á»Ľc":11230,"µ·":11231,"ĠVS":11232,"Hot":11233,"aux":11234,"Ġáº¿":11235,"tháºŃt":11236,"ĠPor":11237,"Ġ260":11238,"ĠkhoÃ©t":11239,"duct":11240,"ÄĲáº£ng":11241,"biáº¿n":11242,"LÆ°á»£t":11243,"ĠExpl":11244,"ĠNuÃ´i":11245,"cá»Ńa":11246,"?âĢĿ,":11247,"Ġdáº³ng":11248,"DÃ¢y":11249,"Æ¯á»ľI":11250,"ĠHold":11251,"ĠÄĲá»¨C":11252,"Ġphá»ī":11253,"stan":11254,"Ġtuáº¥n":11255,"Ð¸ÑĤ":11256,"oda":11257,"ĠGood":11258,"bat":11259,"cáºŃu":11260,"140":11261,"var":11262,"Ġláº¡t":11263,"ĠTMÄĲT":11264,"fect":11265,"Ġdá»ĳt":11266,"uct":11267,"ĠtrÃ´":11268,"á»±ng":11269,"Ġjava":11270,"105":11271,"NLÄĲ":11272,"Ġversion":11273,"ĠChile":11274,"LuÃ´n":11275,"Ġváº¿":11276,"Ġlich":11277,"åŃ":11278,"ĠNC":11279,"ĠDev":11280,"ĠCab":11281,"cuá»Ļc":11282,"§t":11283,"ĠLÅ©":11284,"bu":11285,"ĠXÃŃ":11286,"Ġwork":11287,"ĠON":11288,"Ġxáº©y":11289,"ĠMix":11290,"ĠBall":11291,"ĠphÃł":11292,"ĠTCT":11293,"ĠKat":11294,"Ġanime":11295,"Ġposter":11296,"Ġáº£i":11297,"Ġtopic":11298,"ĠFrancisco":11299,"Ġluá»ĳng":11300,"âĢľ.":11301,"ĠIM":11302,"Ġ113":11303,"ĠAirways":11304,"ĠKá»ĩ":11305,"ÃĤU":11306,"idth":11307,"ĠHum":11308,"Biá»ĩt":11309,"Ġten":11310,"ĠvÃ£i":11311,"vers":11312,"001":11313,"***":11314,"Ġè«¸":11315,"ĠAnton":11316,"ĠKÃª":11317,"Ġlá»ĳt":11318,"ĠXSMB":11319,"ĠLá»Ńa":11320,"ĠNhÃ¢":11321,"ĠMelbourne":11322,"ĠMINH":11323,"Ġrá»§a":11324,"Ġrá»£n":11325,"Ġä¸ĭ":11326,"ĠTiá»ĩp":11327,"Ġorgan":11328,"ĠPalest":11329,"ĠVT":11330,"Ġkháº¥n":11331,"ĠFood":11332,"HáºŃu":11333,"Vá»ĳn":11334,"ĠNá»Ĺi":11335,"Express":11336,"236":11337,"ĠXÃºc":11338,"Ġgá»Ŀ":11339,"ĠOx":11340,"Ġsy":11341,"lÃ½":11342,"ĠEp":11343,"ĠChic":11344,"Ġngáº£i":11345,"ĠPHáº¦N":11346,"ĥ§":11347,"ĠCháº¿t":11348,"ĠgÆ°á»£ng":11349,"ĠTru":11350,"hr":11351,"ĠMot":11352,"Ġmiá»ĩn":11353,"ĠTÃª":11354,"artment":11355,"ĠBá»ĵi":11356,"Ġláº¡ng":11357,"ĠThuá»Ļc":11358,"Ġè«¸chÆ°":11359,"sus":11360,"ĠTÃ´m":11361,"ĠLÃĢM":11362,"ĠMá»Ĺ":11363,"Ġquáº·ng":11364,"ĠVenezuela":11365,"Ġrá»ĵ":11366,"ĠDang":11367,"ĠNaruto":11368,"ĠVL":11369,"ĠLas":11370,"ĠXÆ°a":11371,"edy":11372,"ĠnhÃµm":11373,"ĠTA":11374,"Ġá»£":11375,"quáº£":11376,"ĠÃĢ":11377,"ĠEmp":11378,"oro":11379,"à®":11380,"ĠBÃģO":11381,"ĠNgÃµ":11382,"ĠDá»¯":11383,"Ġcáº±n":11384,"ĠBá»Ļi":11385,"ĠMÃ¡u":11386,"ĠBá»¯a":11387,"ngÃ´n":11388,"ĠkÃ¬a":11389,"Ġdoáº¡":11390,"fs":11391,"ĠCrist":11392,"ĠxÃ³c":11393,"ents":11394,"ĠTÃŃ":11395,"Ġnham":11396,"...âĢĿ":11397,"MV":11398,"tá»ķng":11399,"ĠHoáº±ng":11400,"Ġserum":11401,"ĠBob":11402,"Benz":11403,"Plus":11404,"ĠHyun":11405,"ĠKrÃ´ng":11406,"ĠDep":11407,"UYá»ĦN":11408,"Iá»ĤM":11409,"ıváº¥n":11410,"Ġscan":11411,"ĠÄĳiá»ĥu":11412,"ĠChá»©":11413,"Ġâĺ":11414,"ĠcÃłn":11415,"ĠDy":11416,"tail":11417,"ĠNÃ©":11418,"Ġ094":11419,"ĠchÃ³p":11420,"ASA":11421,"ĠlÃ¹a":11422,"HÆ°Æ¡ng":11423,"TÃºi":11424,"ĠAK":11425,"ĠTelecom":11426,"ĠNK":11427,"ĠhÃŃ":11428,"Øª":11429,"ĠGemek":11430,"Ġlist":11431,"idas":11432,"Äĳá»Ļng":11433,"fford":11434,"ĠLock":11435,"ĠTÃį":11436,"Ġsearch":11437,"ĠVII":11438,"igue":11439,"Download":11440,"Samsung":11441,"Ġplugin":11442,"Ġcos":11443,"laz":11444,"Liá»ĩu":11445,"å°":11446,"Thá»ĳng":11447,"ville":11448,"119":11449,"Ġcá»ĳm":11450,"ĠHá»Ľi":11451,"hat":11452,"ĠâĢº":11453,"Ġdoi":11454,"ĠNight":11455,"ÃĢO":11456,"âĢĿ)":11457,"TrÆ°Æ¡ng":11458,"ĠJim":11459,"ĠCÆ¡n":11460,"ĠKaz":11461,"ĠAlibaba":11462,"lov":11463,"code":11464,"Ġbá»ĭa":11465,"anol":11466,"á»¢":11467,"ĠMoh":11468,"Ġsoda":11469,"olo":11470,"eda":11471,"ĠlÃ³e":11472,"ograph":11473,"cus":11474,"Ġsáº¥m":11475,"LÃ£o":11476,"ĠBac":11477,"ĠPHÃį":11478,"Ġdesign":11479,"Vui":11480,"ĠEV":11481,"Ġ380":11482,"ĠSPF":11483,"ÄĳÃ¢y":11484,"ĠÐ¼":11485,"ible":11486,"ĠDI":11487,"Ġgroup":11488,"ĠTrá»«":11489,"Ġå±±sÆ¡n":11490,"SK":11491,"ĠXE":11492,"º«":11493,"ĠHoang":11494,"cong":11495,"ĠchÃ³c":11496,"Ġgáº¯p":11497,"thÃ¹ng":11498,"Ġhigh":11499,"unction":11500,"ná»Ļi":11501,"Ġcarb":11502,"Ġ9001":11503,"ĠrÃ´n":11504,"Ġcomposite":11505,"Ġ256":11506,"Ġä¸ĭháº¡":11507,"ĻĤthá»Ŀi":11508,"Thá»ĭt":11509,"ÙĬ":11510,"Be":11511,"ĠthÃ¬nh":11512,"máº·t":11513,"ĠÐ¿ÑĢ":11514,"mang":11515,"lÆ°u":11516,"Ġgiá»Ł":11517,"Ġtáº§u":11518,"Ġtá»ģ":11519,"XÃ¡c":11520,"Ġåħ¶":11521,"Ġ4000":11522,"Ġbuild":11523,"ĠCÃº":11524,"ĠGun":11525,"Ġháº±n":11526,"ĠRemix":11527,"ĠPHáº¨M":11528,"AIDS":11529,"ĠAdmin":11530,"Ġvá»ĩt":11531,"ĠADN":11532,"ãģĹ":11533,"ĠThuyá»ģn":11534,"Ġxuá»ĵng":11535,"Ġjack":11536,"ĠSoo":11537,"ĠCoffee":11538,"ĠtÃ©p":11539,"å¤§":11540,"ĠTDTT":11541,"ĠHalloween":11542,"Ġç«":11543,"Ġbro":11544,"ĠLion":11545,"elen":11546,"chia":11547,"Ã±":11548,"ĠHenry":11549,"Ġ1974":11550,"Ġtom":11551,"real":11552,"Ġcá»ĳp":11553,"Google":11554,"ĠQÄĲ":11555,"ĠCáº¡nh":11556,"Ġåº":11557,"Ġrá»Ĺ":11558,"Ġ109":11559,"Tháº©m":11560,"âĦ¢":11561,"ĠPVN":11562,"tÃłi":11563,"ĠæĦ":11564,"liÃªn":11565,"ĠHoÃłnh":11566,"Ġ1984":11567,"ĠLine":11568,"ĠchÃ¹ng":11569,"ĠNáº¡n":11570,"ĠVatican":11571,"Ġthá»¥t":11572,"VÅ©ng":11573,"ĠTráº¡ng":11574,"GiÃºp":11575,"ĠTrade":11576,"display":11577,"mu":11578,"vv":11579,"Lo":11580,"Chuáº©n":11581,"ĠkhÃ¢m":11582,"esta":11583,"Ġnáº»":11584,"ÄĲÃło":11585,"nhiÃªn":11586,"Ġè¡Įh":11587,"ĠInnova":11588,"ĠSI":11589,"ĠVis":11590,"ªthuyáº¿t":11591,"ĠGui":11592,"eva":11593,"ĠrÃ¬nh":11594,"Ġpc":11595,"ĠVCK":11596,"ĠSab":11597,"Ġshi":11598,"?)":11599,"thÆ°Æ¡ng":11600,"zen":11601,"ĠÃŃ":11602,"Ġselfie":11603,"rad":11604,"ĠODA":11605,"Khuyáº¿n":11606,"ĠCAND":11607,"+,":11608,"onin":11609,"Ġbanner":11610,"ĠPap":11611,"ĠTrá»Ļn":11612,"Ġèªªthuyáº¿t":11613,"å¼":11614,"cd":11615,":-":11616,"ĠOsaka":11617,"Ġvoucher":11618,"Win":11619,"ĠSilicon":11620,"ides":11621,"ĠType":11622,"Tiáº¿t":11623,"ĠLoÃłi":11624,"ĠDá»¤NG":11625,"Ġåħ¶ká»³":11626,"alin":11627,"ĠTOEIC":11628,"Ġhun":11629,"ĠCloud":11630,"ĠPhotoshop":11631,"ÄĳÆ¡n":11632,"âĢ¦âĢ¦âĢ¦âĢ¦âĢ¦âĢ¦âĢ¦âĢ¦âĢ¦âĢ¦âĢ¦âĢ¦âĢ¦âĢ¦âĢ¦âĢ¦":11633,"Nháº¥t":11634,"ĠQuá»³":11635,"Tay":11636,"ĠMatt":11637,"Ġmao":11638,"acy":11639,"encia":11640,"TuyÃªn":11641,"Tho":11642,"doanh":11643,"astic":11644,"ĠLHQ":11645,"ĠhÃ¬":11646,"Bá»ĳn":11647,"ĠKQXS":11648,"alem":11649,"ĠHÄĲXX":11650,"Ġquoc":11651,"Háº¡t":11652,"âĢĿ?":11653,"max":11654,"ĠVIII":11655,"Â©":11656,"ĠVietnamobile":11657,"ĠLinux":11658,"ular":11659,">>>":11660,"ĠlÃºt":11661,"Ġtoi":11662,"Ġ270":11663,"Vua":11664,"ĠCK":11665,"Ġmodule":11666,"card":11667,"ĠcÃºt":11668,"ĠScot":11669,"khá»Łi":11670,"trá»¥":11671,"ĠWay":11672,"ĠPHP":11673,"ĠÂ½":11674,"uguay":11675,"ĠÄĲá»ķ":11676,"ĠHil":11677,"ĠDuá»ĩ":11678,"TÃ´n":11679,"ĠJordan":11680,"Ġsec":11681,"ĠBáº¢O":11682,"ĠéĿŀ":11683,"á»Ī":11684,"Ĩlai":11685,"Ġabout":11686,"mÃ£":11687,"izen":11688,"Ġåķıváº¥n":11689,"ĠNÄĤM":11690,"ĠGáº¡ch":11691,"ÄĲÃłi":11692,"ydr":11693,"Sing":11694,"ĠKa":11695,"Ġ1976":11696,"ĠPalestine":11697,"ogba":11698,"Ġä¾Ĩlai":11699,"\"),":11700,"Ġxy":11701,"NgÃłi":11702,"Ġå¤©å¤©":11703,"280":11704,"ely":11705,"cáº§u":11706,"ĠkhÃ¢":11707,"Ġ024":11708,"á»ĩch":11709,"omen":11710,"Ġsá»Ńng":11711,"ĠRun":11712,"ÃĪ":11713,"ĠÄĳÃŃt":11714,"ror":11715,"Ġè¬":11716,"ĠNhiá»ħm":11717,"................................................................":11718,"Ġtrá»įc":11719,"Ġcá»įng":11720,"sin":11721,"ĠhÄĥm":11722,"AE":11723,"ĠSto":11724,"ĠChá»Ŀ":11725,"ĠExc":11726,"Ġ1973":11727,"tÃ´ng":11728,"ĠéĤ":11729,"zi":11730,"ĠBiá»ĩn":11731,"tá»·":11732,"lie":11733,"ĠÄĳiáº¿c":11734,"ĠPot":11735,"ĠCamry":11736,"ĠTÄĲ":11737,"!.":11738,"ĠMá»ĭ":11739,"ĠEst":11740,"Ð½Ð¾":11741,"ĠHÃºt":11742,"Ø¯":11743,":âĢĿ":11744,"sá»Ń":11745,"ĠåĲį":11746,"ĠÄĳÃºp":11747,"ĠHá»Ĵ":11748,"ĠHarvard":11749,"QuÃ¡n":11750,"ĠKhiáº¿t":11751,"kham":11752,"gian":11753,"eless":11754,"váºŃt":11755,"loc":11756,"SL":11757,"ĠMO":11758,"ĠWork":11759,"ĠKaw":11760,"ĠBXH":11761,"ĠBÃ²":11762,"ĠXÃł":11763,"PR":11764,"ĠKai":11765,"Ġdua":11766,"ĠAnn":11767,"yu":11768,"ĠVá»Ģ":11769,"ĠFanpage":11770,"ĠCáº¤P":11771,"ĠåŃĲ":11772,"bridge":11773,"BYT":11774,"Ġ---":11775,"bus":11776,"ktop":11777,"ĠBÃĮNH":11778,"QU":11779,"ĠEs":11780,"Ġæ±":11781,"ĠVR":11782,"VÃłi":11783,"ĠSHB":11784,"Ġxuyáº¿n":11785,"Ġpen":11786,"Ġ1983":11787,"ĠVietlott":11788,"ĠïĢ©":11789,"Ġæĭ":11790,"áºłNH":11791,"ĠSacombank":11792,"ĠÑĢ":11793,"ĠéĿŀphi":11794,"Ġkhuá»·":11795,"ski":11796,"ĠquáºŃy":11797,"Ġram":11798,"ĠXD":11799,"My":11800,"Ġnhá»¡":11801,"ĠMekong":11802,"Ġpan":11803,"ĠTáº¯c":11804,"ĠNhat":11805,"Ġdáº«m":11806,"ĠsiÃªng":11807,"forum":11808,"TrÃ¬nh":11809,"Pre":11810,"ĠcÄĥ":11811,"ĠæĻĤthá»Ŀi":11812,"gg":11813,"ĠKÃ¬":11814,"ĠTpHCM":11815,"ereum":11816,"cua":11817,"ĠCoin":11818,"ĠJer":11819,"Khá»Łi":11820,"ĠXÃŃch":11821,"ĠrÆ°á»Ŀm":11822,"ĠValentine":11823,"ĠniÃª":11824,"New":11825,"tiÃªu":11826,"iron":11827,"ces":11828,"ĠHDD":11829,"Fast":11830,"Äĳá»ĵ":11831,"ĠTá»Ľ":11832,"ĠCall":11833,"Ġcháº¥u":11834,"VÃ¢ng":11835,"orsche":11836,"GHz":11837,"Ġoanh":11838,"ĠOrgan":11839,"ĠTNCS":11840,"pper":11841,"ĠThÆ¡m":11842,"ĠéĻ":11843,"ĠSin":11844,"Ġ118":11845,"OX":11846,"Biá»ĥu":11847,"ÌĽ":11848,"ĠHinh":11849,"Ġipad":11850,"ĠCosta":11851,"Ġphá»Ľt":11852,"ÃĥÆĴ":11853,"ĠCIA":11854,"ĠMáº¡t":11855,"Ġbuffet":11856,"Ġtháº«m":11857,"atic":11858,"ĠPhÃºt":11859,"TÃłu":11860,"ÃĢNG":11861,"Ġbat":11862,"260":11863,"ei":11864,"Ġbacklink":11865,"ĠhÄĥ":11866,"cola":11867,"ĠPHÃļ":11868,"ĠVes":11869,"Ġtháº¡nh":11870,"Ġcuáº£":11871,"vui":11872,"Car":11873,"ÃĶN":11874,"Ġlogistics":11875,"orer":11876,"outer":11877,"ugh":11878,"Ġ136":11879,"\"]":11880,"há»ĩ":11881,"ĠMike":11882,"ĠHor":11883,"Mo":11884,"cy":11885,"Ġ247":11886,"ĠDiÃªm":11887,"ĠCasino":11888,"Ġganh":11889,"tháº¥t":11890,"FL":11891,"Ġhas":11892,"lazada":11893,"ĠPháº«u":11894,"ĠNhÆ°á»£ng":11895,"ĠSquare":11896,"ĠShowroom":11897,"CÃĶNG":11898,"vÃło":11899,"Ġ1978":11900,"ĠBh":11901,"nhiá»ģu":11902,"Ġass":11903,"bÃ¡o":11904,"Ġder":11905,"ounce":11906,"Ġá»ĳi":11907,"ĠåĲįdanh":11908,"Ġsin":11909,"ĠráºŃn":11910,"ĠHino":11911,"ĠPK":11912,"Ġdiá»ħm":11913,"ĠbÆ°Æ¡":11914,"ĠLev":11915,"Ġhá»Ń":11916,"máº¹":11917,"ĠSpec":11918,"gov":11919,"ĠContinue":11920,"umber":11921,"Ġval":11922,"hÆ¡n":11923,"Ġnhá»£t":11924,"Ġskin":11925,"ĠCÆ¡m":11926,"iat":11927,"ĠrÃ¡ng":11928,"ĠThá»Ŀ":11929,"Ġboy":11930,"Ġ0917":11931,"ĠGiÃ¢y":11932,"uble":11933,"ĠgiÄĥng":11934,"LÃ¡":11935,"BNN":11936,"ĠFlorida":11937,"789":11938,"Ð°ÑĢ":11939,"osterone":11940,"Ġâī":11941,"Ġair":11942,"Ġnhac":11943,"Ġ0902":11944,"ĠVKSND":11945,"ĠRose":11946,"Ġváº¹o":11947,"ENT":11948,"Ġthread":11949,"ĠÄĲáº©y":11950,"ĠBoy":11951,"ĠEdition":11952,"ĠÄĲÆ°":11953,"ĠGHz":11954,"Ġná»¡":11955,"á»ĲNG":11956,"ĠLtd":11957,"tour":11958,"nc":11959,"vu":11960,"Ġngá»¥m":11961,"vious":11962,"ĠFox":11963,"ĠGá»ĵm":11964,"ĠåĬ":11965,"PI":11966,"Soi":11967,"ĠEpson":11968,"ĠvÃ©n":11969,"Láº¡y":11970,"ĠLá»įc":11971,"170":11972,"Ġbac":11973,"Ġlá»ıi":11974,"andy":11975,"wi":11976,"ĠOxy":11977,"ĠPoint":11978,"264":11979,"Äĳáº³ng":11980,"ĠmÃ´t":11981,"ĠAtl":11982,"Ġèı":11983,"ĠgiÃ¹m":11984,"ĠBá»ĺ":11985,"ĠThung":11986,"¿t":11987,"ĠGiÃłu":11988,"128":11989,"kÃ½":11990,"ĠThS":11991,"Äĳoáº¡n":11992,"ĠNhiáº¿p":11993,"FO":11994,"Ġkhuá»·u":11995,"Ġráº§u":11996,"Nhá»Ľ":11997,"ĠXo":11998,"ĠKhuÃ´n":11999,"Ġuáº¿":12000,"size":12001,"ĠVirgin":12002,"img":12003,"ĠGÆ°Æ¡m":12004,"ĠNovaland":12005,"bach":12006,"tan":12007,"Ġ???":12008,"Ġrec":12009,"ĠMÃ¢n":12010,"kbps":12011,"ĠkhÃ©t":12012,"ĠTCVN":12013,"='":12014,"Ġliu":12015,"trÃŃ":12016,"Ġdáº¥m":12017,"BB":12018,"Ġrá»Ļp":12019,"ĠTRONG":12020,"Ġ175":12021,"ifer":12022,"writ":12023,"ustr":12024,"ardo":12025,"Ġ??":12026,"BGDÄĲT":12027,"Ġgout":12028,"ĠNHÃĤN":12029,"ĠÄĲá»ķng":12030,"ĠGÃ£":12031,"ĠNháº¥n":12032,"ĠIX":12033,"\"...":12034,"Ġenzyme":12035,"áº¸P":12036,"ĠCare":12037,"ĠDáº«u":12038,"ĠUruguay":12039,"ĠBA":12040,"XuÃ¢n":12041,"Ġláº³ng":12042,"ĠÑĤ":12043,"Ġwindows":12044,"ĠÄĲÃ¡n":12045,"ĠCode":12046,"ĠKhÃ¡i":12047,"ĠNinja":12048,"ĥ§TÄĥng":12049,"ĠTrá»¯":12050,"Vinh":12051,"ĠgiÃ´ng":12052,"TNMT":12053,"ĠPogba":12054,"Ġtrá»«u":12055,"Ġcháº»":12056,"ĠArabia":12057,"ĠQuÃŃ":12058,"Chuyáº¿n":12059,"ĠLeo":12060,"Ġhandmade":12061,"ĠShare":12062,"ĠChip":12063,"Ġæ·":12064,"ĠVar":12065,"Ġvirut":12066,"cáºŃp":12067,"rent":12068,"nghe":12069,"Ġmil":12070,"Tháº£o":12071,"Ġtuc":12072,"BN":12073,"ĠBloom":12074,"Ġbá»¥c":12075,"estern":12076,"Ġ,...":12077,"Ġtablet":12078,"ĠAcer":12079,"icester":12080,"ĠJohnson":12081,"Ġáº£m":12082,"ĠSáº¯t":12083,"á»ģu":12084,"agement":12085,"má»Ł":12086,"ĠCá»Ļt":12087,"ĠÃ°":12088,"Ġhop":12089,"115":12090,"*)":12091,"iflex":12092,"ĠLiá»ģn":12093,"ĠLÆ°á»Ľi":12094,"ĠGiáº¥c":12095,"fi":12096,"ĠngÃºt":12097,"Ġbá»Ŀi":12098,"Iá»ĨT":12099,"Ġ(-":12100,"Ġåł":12101,"ĠKn":12102,"ential":12103,"Lá»¥c":12104,"ĠGio":12105,"ĠDal":12106,"Ġvá»ın":12107,"Ġtuoi":12108,"Ġnong":12109,"ĠSecret":12110,"Ġbá»ĭp":12111,"ĠNike":12112,"Ġyá»ĥm":12113,"ĠthÃ³c":12114,"Ġamidan":12115,"ĠVinac":12116,"dia":12117,"ĠTrá»ĵng":12118,"asma":12119,"ortmund":12120,"Ġtuyá»ģn":12121,"ĠAlbum":12122,"ĠBuff":12123,"ĠåŃĲtá»Ń":12124,"ĠSlim":12125,"Ġlá»ĭ":12126,"Ġ088":12127,"ĠMario":12128,"kel":12129,"Ġlem":12130,"Ġåĭ":12131,"ĠAcid":12132,"ĠDiego":12133,"ĠnÃŃt":12134,"Ġfilm":12135,"Tour":12136,"Dung":12137,"ĠManager":12138,"Iáº¾N":12139,"Ġchá»Ļi":12140,"ĠPom":12141,"ĠHNX":12142,"ĠCNN":12143,"âĸº":12144,"Ġgao":12145,"rylic":12146,"Táº¥m":12147,"ĠJour":12148,"ĠMacBook":12149,"Ġtrá»Ĺi":12150,"FT":12151,"Ġcáº¡p":12152,"237":12153,"Ġnatri":12154,"ĠgÆ°Æ¡m":12155,"ĠTHI":12156,"Ġéº¼":12157,"ĠhÃ²ng":12158,"ĠvÃŃu":12159,"ĠTaylor":12160,"text":12161,"Ġåīĩ":12162,"ears":12163,"Ġngai":12164,"Ġcombo":12165,"ĠXáº¿p":12166,"ĠInc":12167,"1998":12168,"Ġchau":12169,"Ġéº¼ma":12170,"imer":12171,"720":12172,"ĠKÃ©o":12173,"Ġ1965":12174,"Ġcent":12175,"Ġ1963":12176,"rt":12177,"1999":12178,"nhanh":12179,"Ġpháº£ng":12180,"ĠNeo":12181,"irus":12182,"ĠEa":12183,"ĠThá»£":12184,"asaki":12185,"ĠFortuner":12186,"Ġgoi":12187,"Æ¯á»¢C":12188,"VÃ¢n":12189,"Ġåīĩtáº¯c":12190,"Ġnháº¿ch":12191,"Ġquáº»":12192,"ĠchÆ¡n":12193,"ĠMiáº¿n":12194,"borg":12195,"ChÃ¡u":12196,"ĠNick":12197,"onia":12198,"ĠPrime":12199,"Nhiá»ĩm":12200,"Ġbin":12201,"Ġ155":12202,"boy":12203,"ĠANH":12204,"MáºŃt":12205,"zer":12206,"Ġcp":12207,"ĠÆ¯Æ¡ng":12208,"ĠçĽ¸tÆ°Æ¡ng":12209,"388":12210,"ĠTÃ¡i":12211,"ĠNgá»§":12212,"Ġ028":12213,"ĠNgÄĥn":12214,"Ġthau":12215,"met":12216,"ç½":12217,"Ġshophouse":12218,"ilia":12219,"Ġaudio":12220,"Ġåĩº":12221,"ĠMáº¹o":12222,"ĠgÃ¹":12223,"VÄ©nh":12224,"xanh":12225,"Cá»ķ":12226,"abi":12227,"ĠNSÆ¯T":12228,"Ġgá»ĵ":12229,"Ġmeg":12230,"ĠNic":12231,"ĠHuyÃªn":12232,"ĠKá»µ":12233,"Ġtron":12234,"Ġ114":12235,"Ġcall":12236,"Ġmelanin":12237,"Mod":12238,"Ġchoi":12239,"unes":12240,"SÃ¢n":12241,"oka":12242,"ĠAngela":12243,"ole":12244,"Ġxá»ı":12245,"Ġjav":12246,"Ġè¡ĮhÃłnh":12247,"Ġag":12248,"ĠBI":12249,"iPhone":12250,"Ġvoan":12251,"ĠkÃ¬nh":12252,"ĠquÃ¡ng":12253,"ĠRio":12254,"ĠAwards":12255,"ĠNGUYá»ĦN":12256,"ĠHÃ£n":12257,"asu":12258,"Ġèĥ½":12259,"Ġhome":12260,"ĠtáºŃu":12261,"hoc":12262,"ĠThÃª":12263,"Ġç¦":12264,"Ġå½":12265,"VÃ¹ng":12266,"Ġmot":12267,"âĢ¦),":12268,"ĠXL":12269,"uala":12270,"ird":12271,"Ġcort":12272,"ĠTags":12273,"Ġchá»ĵi":12274,"ĠBet":12275,"Há»Ļp":12276,"HI":12277,"Ġä»Ĭ":12278,"ĠNiger":12279,"ChÃ¹a":12280,"ĠLHPN":12281,"ĠKangaroo":12282,"1992":12283,"ngu":12284,"ĠBÃ¹":12285,"áº®C":12286,"ĠPent":12287,"ĠvÃ¯":12288,"ĠMarket":12289,"Ġéļ":12290,"ĠDia":12291,"ĠNgang":12292,"eing":12293,"ĠThÃ¢m":12294,"ÄĲK":12295,"ĠNháº«n":12296,"010":12297,"ĠChÆ¡n":12298,"ĠChá»ĭu":12299,"Phan":12300,"ĠchÃ´ng":12301,"Ġduá»ĩ":12302,"nu":12303,"ĠKl":12304,"BÃ³ng":12305,"ĠSound":12306,"ĠPHÃģP":12307,"ĠBul":12308,"name":12309,"ÄĳÃł":12310,"OM":12311,"Ġcuoi":12312,"ĠNgo":12313,"ĠÃĩ":12314,"å¸":12315,"blog":12316,"ĠRA":12317,"KhÃ¡m":12318,"ĠChá»¥p":12319,"ĠMaxmobile":12320,"ivate":12321,"108":12322,"ĠTrafford":12323,"gn":12324,"Ġphp":12325,"Ġ126":12326,"Ã¥":12327,"()":12328,"ĠrÃª":12329,"dÃ¹ng":12330,"ĠFit":12331,"elli":12332,"ThÃ´i":12333,"Ġadd":12334,"ĠhÃº":12335,"ĠrÆ°ng":12336,"ĠNáº¯ng":12337,"Ġçľ¾":12338,"ĠNTK":12339,"Ġèĥ½nÄĥng":12340,"Or":12341,"TQ":12342,"ĠUEFA":12343,"ĠFly":12344,"ĠSharp":12345,"ĠdÃŃ":12346,"Ġpas":12347,"Ð³":12348,"Ġåĩºxuáº¥t":12349,"ĠnguÃ´":12350,"ĠCÃłn":12351,"Ġtrá»ĵ":12352,"ĠAFP":12353,"Ġchá»Ńa":12354,"Sai":12355,"ĠHÄĲT":12356,"Ġåľ¨":12357,"Ġtheme":12358,"ĠChicago":12359,"tic":12360,"ĠTTTM":12361,"ĠPG":12362,"370":12363,"Å¨":12364,"áº«ng":12365,"kip":12366,"dÃ¹":12367,"Ð¾Ð³":12368,"ĠQC":12369,"Ġbáº·m":12370,"Ġçľ¾chÃºng":12371,"::":12372,"ĠFDA":12373,"Cap":12374,"LÃªn":12375,"ĠnÃŃn":12376,"ĠDaikin":12377,"nÆ¡i":12378,"ĠBrown":12379,"ĠEngine":12380,"lacera":12381,"Ġif":12382,"Ġáº¯p":12383,"font":12384,"igan":12385,"Ġåĥ§TÄĥng":12386,"ĠEuropa":12387,"è®":12388,"Ġ999":12389,"Ġphuc":12390,"Ġcháº§m":12391,",....":12392,"Ġç¥":12393,"oacute":12394,"rem":12395,"Ġlevel":12396,"Ãµa":12397,"Class":12398,"Ġåľ°":12399,"phat":12400,"¡t":12401,"ento":12402,"ĠlÃ¡o":12403,"nÃ³":12404,"aven":12405,"Ġchá»«a":12406,"ĠMÃ¢u":12407,"Huáº¿":12408,"ĠÄĳá»ģm":12409,"ĠTÃ¡nh":12410,"ĠrÃ¨":12411,"ĠvÃ¡t":12412,"ĠÄĲá»ĬNH":12413,"Łm":12414,"Ġ1920":12415,"Ġ=))":12416,"ĠAdobe":12417,"div":12418,"nan":12419,"máºŃt":12420,"Ġjust":12421,"Ġ850":12422,"ĠCristiano":12423,"ĠTá»Ķ":12424,"annel":12425,"ĠÄĲem":12426,"ĠCiv":12427,"pham":12428,"çİ":12429,"Ġæ¬":12430,"Äĳang":12431,"mÃłu":12432,"Náº¯m":12433,"TTH":12434,"Ð¸Ð½":12435,"ĠÄĲáº¸P":12436,"Ġsocola":12437,"ĠCour":12438,"ĠæĻ":12439,"ä¸Ģ":12440,"ĠvnÄĳ":12441,"View":12442,"Quang":12443,"Ġnude":12444,"CÃ¡m":12445,"Ġmiáº¿n":12446,"Ġload":12447,"Ġ1969":12448,"ĠCre":12449,"ĠMUA":12450,"ĠGot":12451,"ĠÄĲá»ĭch":12452,"ĠchÆ°á»Ŀm":12453,"ĠGates":12454,"ĠchÃły":12455,"Ġfpt":12456,"ĠBarack":12457,"lÃºc":12458,"102":12459,"ĠèĻķ":12460,"190":12461,"ĠÃĲáº¡o":12462,"Ġkiá»ĩu":12463,"ĠVD":12464,"par":12465,"ï¼®":12466,"ĠDol":12467,"girl":12468,"NC":12469,"ĠtÃºm":12470,"acirc":12471,"Ġ0913":12472,"ĠSea":12473,"Ġ480":12474,"GÃ³i":12475,"ĠTiger":12476,"ï¼®ï¼":12477,"Ġhero":12478,"ĠBrit":12479,"ĠChan":12480,"ĠnhÃ¨":12481,"ĠTiÃª":12482,"Ġç¶":12483,"Ġnhá»«":12484,"aking":12485,"Ġover":12486,"Ġkiáº¿t":12487,"ĠPorsche":12488,"bÃ¡t":12489,"ĠBlockchain":12490,"bÃŃ":12491,"ĠLaw":12492,"ĠDortmund":12493,"ĠphÃ¬nh":12494,"========":12495,"arta":12496,"Äĳiá»ĩn":12497,"ility":12498,"ĠCá»ĵn":12499,"699":12500,"ĠCU":12501,"!\".":12502,"ĠKur":12503,"ĠDáº¡ng":12504,"Ġlock":12505,"Ġhere":12506,"Ġé¡":12507,"ĠRobot":12508,"giÃºp":12509,"ĠTOÃĢN":12510,"SI":12511,"Ġtá»ĥ":12512,"ĠNGÆ¯á»ľI":12513,"aut":12514,"ĠHÆ°á»Ŀng":12515,"oni":12516,"ĠvÃŃa":12517,"ÄĲTBXH":12518,"sang":12519,"vÃłng":12520,"uka":12521,"ĠWenger":12522,"dá»¥ng":12523,"?,":12524,"ĠCÅ©":12525,"ĠÃĲÃ´ng":12526,"ĠIdol":12527,"nguyen":12528,"Ġcáº³ng":12529,"ef":12530,"Ġoli":12531,"ĠÆłn":12532,"Ġá»Ńng":12533,"ĠchÃ²i":12534,"ĠDat":12535,"ĠvÆ°Æ¡":12536,"Ġ117":12537,"ĠFeder":12538,"ĠHÃĢNH":12539,"Ġèº«":12540,"VáºŃt":12541,"Ġsilic":12542,"ombie":12543,"dor":12544,"Ġsale":12545,"ĠKhÃ¢m":12546,"ĠÄĲBQH":12547,"vat":12548,"Ġgames":12549,"Ġsee":12550,"ĠAqu":12551,"ÄĲá»Ŀi":12552,"ĠNational":12553,"ĠNhÃ´m":12554,"ĠDÃłn":12555,"alt":12556,"Ġvol":12557,"ĠnhÃ³i":12558,"AMA":12559,"ĠLeicester":12560,"ĠDNA":12561,"ĠAcad":12562,"ãģ«":12563,"ngoÃłi":12564,"Ġcháº§u":12565,"show":12566,"ĠBush":12567,"Ġtuá»ĵng":12568,"ĠWith":12569,"Pod":12570,"Ġhá»Ŀi":12571,"æĹ¶":12572,"ĠSmith":12573,"ĠHá»·":12574,"ĠTagged":12575,"enh":12576,"Cr":12577,"ĠHTV":12578,"ĠBolero":12579,"Micro":12580,"Ġ1981":12581,"ĠBTV":12582,"ĠMH":12583,"ĠTáº©y":12584,"ĠBáº¥y":12585,"ĠnhÃºt":12586,"ĠÄĲai":12587,"Ġ1930":12588,"ĠBom":12589,"ĠNad":12590,"Gr":12591,"ĠSecurity":12592,"EB":12593,"ĠBuá»ĵn":12594,"chinh":12595,"content":12596,"ĠGall":12597,"ĠBody":12598,"154":12599,"116":12600,"Ġngáº§u":12601,"Cá»±u":12602,"umpur":12603,"ĠBrand":12604,"ĠCop":12605,"ãģ§":12606,"Ġæ³ķPhÃ¡p":12607,"Ġthem":12608,"ĠNP":12609,"Ġkháº£m":12610,"Ġoliu":12611,"ĠLAO":12612,"ĠViglacera":12613,"ĠloÃ¡ng":12614,"ĠCÆł":12615,"ĠLÃŃ":12616,"Ġniu":12617,"ĠGiu":12618,"ĠCháº£i":12619,"Apple":12620,"ï¼®ï¼¡":12621,"ĠKiáº¿p":12622,"âĢĿ(":12623,"Ġæ°":12624,"ĠQualcomm":12625,"ĠMassage":12626,"ÄĲÃ´":12627,"bs":12628,"Ġbá»īm":12629,"ĠÄĳáº£nh":12630,"ĠGet":12631,"ThÃ¬":12632,"ences":12633,"Cáº¥u":12634,"emb":12635,"á»ĺT":12636,"ization":12637,"emen":12638,"ĠVoice":12639,"nháºŃn":12640,"GiÃły":12641,"ĠStandard":12642,"ĠBÃłu":12643,"ĠFi":12644,"Ġë":12645,"ĠChá»īnh":12646,"RÆ°á»£u":12647,"æĪ":12648,"Ġngá»į":12649,"Ġä½ľ":12650,"ĠThÃ¡o":12651,"Tiá»ĩn":12652,"ili":12653,"ĠBá»Ĺng":12654,"chá»ĳng":12655,"put":12656,"æī":12657,"eople":12658,"Ġä»Ĭkim":12659,"Ġuric":12660,"ĠÄĲá»£i":12661,"Ġnhá»į":12662,"Ġ119":12663,"270":12664,"ĠMoham":12665,"850":12666,"ĠlÃ©p":12667,"ĠTÃĢI":12668,"ĠVietsub":12669,"ĠCHI":12670,"ĠMcC":12671,"chez":12672,"ĠthÃ²":12673,"ĠKáº¾":12674,"ĠED":12675,"document":12676,"ĠKDC":12677,"ĠKhÃ´n":12678,"ĠForbes":12679,"ball":12680,"NHNN":12681,"NLÄĲO":12682,"cháº¿t":12683,"ĠIb":12684,"ĠUÃ´ng":12685,"Ġèº«thÃ¢n":12686,"--------------------------------":12687,"XP":12688,"Ġ330":12689,"ĠLÅ©ng":12690,"ĠèĻķxá»©":12691,"No":12692,"Ġåľ¨táº¡i":12693,"ĠExplorer":12694,"phÃª":12695,"Ká»·":12696,"ĠBá»ĳi":12697,"rin":12698,"ĠKÃ¨m":12699,"job":12700,"ĠNang":12701,"ĠDá»ĬCH":12702,"ĠxuÃ´":12703,"Ġbá»Ł":12704,"Ãµn":12705,"Ġvá»ĭn":12706,"áº¢M":12707,"ĠHealth":12708,"ĠSofa":12709,"ĠCos":12710,"Ġgáº¥c":12711,"ĠYe":12712,"ĠVá»±c":12713,"Ġtype":12714,"Äĳáº¡t":12715,"ĠDÃ¢u":12716,"rÃª":12717,"Ġhong":12718,"usic":12719,"Ġeng":12720,"}.":12721,"ĠVietNam":12722,"ĠQueen":12723,"zb":12724,"toy":12725,"LÆ°Æ¡ng":12726,"Ġ165":12727,"ĠOri":12728,"ĠKhoÃ¡ng":12729,"ful":12730,"ĠVÄĲQG":12731,"ĠHitachi":12732,"Ġ122":12733,"Ġnáº¹p":12734,"ĠGDÄĲT":12735,"ĠQui":12736,"ĠVinaPhone":12737,"ĠTrÆ°Æ¡":12738,"ĠTHÆ¯ÆłNG":12739,"rise":12740,"Ġä½ľtÃ¡c":12741,"Max":12742,"ĠnhÃ£o":12743,"ĠLegend":12744,"Ġbá»įng":12745,"áºłT":12746,"ĠNÆ¯á»ļC":12747,"KhÃ¡nh":12748,"máº¥t":12749,"Ġ1967":12750,"ĠJustin":12751,"ĠMul":12752,"ĠToáº£n":12753,"hog":12754,"»kh":12755,"Ġgiá»¡n":12756,"ĠçĦ¶":12757,"ĠCháº£":12758,"Ġfax":12759,"NO":12760,"Ġkháº¥t":12761,"Ġed":12762,"UYá»Ĩ":12763,"ĠTháºŃn":12764,"ĠEar":12765,"ÃģNH":12766,"ĠEM":12767,"evin":12768,"ĠJav":12769,"ucation":12770,"ïĥ":12771,"290":12772,"Ġuá»ķng":12773,"ĠsáºŃm":12774,"ĠMill":12775,"á»İ":12776,"One":12777,"103":12778,"lla":12779,"topic":12780,"ĠTony":12781,"ĠSports":12782,"ĠngÃ¡c":12783,"ĠTI":12784,"ĠNou":12785,"ĠKuala":12786,"ĠMary":12787,"Ġláº»o":12788,"ONE":12789,"Ġster":12790,"Cloud":12791,"food":12792,"ĠHáº¡c":12793,"ĠMain":12794,"ĠFab":12795,"ĠIBM":12796,"usta":12797,"Ð¾ÑĤ":12798,"ĠDU":12799,"Éĳ":12800,"ĠBáºŃt":12801,"ĠManila":12802,"YÃªn":12803,"ĠLumpur":12804,"333":12805,"Ġ(âĢľ":12806,"oker":12807,"ĠAy":12808,"ĠLes":12809,"Ġ0907":12810,"ĠcÃ²ng":12811,"ĠÄĲÃłng":12812,"ĠBund":12813,"ĠngÃ²":12814,"ĠLady":12815,"omi":12816,"ĠÃģN":12817,"Ġdoc":12818,"ĠTá»ª":12819,"tiáº¿p":12820,"Ġå¥":12821,"ĠlÃło":12822,"oration":12823,"ĠçĦ¶nhiÃªn":12824,"ĠLake":12825,"lÃª":12826,"ĠlÆ°á»£m":12827,"HQ":12828,"ĠQuyáº¿n":12829,"ĠRog":12830,"ĠngÃ³c":12831,"ĠChÃ³":12832,"ĠHouston":12833,"Ġloang":12834,"ĠAL":12835,"ĠAction":12836,"tric":12837,"Ġ097":12838,"Ġchong":12839,"ĠDiá»ĩt":12840,"ĠAo":12841,"ĠHÆ°á»Łng":12842,"ĠKD":12843,"ĠDHA":12844,"nhan":12845,"ĠWood":12846,"Me":12847,"tiá»ĥu":12848,"ĠNá»¥":12849,"ĀĀĀĀĀĀĀĀĀĀĀĀĀĀĀĀĀĀĀĀĀĀĀĀĀĀĀĀĀĀĀĀĀĀĀĀĀĀĀĀĀĀĀĀĀĀĀĀĀĀĀĀĀĀĀĀĀĀĀĀĀĀĀĀĀĀĀĀĀĀĀĀĀĀĀĀĀĀĀĀĀĀĀĀĀĀĀĀĀĀĀĀĀĀĀĀĀĀĀĀĀĀĀĀĀĀĀĀĀĀĀĀĀĀĀĀĀĀĀĀĀĀĀĀĀĀĀĀĀĀĀĀĀĀĀĀĀĀĀĀĀĀĀĀĀĀĀĀĀĀĀĀĀĀĀĀĀĀĀĀĀĀĀĀĀĀĀĀĀĀĀĀĀĀĀĀĀĀĀĀĀĀĀĀĀĀĀĀĀĀĀĀĀĀĀĀĀĀĀĀĀĀĀĀĀĀĀĀĀĀĀĀĀĀĀĀĀĀĀĀĀĀĀĀĀĀĀĀĀĀĀĀĀĀĀĀĀĀĀĀĀĀĀĀĀĀĀĀĀĀĀĀĀĀĀĀĀĀĀĀĀĀĀĀĀĀĀĀĀĀĀĀĀĀĀĀĀĀĀĀĀĀĀĀĀĀĀĀĀĀĀĀĀĀĀĀĀĀĀĀĀĀĀĀĀĀĀĀĀĀĀĀĀĀĀĀĀĀĀĀĀĀĀĀĀĀĀĀĀĀĀĀĀĀĀĀĀĀĀĀĀĀĀĀĀĀĀĀĀĀĀĀĀĀĀĀĀĀĀĀĀĀĀĀĀĀĀĀĀĀĀĀĀĀĀĀĀĀĀĀĀĀĀĀĀĀĀĀĀĀĀĀĀĀĀĀĀĀĀĀĀĀĀĀĀĀĀĀĀĀĀĀĀĀĀĀĀĀĀĀĀĀĀĀĀĀĀĀĀĀĀĀĀĀĀĀĀĀĀĀĀĀĀĀĀĀĀĀĀĀĀĀĀĀĀĀĀĀĀĀĀĀĀĀĀĀĀĀĀĀĀĀĀĀĀĀĀĀĀĀĀĀĀĀĀĀĀĀĀĀĀĀĀĀĀĀĀĀĀĀĀĀĀĀĀĀĀĀĀĀĀĀĀĀĀĀĀĀĀĀĀĀĀĀĀĀĀĀĀĀĀĀĀĀĀĀĀĀĀĀĀĀĀĀĀĀĀĀĀĀĀĀĀĀĀĀĀĀĀĀĀĀĀĀĀĀĀĀĀĀĀĀĀĀĀĀĀĀĀĀĀĀĀĀĀĀĀĀĀĀĀĀĀĀĀĀĀĀĀĀĀĀĀĀĀĀĀĀĀĀĀĀĀĀĀĀĀĀĀĀĀĀĀĀĀĀĀĀĀĀĀĀĀĀĀĀĀĀĀĀĀĀĀĀĀĀĀĀĀĀĀĀĀĀĀĀĀĀĀĀĀĀĀĀĀĀĀĀĀĀĀĀĀĀĀĀĀĀĀĀĀĀĀĀĀĀĀĀĀĀĀĀĀĀĀĀĀĀĀĀĀĀĀĀĀĀĀĀĀĀĀĀĀĀĀĀĀĀĀĀĀĀĀĀĀĀĀĀĀĀĀĀĀĀĀĀĀĀĀĀĀĀĀĀĀĀĀĀĀĀĀĀĀĀĀĀĀĀĀĀĀĀĀĀĀĀĀĀĀĀĀĀĀĀĀĀĀĀĀĀĀĀĀĀĀĀĀĀĀĀĀĀĀĀĀĀĀĀĀĀĀĀĀĀĀĀĀĀĀĀĀĀĀĀĀĀĀĀĀĀĀĀĀĀĀĀĀĀĀĀĀĀĀĀĀĀĀĀĀĀĀĀĀĀĀĀĀĀĀĀĀĀĀĀĀĀĀĀĀĀĀĀĀĀĀĀĀĀĀĀĀĀĀĀĀĀĀĀĀĀĀĀĀĀĀĀĀĀĀĀĀĀĀĀĀĀĀĀĀĀĀĀĀĀĀĀĀĀĀĀĀĀĀĀĀĀĀĀĀĀĀĀĀĀĀĀĀĀĀĀĀĀĀĀĀĀĀĀĀĀĀĀĀĀĀĀĀĀĀĀĀĀĀĀĀĀĀĀĀĀĀĀĀĀĀĀĀĀĀĀĀĀĀĀĀĀĀĀĀĀĀĀĀĀĀĀĀĀĀĀĀĀĀĀĀĀĀĀĀĀĀĀĀĀĀĀĀĀĀĀĀĀĀĀĀĀĀĀĀĀĀĀĀĀĀĀĀĀĀĀĀĀĀĀĀĀĀĀĀĀĀĀĀĀĀĀĀĀĀĀĀĀĀĀĀĀĀĀĀĀĀĀĀĀĀĀĀĀĀĀĀĀĀĀĀĀĀĀĀĀĀĀĀĀĀĀĀĀĀĀĀĀĀĀĀĀĀĀĀĀĀĀĀĀĀĀĀĀĀĀĀĀĀĀĀĀĀĀĀĀĀĀĀĀĀĀĀĀĀĀĀĀĀĀĀĀĀĀĀĀĀĀĀĀĀĀĀĀĀĀĀĀĀĀĀĀĀĀĀĀĀĀĀĀĀĀĀĀĀĀĀĀĀĀĀĀĀĀĀĀĀĀĀĀĀĀĀĀĀĀĀĀĀĀĀĀĀĀĀĀĀĀĀĀĀĀĀĀĀĀĀĀĀĀĀĀĀĀĀĀĀĀĀĀĀĀĀĀĀĀĀĀĀĀĀĀĀĀĀĀĀĀĀĀĀĀĀĀĀĀĀĀĀĀĀĀĀĀĀĀĀĀĀĀĀĀĀĀĀĀĀĀĀĀĀĀĀĀĀĀĀĀĀĀĀĀĀĀĀĀĀĀĀĀĀĀĀĀĀĀĀĀĀĀĀĀĀĀĀĀĀĀĀĀĀĀĀĀĀĀĀĀĀĀĀĀĀĀĀĀĀĀĀĀĀĀĀĀĀĀĀĀĀĀĀĀĀĀĀĀĀĀĀĀĀĀĀĀĀĀĀĀĀĀĀĀĀĀĀĀĀĀĀĀĀĀĀĀĀĀĀĀĀĀĀĀĀĀĀĀĀĀĀĀĀĀĀĀĀĀĀĀĀĀĀĀĀĀĀĀĀĀĀĀĀĀĀĀĀĀĀĀĀĀĀĀĀĀĀĀĀĀĀĀĀĀĀĀĀĀĀĀĀĀĀĀĀĀĀĀĀĀĀĀĀĀĀĀĀĀĀĀĀĀĀĀĀĀĀĀĀĀĀĀĀĀĀĀĀĀĀĀĀĀĀĀĀĀĀĀĀĀĀĀĀĀĀĀĀĀĀĀĀĀĀĀĀĀĀĀĀĀĀĀĀĀĀĀĀĀĀĀĀĀĀĀĀĀĀĀĀĀĀĀĀĀĀĀĀĀĀĀĀĀĀĀĀĀĀĀĀĀĀĀĀĀĀĀĀĀĀĀĀĀĀĀĀĀĀĀĀĀĀĀĀĀĀĀĀĀĀĀĀĀĀĀĀĀĀĀĀĀĀĀĀĀĀĀĀĀĀĀĀĀĀĀĀĀĀĀĀĀĀĀĀĀĀĀĀĀĀĀĀĀĀĀĀĀĀĀĀĀĀĀĀĀĀĀĀĀĀĀĀĀĀĀĀĀĀĀĀĀĀĀĀĀĀĀĀĀĀĀĀĀĀĀĀĀĀĀĀĀĀĀĀĀĀĀĀĀĀĀĀĀĀĀĀĀĀĀĀĀĀĀĀĀĀĀĀĀĀĀĀĀĀĀĀĀĀĀĀĀĀĀĀĀĀĀĀĀĀĀĀĀĀĀĀĀĀĀĀĀĀĀĀĀĀĀĀĀĀĀĀĀĀĀĀĀĀĀĀĀĀĀĀĀĀĀĀĀĀĀĀĀĀĀĀĀĀĀĀĀĀĀĀĀĀĀĀĀĀĀĀĀĀĀĀĀĀĀĀĀĀĀĀĀĀĀĀĀĀĀĀĀĀĀĀĀĀĀĀĀĀĀĀĀĀĀĀĀĀĀĀĀĀĀĀĀĀĀĀĀĀĀĀĀĀĀĀĀĀĀĀĀĀĀĀĀĀĀĀĀĀĀĀĀĀĀĀĀĀĀĀĀĀĀĀĀĀĀĀĀĀĀĀĀĀĀĀĀĀĀĀĀĀĀĀĀĀĀĀĀĀĀĀĀĀĀĀĀĀĀĀĀĀĀĀĀĀĀĀĀĀĀĀĀĀĀĀĀĀĀĀĀĀĀĀĀĀĀĀĀĀĀĀĀĀĀĀĀĀĀĀĀĀĀĀĀĀĀĀĀĀĀĀĀĀĀĀĀĀĀĀĀĀĀĀĀĀĀĀĀĀĀĀĀĀĀĀĀĀĀĀĀĀĀĀĀĀĀĀĀĀĀĀĀĀĀĀĀĀĀĀĀĀĀĀĀĀĀĀĀĀĀĀĀĀĀĀĀĀĀĀĀĀĀĀĀĀĀĀĀĀĀĀĀĀĀĀĀĀĀĀĀĀĀĀĀ":12850,"¥nháºŃt":12851,"ĠCHá»¦":12852,"door":12853,"255":12854,"ĠSearch":12855,"Ġè¨Ģ":12856,"¯ng":12857,"ĠFar":12858,"Coin":12859,"ĠgÃ£i":12860,"vÃ¹ng":12861,"ĠLM":12862,"Ġdiáº¿p":12863,"ĠTae":12864,"tá»ĳi":12865,"ĠFashion":12866,"EV":12867,"ĠGL":12868,"ĠEss":12869,"jan":12870,"Ġbig":12871,"Ġlá»±":12872,"ĠVip":12873,"Ġxoan":12874,"ĠBáº¥m":12875,"ĠGas":12876,"dien":12877,"fox":12878,"anta":12879,"Ġäº¦":12880,"Bá»įn":12881,"ĠRover":12882,"å¹´":12883,"Ġbaby":12884,"á»ĺC":12885,"diá»ĩc":12886,"ĠBoston":12887,"ĠæĹ¥nháºŃt":12888,"ĠLar":12889,"Ġsch":12890,"wagen":12891,"ĠLá»ĳi":12892,"Ġdiá»ĩp":12893,"ĠlÃºm":12894,"ĠRF":12895,"pot":12896,"vet":12897,"Ġ127":12898,"UI":12899,"Ð¾Ð½":12900,"Ġket":12901,"ÄĲen":12902,"káº»":12903,"Ġxáº»o":12904,"ĠBag":12905,"ĠSett":12906,"gÃ¢y":12907,"ĠChuá»Ļt":12908,"website":12909,"iro":12910,"ĠRooney":12911,"Ġsm":12912,"Ġpp":12913,"Go":12914,"ĠPhÃ¢":12915,"ĠRic":12916,"Ġlap":12917,"ĠCÆ°á»Ľi":12918,"ĠBio":12919,"ĠÄĲá»£t":12920,"ĠAsh":12921,"ĠthÃ¢y":12922,"111":12923,"Ġäº¦diá»ĩc":12924,"ewoo":12925,"ĠTrá»įn":12926,"Website":12927,"youtube":12928,"090":12929,"weet":12930,"Ġchon":12931,"Ġcock":12932,"Ġdomain":12933,"aii":12934,"Ġriáº¿t":12935,"ĠWoo":12936,"chan":12937,"Ð¸Ñı":12938,"Br":12939,"wap":12940,"wich":12941,"Ġgalaxy":12942,"ĠKhinh":12943,"ĠNigeria":12944,"ĠÃ©":12945,"ĠthÆ¡i":12946,"1979":12947,"email":12948,"âĢĿ!":12949,"Ġvinhomes":12950,"Ġnáº§n":12951,"dinh":12952,"Ġháº¡c":12953,"ĠUkraina":12954,"ĠChÃ¡y":12955,"ĠÆ¯ng":12956,"ature":12957,"vas":12958,"táº¡o":12959,"à¦":12960,"Ġxáº¯t":12961,"âĢ³":12962,"azer":12963,"lem":12964,"ĠPeru":12965,"ĠMÃły":12966,"168":12967,"ĠNá»ĵi":12968,"PGS":12969,"ĠLittle":12970,"Ġchuá»ĵn":12971,"ĠxÃ¢u":12972,"á»±t":12973,"\";":12974,"oku":12975,"ç½ĳ":12976,"ãģª":12977,"Ã¸":12978,"mai":12979,"ĠGor":12980,"EST":12981,"ĠMorning":12982,"CNV":12983,"Ġthinh":12984,"ChÃ¢u":12985,"má»Ľi":12986,"chÃŃ":12987,"miá»ħn":12988,"ĠÄĲCS":12989,"ĠTTHC":12990,"Tech":12991,"Ġradar":12992,"lop":12993,"ĠNSNN":12994,"Ġè¨ĢngÃ´n":12995,"Táº§ng":12996,"112":12997,"chiáº¿c":12998,"MÃ´i":12999,"idae":13000,"Ġsoc":13001,"dá»¯":13002,"CÃłng":13003,"ĠGÃ¢y":13004,"ĠÃ³i":13005,"PPO":13006,"cÃ¢u":13007,"bá»ı":13008,"Īh":13009,"ĠuÃ´":13010,"ĠTáº£o":13011,"Ġcá»ıi":13012,"ĠÄĲá»©a":13013,"ĠHR":13014,"ĠMá»ı":13015,"kaku":13016,"ĠhÃ¹m":13017,"ĠÃģc":13018,"ĠRome":13019,"ĠXHCN":13020,"ĠsÃ¡":13021,"ĠNá»ĳi":13022,"ĠWales":13023,"ĠhÃłu":13024,"Ġ145":13025,"ĠTTXVN":13026,"ĠchiÃªng":13027,"mond":13028,"Ġran":13029,"ĠMá»ļI":13030,"ĠnÃºp":13031,"ĠMÃ¡":13032,"Ġä¸ĸ":13033,"ĠTCN":13034,"dt":13035,"nha":13036,"ĠHaz":13037,"ĠMarina":13038,"ĠTháº£m":13039,"Ãķ":13040,"ãģ¦":13041,"ĠKhuáº¥t":13042,"Ġmá»Ńa":13043,"viá»ĩc":13044,"Ġláº©m":13045,"Ġ0906":13046,"ĠVIÃĬN":13047,"World":13048,"home":13049,"ĠçŃī":13050,"Ġåı¯":13051,"ĠXÃª":13052,"ĠHari":13053,"color":13054,"KA":13055,"Ä±":13056,"ĠÄĳáº£n":13057,"Ġgara":13058,"Ġcs":13059,"ĠTHANH":13060,"ello":13061,"ĠOP":13062,"ĠMenu":13063,"ĠBand":13064,"á»ĲT":13065,"esl":13066,"ĠAnna":13067,"fit":13068,"ĠAsian":13069,"med":13070,"friday":13071,"Ùĩ":13072,"ĠPRO":13073,"Pin":13074,"Se":13075,"330":13076,"enue":13077,"ãĥ³":13078,"Ġç©º":13079,"onder":13080,"ĠLotus":13081,"}}":13082,"ĠæĪĲ":13083,"ben":13084,"pto":13085,"Ġreading":13086,"Vitamin":13087,"ĠXIII":13088,"ĠJobs":13089,"ĠåĮ":13090,"Ġ1966":13091,"ĠNgÆ°ng":13092,"ĠProject":13093,"rum":13094,"Cu":13095,"UYá»ĢN":13096,"ĠLeon":13097,"older":13098,"Ġçİ":13099,"ting":13100,"ĠkhÆ°u":13101,"kswagen":13102,"ĠåĽł":13103,"ĠÄĳiáº¿m":13104,"Ġcontent":13105,"ĠhÃ¡ng":13106,"Ġkiáº¿ng":13107,"380":13108,"ĠGai":13109,"time":13110,"ĠchÃŃt":13111,"104":13112,"ÄĲÆ°Æ¡ng":13113,"ngay":13114,"Ġcá»įp":13115,"jin":13116,"By":13117,"±t":13118,"thÃŃch":13119,"oop":13120,"Sport":13121,"BiÃªn":13122,"äºº":13123,"ĠArena":13124,"LD":13125,"ĠTiá»ĩm":13126,"106":13127,"Ġtien":13128,"ĠPhiÃªu":13129,"cÃ¡nh":13130,"cháº¡y":13131,"ĠEthereum":13132,"ĠHSSV":13133,"232":13134,"iola":13135,"ĠInverter":13136,"lean":13137,"Ã§":13138,"ized":13139,"ĠlÃ³ng":13140,"ĠRoad":13141,"ĠSLNA":13142,"Jet":13143,"eln":13144,"toÃłn":13145,"Ġher":13146,"je":13147,"Ġbiáº¿c":13148,"èµ":13149,"Emdep":13150,"ĠBenz":13151,"tainment":13152,"ÃĶi":13153,"char":13154,"lÄĥng":13155,"ĠXNK":13156,"Ġngá»£m":13157,"ĠMÃ¡t":13158,"Chá»£":13159,"135":13160,"onto":13161,"118":13162,"ĠVHTT":13163,"Ná»ķi":13164,"ĠPHÃĴNG":13165,"CCI":13166,"ĠKhe":13167,"Viáº¿t":13168,"ĠBoeing":13169,"raw":13170,"ĠGiÆ°á»Ŀng":13171,"ĠÃ´xy":13172,"ĠCÆ°á»Ŀi":13173,"ethyl":13174,"Ġ121":13175,"Ġhiu":13176,"ikip":13177,"DÄ©":13178,"attan":13179,"Gá»Ńi":13180,"á»¬A":13181,"Ġlipid":13182,"Ġ***":13183,"Ġsn":13184,"ĠKINH":13185,"Ġåı¯kháº£":13186,"ĠJones":13187,"sim":13188,"bor":13189,"Ġmobi":13190,"ĠZid":13191,"ĠThiá»ģu":13192,"Ġmaster":13193,"Ġrá»¥t":13194,"láº¡c":13195,"ĠHÃĮNH":13196,"Khai":13197,"ãĤĭ":13198,"bang":13199,"ĠxÃ¨o":13200,"ĠKHCN":13201,"Ġï£":13202,"iev":13203,"Ġpark":13204,"ĠNot":13205,"ãģŁ":13206,"Ġcry":13207,"Ġå¤©thiÃªn":13208,"Ġdet":13209,"Rau":13210,"ĠPlan":13211,"ĠEB":13212,"It":13213,"ĠThoÃ¡t":13214,"hini":13215,"Ġrel":13216,"ĠEb":13217,"Point":13218,"ecta":13219,"ĠkhÃ³m":13220,"ĠForum":13221,"ĠEva":13222,"ĠOnlinefriday":13223,"ĠDrive":13224,"ĠGab":13225,"ĠlÃŃu":13226,"ĠAdam":13227,"ĠKids":13228,"Ġç©ºkhÃ´ng":13229,"ĠPic":13230,"ĠOng":13231,"Ġgly":13232,"imbank":13233,"ĠnguÃ´i":13234,"Ġsat":13235,"NDN":13236,"ĠQuáº¥t":13237,"Ġ:))":13238,"Ġxiáº¿c":13239,"VÃµ":13240,"erto":13241,"Bar":13242,"Ġnháº¡o":13243,"TrÃ²":13244,"news":13245,"ĠbÆ°":13246,"Ġ0901":13247,"Cáº·p":13248,"NgÃ´":13249,"113":13250,"á»¡i":13251,"Mac":13252,"ĠtrÃ³t":13253,"Ġsáº¥p":13254,"ĠJon":13255,"ANTD":13256,"Suá»ĳt":13257,"wang":13258,"point":13259,"ĠTráº£ng":13260,"ĠTechcombank":13261,"amic":13262,"Toy":13263,"ĠCarol":13264,"ä¼":13265,"Ġ1964":13266,"Ġhomestay":13267,"ĠTáº¡m":13268,"chá»©ng":13269,"cs":13270,"Ġná»ĭnh":13271,"įtiá»ģn":13272,"Ġ132":13273,"ĠZin":13274,"ĠBDS":13275,"Ġmá»ģn":13276,"rick":13277,"ĠBáº¯n":13278,"Ġtur":13279,"ĠScotland":13280,"ĠHiÃª":13281,"ĠæĿ":13282,"ĠchÃ£i":13283,"El":13284,"Ġfolic":13285,"hÃ³a":13286,"ICO":13287,"Quáº¡t":13288,"lá»¥c":13289,"OSE":13290,"ĠKhoan":13291,"ĠCambridge":13292,"Ġvá»©c":13293,"ĠsÃ¡n":13294,"ĠSanchez":13295,"eway":13296,"Ġquáº¹t":13297,"ĠVáº½":13298,"ĠVinFast":13299,"ĠLogo":13300,"ĠWell":13301,"xb":13302,"ĠSÃ´":13303,"ĠMÃ£n":13304,"VL":13305,"Ġbot":13306,"BXD":13307,"cháº³ng":13308,"ĠLet":13309,"Ġtren":13310,"ĠJeff":13311,"abeth":13312,"Ġhuyá»ħn":13313,"ĠTrá»©ng":13314,"Ġç¨":13315,"779":13316,"ĠWestern":13317,"Ġliveshow":13318,"ĠæĪĲthÃłnh":13319,"fol":13320,"Mbps":13321,"Ġngoai":13322,"ÄĲá»ķi":13323,"Sáº¯c":13324,"ĠCá»Ķ":13325,"ãģĻ":13326,"ïĤ":13327,"ĠInvest":13328,"Ġ1971":13329,"ĠSom":13330,"Biá»ĥn":13331,"máº·c":13332,"ĠåĽłnhÃ¢n":13333,"sex":13334,"Thá»«a":13335,"aska":13336,"ÆłI":13337,"Son":13338,"ĠLá»«ng":13339,"950":13340,"Ġum":13341,"ĠÃ²a":13342,"Suc":13343,"Ġláº¡p":13344,"ities":13345,"upload":13346,"Ġtáº¯p":13347,"hing":13348,"Ġglucose":13349,"ĠÄĲÃŃnh":13350,"ĠConnect":13351,"Ġåīįtiá»ģn":13352,"ĠThy":13353,"cá»¥":13354,"chÃº":13355,"ĠSÄĲT":13356,"Ãįt":13357,"ĠVegas":13358,"ĠHye":13359,"tiáº¿n":13360,"ĠDK":13361,"ĠLÃłn":13362,"ĠDá»«a":13363,"ĠSáº¡c":13364,"ÑĦ":13365,"ĠAmerica":13366,"ĠNgon":13367,"Thá»Ń":13368,"cell":13369,"ĠçŃīÄĳáº³ng":13370,"ĠBST":13371,"Ġnháº·n":13372,"ĠBour":13373,"Lan":13374,"Giang":13375,"Suy":13376,"kk":13377,"ĠRy":13378,"ĠForex":13379,"BG":13380,"ĠBlues":13381,"ĠKorea":13382,"Ġ01212":13383,"Ġland":13384,"HÃ³a":13385,"åıĳ":13386,"fess":13387,"Táº§n":13388,"thor":13389,"ĠCHÃļA":13390,"Ġtrá»©":13391,"ĠQUY":13392,"ĠZenfone":13393,"Ġ138":13394,"Ġ1977":13395,"dÆ°á»Ľi":13396,"ĠSÃ¹ng":13397,"ĠUs":13398,"ĠkhÃłn":13399,"ĠCHáº¤T":13400,"ascript":13401,"ĠIR":13402,"ĠmÃ³":13403,"áºłCH":13404,"ĠHoáº¯c":13405,"Tim":13406,"Ġvá»ĵng":13407,"ĠTen":13408,"olin":13409,"ä¸Ńå½©ç¥¨":13410,"aur":13411,"ĠTrip":13412,"ĠYour":13413,"Ġnguá»Ŀi":13414,"ĠâĿ":13415,"åĬ":13416,"AF":13417,"ibe":13418,"ampton":13419,"ĠFast":13420,"ĠKir":13421,"Ġåľ°Äĳá»ĭa":13422,"arez":13423,"ĠEverest":13424,"GC":13425,"ĠÄĲáº§y":13426,"táº¡m":13427,"ĠCrystal":13428,"ĠJess":13429,"arin":13430,"Ġthoáº¡t":13431,"Ġnáº¥p":13432,"ĠthÃły":13433,"len":13434,"Ġdáº¥p":13435,"ĠâĢŀ":13436,"MU":13437,"Ġgáº¥m":13438,"ĠXIX":13439,"Ð·":13440,"Ġá»·":13441,"ohydr":13442,"pes":13443,"Mart":13444,"truyá»ģn":13445,"Play":13446,"ĠMem":13447,"Ġ:)":13448,"elin":13449,"ĠHee":13450,"ĠNÃ©t":13451,"ĠMN":13452,"ikipedia":13453,"ĠSor":13454,"Âµ":13455,"Trá»įng":13456,"kt":13457,"ĠØ§ÙĦ":13458,"sÃ¡ng":13459,"ĠLor":13460,"quÃ¡n":13461,"Ġbas":13462,"vá»«a":13463,"iend":13464,"ĠSwan":13465,"ando":13466,"ĠnhÃ²a":13467,"107":13468,"ĠTHIáº¾T":13469,"moi":13470,"ĠFirst":13471,"ĠRáºº":13472,"Ġedit":13473,"ĠTphcm":13474,"inson":13475,"Ġthá»ĩ":13476,"ĠXingfa":13477,"phÃ¡":13478,"ĠBÄĥ":13479,"ĠâĪ":13480,"357357":13481,"Ġtá»Łm":13482,"ĠMp":13483,"Ġ01212357357":13484,"ĠlÃ¹m":13485,"ĠInf":13486,"Ġbet":13487,"ĠRan":13488,"sáº¯c":13489,"ĠUnder":13490,"Ġnua":13491,"227":13492,"raham":13493,"ÄĳÃ´":13494,"Ġ124":13495,"ĠSÃło":13496,"1969":13497,"åº":13498,"ĠnhÃłu":13499,"ĠHosting":13500,"Ġçī":13501,"Ġol":13502,"Ġbáº¿t":13503,"Ġsur":13504,"Â¡":13505,"ĠÂ°":13506,"ChÆ¡i":13507,"ÃĵNG":13508,"ĠQQ":13509,"ĠCQ":13510,"ãģ¨":13511,"1997":13512,"Ġvat":13513,"Mr":13514,"lá»Ľp":13515,"Ġcacbon":13516,"ĠÄĳÃ¯":13517,"ĠEric":13518,"ĠBright":13519,"ĠdÃ¡t":13520,"ĠHÃĵA":13521,"ĠFerrari":13522,"ĠTes":13523,"ĠgiÃ´":13524,"ĠlÃ¬nh":13525,"Ĥ¬":13526,"ĳngÃ£":13527,"ĠThÃ¹":13528,"sol":13529,"Media":13530,"Ġelec":13531,"âĢİ":13532,"Ġzoom":13533,"ĠDown":13534,"ĠFuk":13535,"nn":13536,"Facebook":13537,"esa":13538,"490":13539,"1987":13540,"ÄĳÃ³":13541,"ĠTáº¯m":13542,"orp":13543,"Ġtieng":13544,"ĠBÆ°á»Łi":13545,"ĠEC":13546,"ĠkhÆ¡":13547,"ship":13548,"har":13549,"ĠTháº¯m":13550,"Ġnguyen":13551,"Ġcell":13552,"ĠThuá»µ":13553,"âĢĶâĢĶâĢĶâĢĶ":13554,"Bay":13555,"onex":13556,"chim":13557,"oko":13558,"há»ĵ":13559,"Ġnáº·c":13560,"ĠdiÃªm":13561,"ĠKenn":13562,"ĠMonaco":13563,"Ġghim":13564,"ĠFant":13565,"Ġepoxy":13566,"ĠFuji":13567,"ij":13568,"ĠGang":13569,"há»Ĺ":13570,"ario":13571,"nic":13572,"ĠHand":13573,"Ġpizza":13574,"ĠgiÃªng":13575,"athi":13576,"Ġphotoshop":13577,"Æ¯á»ļNG":13578,"cáº£nh":13579,"ĠValencia":13580,"1995":13581,"Previous":13582,"ĠCell":13583,"ĠPháº¡t":13584,"ĠLite":13585,"agi":13586,"Ġtruong":13587,"ĠSeason":13588,"ĠNep":13589,"ĠBab":13590,"Ìĥ.":13591,"Ġtrá»Ľ":13592,"ĠKáº¾T":13593,"Ġ1946":13594,"ĠLT":13595,"ĠGuardiola":13596,"Náº¥m":13597,"Ġláº£":13598,"gb":13599,"ĠNá»£":13600,"ĠAqua":13601,"ĠPháº£":13602,"ĠYoo":13603,"Ġ133":13604,"ĠMagic":13605,"ĠColorado":13606,"Ġbien":13607,"ĠZidane":13608,"ĠHÆ°u":13609,"istr":13610,"ĠhÃ£n":13611,"Ġpháº¿t":13612,"Ġsáº³n":13613,"máº«u":13614,"Ĥvá»ĭ":13615,"orth":13616,"Ġá»Ĳp":13617,"Ngá»ĵi":13618,"ĠMáº¡n":13619,"ĠTRANG":13620,"Lai":13621,"Ġ888":13622,"Ġcá»¯":13623,"ĠHero":13624,"Ġngá»Ľ":13625,"ĠIll":13626,"ĠDÃ£":13627,"FS":13628,"ĠæĪĳngÃ£":13629,"adi":13630,"rie":13631,"mb":13632,"480":13633,"Ġmodem":13634,"ĠMand":13635,"ĠRuby":13636,"pin":13637,"php":13638,"Ġ1962":13639,"ĠAvenue":13640,"âľħ":13641,"ĠÄĲV":13642,"Â§":13643,"Ġ×":13644,"ĠtrÃ¡o":13645,"LÆ°á»£ng":13646,"Bá»Ļt":13647,"ĠQUAN":13648,"ĠActive":13649,"aire":13650,"ĠMW":13651,"ĠRÃ´":13652,"Ġcá»Ļm":13653,"ĠMDF":13654,"Real":13655,"ĠDuyá»ĩt":13656,"ĠVIET":13657,"Ġact":13658,"ĠSpeed":13659,"ĠHunter":13660,"LuáºŃn":13661,"ĠEverton":13662,"Ġè¬Ĥvá»ĭ":13663,"Gáº·p":13664,"ĠrÃ´m":13665,"§tÃ¡nh":13666,"Ġç¬":13667,"ĠÄĲá»ĵi":13668,"ĠShophouse":13669,"Ġgháº»":13670,"bie":13671,"ĠÃĲÃ³":13672,"sÃ¡t":13673,"âľĶ":13674,"ĠæĢ§tÃ¡nh":13675,"Ġduc":13676,"ĠGran":13677,"ĠrÃ¬a":13678,"ĠÄĲá»Ģ":13679,"ĠTRÃĮNH":13680,"ĠRain":13681,"vices":13682,"ĠPier":13683,"otal":13684,"Ġdá»Ĺi":13685,"âĢĿ...":13686,"ÄĲÃ¡":13687,"ĠTG":13688,"Äĳá»ĩ":13689,"ĠEURO":13690,"diá»ĩn":13691,"tedothi":13692,"Ð¾Ð¹":13693,"ios":13694,"Ġváº§ng":13695,"ĠFound":13696,"ĠTurbo":13697,"ĠInt":13698,"!)":13699,"OW":13700,"athan":13701,"ĠEducation":13702,"ĠCáº¥n":13703,"ĠTÃłng":13704,"ĠRadio":13705,"ĠBridge":13706,"ĠKhas":13707,"Ġstarted":13708,"ĠsoÃ¡i":13709,"Ġ290":13710,"ĠPad":13711,"Ung":13712,"Ġ1956":13713,"Ãľ":13714,"Ġâŀ":13715,"Thá»§y":13716,"Ġkit":13717,"TTLT":13718,"This":13719,"Ġ225":13720,"ĠKam":13721,"Ġgáº·m":13722,"301":13723,"ĠSÃºng":13724,"SÃłi":13725,"ĠÄĳuá»£c":13726,"Ġ2022":13727,"ĠquÃłng":13728,"Ġ168":13729,"ĠSB":13730,"ireless":13731,"âĪĴ":13732,"ĠÄ©":13733,"ĠSilver":13734,"Ġgoldmark":13735,"ĠTHUáº¬T":13736,"Ġnhoi":13737,"Ġgran":13738,"vid":13739,"ĠTÆ°á»Ľc":13740,"Ġ0904":13741,"Ġ1958":13742,"ghi":13743,"ĠngÆ°u":13744,"Bu":13745,"ãģ¾":13746,"pháº£n":13747,"ĠMIá»ĦN":13748,"Ġtool":13749,"Ġnhá»īnh":13750,"ĠDual":13751,"ĠNÄĲT":13752,"upe":13753,"UM":13754,"Ed":13755,"ĠLike":13756,"Ġä¼":13757,"Ġæŀ":13758,"ĠNGAY":13759,"celand":13760,"HÄĲND":13761,"pdf":13762,"NghÄ©":13763,"ĠlÃ¨o":13764,"diá»ħn":13765,"tháºŃm":13766,"ĠBudd":13767,"ĠLay":13768,"vanced":13769,"ĠLÆ°á»£c":13770,"ĠJackson":13771,"Chá»¯a":13772,"ĠTÃ¢":13773,"LÃ¢u":13774,"ICE":13775,"ĠRodr":13776,"LÃłng":13777,"red":13778,"khÃ³":13779,"ĠNGÃĢY":13780,"ĠOrig":13781,"ĠBáºłN":13782,"ĠFuj":13783,"En":13784,"AX":13785,"ĠNáº¥u":13786,"Ġicon":13787,"Vá»ĩ":13788,"Ġpa":13789,"ĠService":13790,"bong":13791,"ĠNáºŃm":13792,"NghÄ©a":13793,"akes":13794,"ĠChuá»Ĺi":13795,"ĠLáº·c":13796,"ChÄĥm":13797,"thÃ¡nh":13798,"Giá»įng":13799,"ĠChristian":13800,"ĠJournal":13801,"ĠgiÆ°Æ¡ng":13802,"hoggi":13803,"ĠLÃ£i":13804,"ants":13805,"ĠVision":13806,"ĠAli":13807,"há»į":13808,"kem":13809,"Group":13810,"tháº£":13811,"aceae":13812,"nhat":13813,"Duy":13814,"Ġnháº¥m":13815,"ĠDiÃªu":13816,"Åį":13817,"Ġdit":13818,"Ġáº©u":13819,"ĠVay":13820,"ĠTE":13821,"QS":13822,"ĠÐ±":13823,"ĠGan":13824,"ĠTÃ²ng":13825,"éĩ":13826,"Cont":13827,"Ġvilla":13828,"ĠDÃ¬":13829,"Ġpower":13830,"Ġåİ":13831,"å·":13832,"phÃ¹":13833,"ĠImperia":13834,"ĠÐ½Ð°":13835,"ĠkhiÃªn":13836,"ĠHPV":13837,"Toyota":13838,"ÄĳÆ°Æ¡ng":13839,"Ġvacc":13840,"ĠGÃ³p":13841,"ĠthÃ¹y":13842,"ĠColumb":13843,"Ľtá»©":13844,"ĠBai":13845,"ĠNáº¡p":13846,"ĠXoÃłi":13847,"Ġstand":13848,"ĠBQT":13849,"ĠHI":13850,"235":13851,"ĠDá»±c":13852,"Ġmedia":13853,"ESS":13854,"Ġxoong":13855,"dá»ħ":13856,"ĠOrch":13857,"post":13858,"ĠMD":13859,"ĠPhÃ©p":13860,"SG":13861,"ĠXong":13862,"house":13863,"Nay":13864,"dá»ĭ":13865,"ERS":13866,"ĠFM":13867,"ĠIPS":13868,"ĠnÃ´m":13869,"Ġlá»£":13870,"ĠtÃ¡p":13871,"ĠOLED":13872,"mas":13873,"BCT":13874,"drop":13875,"ĠChai":13876,"ĠçľŁ":13877,"dai":13878,"ĠCoi":13879,"ĠKhashoggi":13880,"utnik":13881,"Ġleg":13882,"roll":13883,"Ká»ĩ":13884,"440":13885,"ĠmÃ£o":13886,"ether":13887,"borghini":13888,"ÐµÐ¼":13889,"Chapter":13890,"ĠAmi":13891,"Ġdá»ım":13892,"ging":13893,"ĠgÃłi":13894,"Äĳá»ģu":13895,"ĠæĤ":13896,"ĠVÆ¡":13897,"ĠEntertainment":13898,"ĠBeat":13899,"Ná»ģn":13900,"vc":13901,"ative":13902,"ĠCross":13903,"Ġlá»©t":13904,"ĠlÃ¡c":13905,"esliga":13906,"ÄĲB":13907,"ĠOz":13908,"Ġdáº·t":13909,"ĠSáº¡n":13910,"ĠCua":13911,"ĠGeneral":13912,"å¾":13913,"ĠKá»ĭch":13914,"ĠLac":13915,"Te":13916,"...).":13917,"ĠVit":13918,"ĠMb":13919,"GÃ²":13920,"alse":13921,"ĠVPS":13922,"láº¥y":13923,"Ġip":13924,"Ġvietnam":13925,"ĠRel":13926,"777":13927,"Ġhard":13928,"uta":13929,"Des":13930,"ĠSri":13931,"eron":13932,"idget":13933,"rich":13934,"Tuyá»ĩt":13935,"ĠLoc":13936,"Ġ152":13937,"ĠtrÄĥ":13938,"Ġboot":13939,"ĠchÃ´m":13940,"ĠKingdom":13941,"ĠBoo":13942,"Ġdell":13943,"Ġlife":13944,"tá»ĳt":13945,"Ġmol":13946,"urai":13947,"ĠåĽĽtá»©":13948,"tern":13949,"ĠFocus":13950,"ĠVolkswagen":13951,"ias":13952,"ĠRÃ¨m":13953,"Sub":13954,"ĠxÃºi":13955,"Ġé«":13956,"ĠrÆ°":13957,"ĠGmail":13958,"Ġ203":13959,"ĠtrÃ£i":13960,"ĠFax":13961,"249":13962,"ĠDor":13963,"áº¶C":13964,"ĠTÃįN":13965,"ĠEther":13966,"tract":13967,"ĠTechnology":13968,"Ġkiá»ĥng":13969,"ĠBK":13970,"plate":13971,"ĠNháº¯c":13972,"109":13973,"á»ĮC":13974,"etel":13975,"áº°":13976,"Ġcaffe":13977,"Táº¡p":13978,"ART":13979,"Ġend":13980,"Ġ420":13981,"ĠTOÃģN":13982,"Ġchá»īn":13983,"nom":13984,"ucci":13985,"Giáº£":13986,"quyá»ģn":13987,"Ġlun":13988,"¥nháºŃp":13989,"ĠBáºŃc":13990,"ĠTÆ¡":13991,"ĠJÃª":13992,"Ġret":13993,"ĠOPPO":13994,"ĠhÃºng":13995,"æ¸":13996,"oke":13997,"ĠIa":13998,"ĠGon":13999,"ĠCav":14000,"ĠÃ©o":14001,"tek":14002,"pli":14003,"ĠEliz":14004,"ĠKM":14005,"ĠVel":14006,"eman":14007,"ffect":14008,"Ġnit":14009,"tranh":14010,"Ġcontrol":14011,"ĠPers":14012,"Ġbá»£":14013,"ingo":14014,"giÃ¡c":14015,"sterdam":14016,"ĠMiÃªu":14017,"ĠPCI":14018,"iri":14019,"Káº»":14020,"Ġluá»¹":14021,"Sáº¯p":14022,"ÄĳÃª":14023,"Ġè¿":14024,"acle":14025,"668":14026,"Ġäºĭ":14027,"fia":14028,"ç»":14029,"Ġthuong":14030,"Ġ802":14031,"bá»ķn":14032,"ĠCoca":14033,"ĠFri":14034,"FE":14035,"205":14036,"Ġentry":14037,"Ġbá»±":14038,"Ġ.\"":14039,"alan":14040,"ĠCÃ¢":14041,"Ġ\".":14042,"Ġåħ¥nháºŃp":14043,"ĠFU":14044,"Kinhtedothi":14045,"æĿ":14046,"Ġlá»ĳ":14047,"ĠTSCÄĲ":14048,"ĠLamborghini":14049,"ĠOver":14050,"lon":14051,"ĠCHá»Ī":14052,"cáº¥p":14053,"Ġstatus":14054,"Bá»¯a":14055,"ĠéĸĢ":14056,"Ġsáº©y":14057,"bun":14058,"ĠlÃ¢ng":14059,"->":14060,"ĠNSND":14061,")/":14062,"ĠHáº¹n":14063,"lit":14064,"ĠÄĳoáº£n":14065,"ĠWhit":14066,"Ġamply":14067,"ÄĳÃ³ng":14068,"ĠNapoli":14069,"din":14070,"Ġtrui":14071,"ono":14072,"duyÃªn":14073,"ĠTrá»ĳng":14074,"ĠdáºŃt":14075,"Ġtot":14076,"Ġæľª":14077,"028":14078,"ĠClassic":14079,"Ġ0988":14080,"Ġé¦":14081,"117":14082,"Ġæĸ¹":14083,"ĠLuis":14084,"ÄĳÃłn":14085,"ĠHawaii":14086,"writeln":14087,"ĠCin":14088,"gam":14089,"222":14090,"ĠHall":14091,"Táº·ng":14092,"Ġkhanh":14093,"ĠKevin":14094,"\",\"\",":14095,"éĢ":14096,"Ġlact":14097,"LinkF":14098,"390":14099,"ĠPhoto":14100,"displayLinkF":14101,"\").":14102,"oland":14103,"ĠVoi":14104,"Yáº¿u":14105,"Ġkaki":14106,"ĠBÃ£o":14107,"CX":14108,"ĠÄĳuá»ĳc":14109,"ĠTung":14110,"2021":14111,"ĠStyle":14112,"ĠVietinBank":14113,"ĠGáº¥u":14114,"izu":14115,"ĠXSMN":14116,"ĠBloomberg":14117,"ĠAle":14118,"url":14119,"ĠGA":14120,"ĠLÆ¯á»¢NG":14121,"ĠVáº£":14122,"Ġgood":14123,"ĠWiFi":14124,"Ġ129":14125,"ITE":14126,"ĠphÃŃch":14127,"áºªN":14128,"Ġçļ":14129,"ĠtrÅ©ng":14130,"ĠEmpire":14131,"ĠNail":14132,"Ġusb":14133,"Ġhecta":14134,"Ġäºĭsá»±":14135,"Ġnhen":14136,"ador":14137,"tien":14138,"ML":14139,"giÃł":14140,"DP":14141,"ĠBil":14142,"Iá»ĤN":14143,"Trá»ĭ":14144,"ĠnÃµn":14145,"Bá»ķ":14146,"Īhá»±u":14147,"ĠxÃ³i":14148,"TrÃŃch":14149,"ĠbÆ°á»Ľng":14150,"ĠAbe":14151,"ĠKos":14152,"ĠMuaBan":14153,"Ġ0908":14154,".......":14155,"ĠFut":14156,"triá»ĩu":14157,"ĠDirect":14158,"ĠmÆ¡n":14159,"Ġnuong":14160,"ĠExciter":14161,"Phá»ĳ":14162,"ĠUni":14163,"Ġè¶":14164,"ÄĳÃºng":14165,"ĠMÃ¹":14166,"Quay":14167,"Ġgá»£n":14168,"175":14169,"ĠWed":14170,"ĠEximbank":14171,"265":14172,"ĠIceland":14173,"ĠChanh":14174,"goo":14175,"æ³":14176,"Ġæľªvá»ĭ":14177,"Tháº±ng":14178,"ĠNHTM":14179,"Ġremote":14180,"Ġxáº¹p":14181,"Ġvisit":14182,"ļI":14183,"Ġláº±n":14184,"Ġ139":14185,"Ġprotected":14186,"BO":14187,"Cáº£i":14188,"Ġsolo":14189,"come":14190,"Ġtrá»¥i":14191,"ĠtrÄ©u":14192,"master":14193,"kong":14194,"Ġtrade":14195,"ĠAdd":14196,"ĠCON":14197,"ĠnhÃ¡c":14198,"Ġgiay":14199,"ĠQG":14200,"ĠIl":14201,"Ġ316":14202,"ÃģT":14203,"ĠInfin":14204,"hÃ¡n":14205,"mÃ´":14206,"Ġtagged":14207,"formation":14208,"mod":14209,"ĠAlexander":14210,"vay":14211,"Ġsáº£i":14212,"233":14213,"BKH":14214,"ĠNak":14215,"555":14216,"Ġpolyp":14217,"ĠMotorola":14218,"ĠBáº¢N":14219,"1983":14220,"Ġ(#":14221,"Ġae":14222,"Ġboss":14223,"ĠPTNT":14224,"agu":14225,"Tá»ĳc":14226,"ĠToronto":14227,"ĠQuyá»ĥn":14228,"dÃłi":14229,"Ġáº¤p":14230,"ĠKate":14231,"Ġbá»ĩt":14232,"ĠUPS":14233,"mun":14234,"æ°":14235,"pert":14236,"IR":14237,"Ġæľ¬":14238,"hl":14239,"free":14240,"Ġnáº¿t":14241,"ĠMoto":14242,"ĠRon":14243,"NháºŃp":14244,"ĠBÆ¡":14245,"âĻ¦":14246,"410":14247,"LÃło":14248,"Chá»ĵng":14249,"AST":14250,"340":14251,"ĠNgÃ¢m":14252,"ĠTiÃªm":14253,"ĠJak":14254,"Ġmacbook":14255,"ĠCAM":14256,"Gá»įi":14257,"Ġdem":14258,"usse":14259,"ĠÄĲua":14260,"ĠtuÃ´ng":14261,"bÃ¡c":14262,"ĠæĮ":14263,"ĠCruz":14264,"ĠToday":14265,"ĠNepal":14266,"Î±":14267,"full":14268,"ĠÃ¯":14269,"chÃ¡nh":14270,"ĠNÃ³ng":14271,"ĠSá»°":14272,"Ġmiáº¿t":14273,"Ġçı":14274,"Ġhiflex":14275,"ibo":14276,"420":14277,"Ġháº«ng":14278,"láºŃp":14279,"ĠLoai":14280,"ĠPhá»ī":14281,"ĠDaewoo":14282,"á»Ŀn":14283,"368":14284,"ĠAnth":14285,"Cá»ķng":14286,"Ġæģ":14287,"ĠÃ¹a":14288,"VND":14289,"?...":14290,"Ġstream":14291,"nho":14292,"ĠdÆ¡i":14293,"Ð¸Ðº":14294,"ĠRÃ¹a":14295,"BK":14296,"ĠCanxi":14297,"ä¸ī":14298,"Ġunder":14299,"ĠJoseph":14300,"ĠTGÄĲ":14301,"nm":14302,"ĠKhuynh":14303,"Ġkhá»ĳ":14304,"ĠVNG":14305,"ĠÄĳÃ©o":14306,"ĠSá»£":14307,"ĠnÃłi":14308,"idel":14309,"Ġshe":14310,"ĠMá»¸":14311,"ĠÄĳoÃ¡i":14312,"eder":14313,"Ġ1600":14314,"Báº¿n":14315,"ĠTriá»ĩt":14316,"ĠSpace":14317,"304":14318,"ĠèĪĩ":14319,"instein":14320,"He":14321,"ĠAsp":14322,"Mal":14323,"tiÃªn":14324,"Ä«":14325,"fu":14326,"ĠMode":14327,"Ġhá»Ľ":14328,"139":14329,"ĠKIM":14330,"ucker":14331,"Ġtrailer":14332,"à¹ĳ":14333,"Ġ1959":14334,"Ġhtml":14335,"DONG":14336,"ĠBundesliga":14337,"ĠAcademy":14338,"Mu":14339,"è¿":14340,"ĠSunrise":14341,"Bi":14342,"ĠÂ®":14343,"VÆ°á»Ŀn":14344,"ĠGate":14345,"ĠJoe":14346,"Ġ\\(":14347,"Ġmegapixel":14348,"Ġ156":14349,"lear":14350,"Ġmetro":14351,"ĠSher":14352,"ĠBá»į":14353,"ĠKÃ¬nh":14354,"ĠÃĲÃ¢y":14355,"ĠFirefox":14356,"ĠSapphire":14357,"ĠMean":14358,"down":14359,"ĠmÃłnh":14360,"Æ°á»£i":14361,"dao":14362,"ħu":14363,"VNÄĲ":14364,"Ġç´":14365,"ĠAntonio":14366,"ĠnhÃ¬u":14367,"ĠåĪĩ":14368,"Ġç¶ĵ":14369,"Ġnote":14370,"ĠCE":14371,"2888":14372,"Ġport":14373,"ĠBent":14374,"ĠThÃ¢":14375,"YM":14376,"Pháº«u":14377,"uya":14378,"pen":14379,"tÃ¹ng":14380,"Ġ144":14381,"ĠJBL":14382,"ĠÄĳanh":14383,"Má»ĳi":14384,"ĠVespa":14385,"ĠèĪĩdá»¯":14386,"leng":14387,"mien":14388,"ĠRin":14389,"ĠThÆ°á»Ľc":14390,"ĠåıĪhá»±u":14391,"ĠCombo":14392,"wah":14393,"Ġconcept":14394,"ĠDHL":14395,"ĠThÄĥm":14396,"ĠCivic":14397,"ĠBale":14398,"ĠHá»¢":14399,"ĠPokemon":14400,"ustic":14401,"ĠThis":14402,"Ġquá»ī":14403,"pos":14404,"Ġget":14405,"á»Ĥ":14406,"pher":14407,",âĢ¦)":14408,"ĠBá»ĵng":14409,"Ġæħ":14410,"Ġtá»£n":14411,"Khung":14412,"Ġlá»ķ":14413,"ĠBali":14414,"ĠHá»Ĩ":14415,"ThÆ¡":14416,"ĠRÃºt":14417,"hn":14418,"ĠRoman":14419,"vision":14420,"ladesh":14421,"vien":14422,"ĠcháºŃn":14423,"114":14424,"ĠnhÃº":14425,"ĠNGHá»Ĩ":14426,"ĠGH":14427,"ĠTáº¬P":14428,"ĠQuÃ¡i":14429,"Ġfake":14430,":âĢľ":14431,"Ġnen":14432,"ĠkV":14433,"Ġbáº¹p":14434,"ĠSevilla":14435,"ĠNgÃłn":14436,"ĠHáº»m":14437,"á»ĶI":14438,"ĠJoh":14439,"~~":14440,"ĠAccess":14441,"Ġcá»£t":14442,"Ġshopping":14443,"quÃ½":14444,"chÆ¡i":14445,"ĠXVI":14446,"Ð°Ð¼":14447,"ĠFederer":14448,"ĠPetro":14449,"ĠHills":14450,"ĠÄĲTQG":14451,"hou":14452,"Khá»ĳi":14453,"ĠRáº«y":14454,"Ġreal":14455,"ĠVirginia":14456,"æľĪ":14457,"ĠÄĲHQGHN":14458,"ĠkhÆ°":14459,"ĠLáº¡y":14460,"omet":14461,"ply":14462,"Ġnhá»ĳi":14463,"ĠÄĲao":14464,"ĠHOTLINE":14465,"ĠDá»¥":14466,"ĠTro":14467,"ĠYong":14468,"ĠLáº½":14469,"TTT":14470,"ĠÃ¡ng":14471,"Ġebook":14472,"ĠTNDN":14473,"Ġmun":14474,"ĠPy":14475,"ĠCover":14476,"Ġnháº£m":14477,"ĠrÆ°á»£t":14478,"ĠÐ·":14479,"ĠnhÃ²e":14480,"Ġæĸ¹phÆ°Æ¡ng":14481,"ĠåĲĮ":14482,"igrave":14483,"ĠVOV":14484,"SÆ¡":14485,"Singapore":14486,"ĠhuyÃªn":14487,"hÃ£y":14488,"alur":14489,"ĠPhilip":14490,"cn":14491,"ĠCopy":14492,"ĠOffic":14493,"ĠPres":14494,"ĠElite":14495,"Show":14496,"Ġngá»Ľt":14497,"xÃ¢y":14498,"ĠMá»ĺT":14499,"ÃģI":14500,"Æ¯NG":14501,"ĠAmsterdam":14502,"Ġá»¨":14503,"ĠMessenger":14504,"ÃĴA":14505,"Ġmal":14506,"RT":14507,"ĮháºŃu":14508,"Ġ0903":14509,"ĠSimon":14510,"ĠkWh":14511,"Ġwho":14512,"phiÃªn":14513,"olas":14514,"LÃ´":14515,"ĠTNG":14516,"ĠLá»ļ":14517,"ĠÄĳá»±":14518,"Ġ340":14519,"song":14520,"Ġuser":14521,"ĠMoz":14522,"ĠèŃĺ":14523,"Ġç¾©":14524,"Ġ134":14525,"ÄĳÃªm":14526,"vÆ°Æ¡ng":14527,"Ġgiá»ħu":14528,"ige":14529,"Ġblack":14530,"Ġpham":14531,"Ġunlock":14532,"ĠIndex":14533,"ĠåĪĨ":14534,"lai":14535,"thá»§y":14536,"ĠCool":14537,"Ġráº·ng":14538,"castle":14539,"ĠBeta":14540,"ĠHV":14541,"Ġhp":14542,"Ø³":14543,"256":14544,"Biáº¿n":14545,"Ġå¾ĮháºŃu":14546,"ĠðŁĻĤ":14547,"ĠScott":14548,"Ġxá»Ľi":14549,"Ġmá»Ĺ":14550,"ĠCad":14551,"ĠVersion":14552,"ĠHá»§y":14553,"ĠkhÃ²":14554,"vá»£":14555,"ering":14556,"ĠxÃ©o":14557,"ĠList":14558,"ĠGÃŃa":14559,"ĠTHá»°C":14560,"Ġgene":14561,"ãģ¯":14562,"ĠConte":14563,"ĠJÃªsus":14564,"AU":14565,"mad":14566,"feng":14567,"Ġhá»¯ng":14568,"ĠWW":14569,"ĠManagement":14570,"ĠMade":14571,"Ġ1961":14572,"Ñĸ":14573,"ĠKid":14574,"ĠChanel":14575,"Ġchá»Ŀn":14576,"ĠæŃ£":14577,"Ġgiá»Ŀi":14578,"Gu":14579,"Ġbuilding":14580,"æĢ":14581,"ĠTIá»ĢN":14582,"ãģĮ":14583,"Kiáº¿m":14584,"Star":14585,"Ġkhá»Ŀ":14586,"ĠÄĲáº¶T":14587,"Ġfirst":14588,"ĠThuÃ½":14589,"tom":14590,"ĠDark":14591,"ĠLáº¡":14592,"ĠlÃ¯":14593,"cá»©u":14594,"Ġç·":14595,"Ġngan":14596,"ĠQuick":14597,"war":14598,"Ġháº¹":14599,"138":14600,"ĠDun":14601,"Ġekip":14602,"ĠlÃ³":14603,"á»¥a":14604,"trans":14605,"Ġsky":14606,"ĠDet":14607,"ĠBU":14608,"Ġremix":14609,"305":14610,"Ġæ²":14611,"imi":14612,"Ġtv":14613,"ĠPixel":14614,"ipe":14615,"Ġçµ":14616,"Ġbest":14617,"ĠTÆ°Æ¡i":14618,"roi":14619,"ĠSize":14620,"050":14621,"Ġ1955":14622,"ĠOil":14623,"ÄĲÆ°a":14624,"ĠAdidas":14625,"ĠXÄĥng":14626,"phia":14627,"ĠDiá»ĩc":14628,"Chá»ĳng":14629,"Ġ<<":14630,"ĠATP":14631,"lÃ£o":14632,"ĠKal":14633,"ĠHÃºc":14634,"isk":14635,"ĠÃ¬":14636,"má»¥c":14637,"ĠTNCN":14638,"Ġwindow":14639,"esp":14640,"145":14641,"Ġvit":14642,"Ġæľ¬bá»ķn":14643,"ĠsÃªn":14644,"310":14645,"ough":14646,"media":14647,"nhe":14648,"á»ĺNG":14649,"Ġtestosterone":14650,"Ġnáº©y":14651,"iversid":14652,"ĠéĸĢmÃ´n":14653,"Ġhá»±c":14654,"ĠBN":14655,"ĠâĢľ.":14656,"BTNMT":14657,"Máº¡ng":14658,"ĠdÆ°á»£ng":14659,"ĠåĴ":14660,"ĠnhÃºc":14661,"office":14662,"ÐµÐ´":14663,"ÄĲÃ¡m":14664,"Ġver":14665,"129":14666,"ĠkhÃ¹ng":14667,"ĠDÄ©nh":14668,"ĠGR":14669,"ĠProtein":14670,"Na":14671,"ĠTHá»¦":14672,"conom":14673,"ĠMach":14674,"otin":14675,"Ġ141":14676,"ÄĲáº£m":14677,"Ġlot":14678,"Ð°Ñı":14679,"ĠGÄĲPT":14680,"Ġgá»ĵng":14681,"kav":14682,"Ġour":14683,"ĠåĲĮÄĳá»ĵng":14684,"chuáº©n":14685,"ĠChá»§ng":14686,"ĠSettings":14687,"ĠNoi":14688,"ĠÄĲáº¤T":14689,"Ġ)#":14690,"ĠFus":14691,"seido":14692,"Ġ131":14693,"ĠThá»±":14694,"ĠLAODONG":14695,"chá»įn":14696,"rolimex":14697,"ĠMasteri":14698,"Ġgá»įng":14699,"Ly":14700,"ÄĲá»Ļc":14701,"txt":14702,"ĠGlass":14703,"ĠĠĠĠĠĠĠĠĠĠĠĠĠĠĠĠĠĠĠĠĠĠĠĠĠĠĠĠĠĠĠĠ":14704,"ĠDisplay":14705,"Ġhormon":14706,"BI":14707,"ĠhuÃ¢n":14708,"ĠHp":14709,"ĠDak":14710,"Ġtruá»ĵng":14711,"ĠCommun":14712,"ĠTun":14713,"anna":14714,"ĠåĪĩthiáº¿t":14715,"ĠåĪ¥":14716,"ĠKeo":14717,"Ġmá»īa":14718,"à¥":14719,"KhÃ³":14720,"itech":14721,"ĠFrance":14722,"chat":14723,"ource":14724,"ĠgiÅ©":14725,"ĠGá»ĳc":14726,"Ġcocktail":14727,"ĠVá»ļI":14728,"456":14729,"Ð°Ðº":14730,"ĠnhÃ¡p":14731,"lip":14732,"Ġpic":14733,"Ġtal":14734,"ĠGro":14735,"ĠND":14736,"nie":14737,"Ġmagie":14738,"cp":14739,"left":14740,"Bá»ı":14741,"ĠèĲ":14742,"ified":14743,"ĠPau":14744,"ÄĲáº£o":14745,"ĠKane":14746,"ĠgÃłu":14747,"685":14748,"1994":14749,"Cáº¯t":14750,"Ġ6000":14751,"ĠRM":14752,"TrÆ°a":14753,"Ġtháº£nh":14754,"Ġprofile":14755,"ctor":14756,"Ġnitr":14757,"ĠTHA":14758,"ĠATTP":14759,"âĢ²":14760,"aper":14761,"ĠâĢĶâĢĶ":14762,"ĠThink":14763,"doch":14764,"trá»ĭ":14765,"idi":14766,"ĠÂ».":14767,"165":14768,"ĠCBCNV":14769,"ĠTrÃ¢u":14770,"ICA":14771,"thá»į":14772,"ç¥ŀ":14773,"ĠTHá»¨C":14774,"áºłC":14775,"quoc":14776,"wh":14777,"phy":14778,"ĠHá»¢P":14779,"Xi":14780,"Ġæĩ":14781,"ĠSign":14782,"ĠPlayer":14783,"hong":14784,"Ġphay":14785,"Ġ2500":14786,"ĠTáºłO":14787,"Má»¥n":14788,"ĠOxford":14789,"Dáº¥u":14790,"cord":14791,"thong":14792,"tÃ¬m":14793,"okovic":14794,"biáº¿t":14795,"ĠJol":14796,"ÃģNG":14797,"ĠWang":14798,"File":14799,"ĠAtt":14800,"Ġgar":14801,"GL":14802,"ĠCOD":14803,"ĠSkype":14804,"Ġloc":14805,"ĠUSS":14806,"ELL":14807,"ĠHÃª":14808,"logan":14809,"Ġoffset":14810,"cert":14811,"Ġtong":14812,"ymer":14813,"Ġ950":14814,"uman":14815,"ĠUpdate":14816,"ĠMáº¶T":14817,"Ġä¸ĸtháº¿":14818,"Ġcháºµn":14819,"iation":14820,"ĠåĪ¥biá»ĩt":14821,"WD":14822,"ĠiT":14823,"Giá»¯":14824,"âĢ¦;":14825,"ĠHDR":14826,"ĠBooking":14827,"ĠLibya":14828,"Mi":14829,"ĠAnti":14830,"ãĤĴ":14831,"355":14832,"ĠGPU":14833,"sson":14834,"Ġthuc":14835,"ĠBrad":14836,"itch":14837,"Ð°Ð²":14838,"Honda":14839,"ĠlÃªnh":14840,"Ġ.....":14841,"ĠlÃ²i":14842,"Ġdie":14843,"ĠXiá»ĥn":14844,"ĠPur":14845,"TrÃ¡nh":14846,"Ġdia":14847,"ĠBangladesh":14848,"Ġgarden":14849,"ĠTáº¾":14850,"NAM":14851,"ĠVáº¤N":14852,"ĠKoh":14853,"ĠKhay":14854,"Ġthá»Ľ":14855,"ĠnÃ²i":14856,"399":14857,"ĠSwift":14858,"ĠBong":14859,"Ġ091":14860,"Ġrá»ı":14861,"Ġdz":14862,"ĠEdward":14863,"Ġpháº§m":14864,"Ġ512":14865,"Ġcenter":14866,"åĮ":14867,"ĠNoo":14868,"Cáº¥p":14869,"bac":14870,"nt":14871,"ĠAlo":14872,"ĠmÃ£ng":14873,"Ġ185":14874,"GO":14875,"ĠÂ©":14876,"ĠKiÃª":14877,"ĠElizabeth":14878,"á»ĩp":14879,"itsu":14880,"ĠÄĳá»ĥu":14881,"ĠApartment":14882,"TÆ°á»Łng":14883,"sÃ¢n":14884,"ĠClo":14885,"á»ŀNG":14886,"ĠÄĲá»ĩm":14887,"ĠcáºŃt":14888,"Ġláº¥m":14889,"Ġnghiep":14890,"155":14891,"fan":14892,"walk":14893,"ĠRoss":14894,"ĠhÃ³ng":14895,"ĠGIÃģO":14896,"ĠVA":14897,"look":14898,"Âª":14899,"ĠæĶ":14900,"ĠhÃ³i":14901,"Ġtá»Ńu":14902,"nghiá»ĩp":14903,"Ġrom":14904,"ĠDOANH":14905,"ĠÄĥng":14906,"zbek":14907,"ĠScan":14908,"Ġcá»±a":14909,"Ġåĳ":14910,"ĠLONG":14911,"ĠFul":14912,"Nhiá»ĩt":14913,"CÃ¡nh":14914,"ī²":14915,"akia":14916,"THÃĶNG":14917,"rome":14918,"ĠSay":14919,"alia":14920,"EFL":14921,"elect":14922,"ĠFind":14923,"ĠVivo":14924,"irin":14925,"Ġhoáº±ng":14926,"áº®T":14927,"Tuyáº¿n":14928,"ĠTCTD":14929,"mx":14930,"369":14931,"ĠSpir":14932,"vÅ©":14933,"ĠCÃģCH":14934,"ĠxiÃªm":14935,"Ġcookie":14936,"enix":14937,"ĠRest":14938,"HU":14939,"gs":14940,"Pháº£n":14941,"ĠEnd":14942,"ĠCHUYÃĬN":14943,"ĶngÅ©":14944,"ĠKG":14945,"ĠWilliams":14946,"ĠFern":14947,"Is":14948,"ĠWeek":14949,"MÆ°á»Ŀi":14950,"Ġstar":14951,"cháº¯c":14952,"ĠCath":14953,"Ġ1940":14954,"????":14955,"ĠBell":14956,"ĠÄĲÄ©a":14957,"Ġdig":14958,"ĠTTCK":14959,"XT":14960,"ĠLáºŃy":14961,"mec":14962,"Ġhead":14963,"ĠFBI":14964,"Up":14965,"aud":14966,"ĩĴ":14967,"náº±m":14968,"Ġsá»©t":14969,"ĠSavills":14970,"ĠSud":14971,"ĠFel":14972,"Ġchá»ĩch":14973,"cover":14974,"ĠèŃĺthá»©c":14975,"ÃŁ":14976,"ĠNgÃł":14977,"ĠÄĲI":14978,"Ġak":14979,"ĠTw":14980,"Láº¡c":14981,"Ġháº¿n":14982,"Sun":14983,"ĠNova":14984,"ĠNature":14985,"ĠCharm":14986,"ĠVIE":14987,"láº¡i":14988,"ĠHáº¡m":14989,"ĠCali":14990,
[...]
